{
  "version": "1.0",
  "truncation": {
    "direction": "Right",
    "max_length": 160,
    "strategy": "LongestFirst",
    "stride": 0
  },
  "padding": {
    "strategy": {
      "Fixed": 160
    },
    "direction": "Right",
    "pad_to_multiple_of": null,
    "pad_id": 0,
    "pad_type_id": 0,
    "pad_token": "[PAD]"
  },
  "added_tokens": [
    {
      "id": 0,
      "content": "[PAD]",
      "single_word": false,
      "lstrip": false,
      "rstrip": false,
      "normalized": false,
      "special": true
    },
    {
      "id": 1,
      "content": "[UNK]",
      "single_word": false,
      "lstrip": false,
      "rstrip": false,
      "normalized": false,
      "special": true
    },
    {
      "id": 2,
      "content": "[CLS]",
      "single_word": false,
      "lstrip": false,
      "rstrip": false,
      "normalized": false,
      "special": true
    },
    {
      "id": 3,
      "content": "[SEP]",
      "single_word": false,
      "lstrip": false,
      "rstrip": false,
      "normalized": false,
      "special": true
    },
    {
      "id": 4,
      "content": "[MASK]",
      "single_word": false,
      "lstrip": false,
      "rstrip": false,
      "normalized": false,
      "special": true
    }
  ],
  "normalizer": {
    "type": "Sequence",
    "normalizers": [
      {
        "type": "NFKC"
      },
      {
        "type": "Lowercase"
      }
    ]
  },
  "pre_tokenizer": {
    "type": "Whitespace"
  },
  "post_processor": {
    "type": "TemplateProcessing",
    "single": [
      {
        "SpecialToken": {
          "id": "[CLS]",
          "type_id": 0
        }
      },
      {
        "Sequence": {
          "id": "A",
          "type_id": 0
        }
      },
      {
        "SpecialToken": {
          "id": "[SEP]",
          "type_id": 0
        }
      }
    ],
    "pair": [
      {
        "SpecialToken": {
          "id": "[CLS]",
          "type_id": 0
        }
      },
      {
        "Sequence": {
          "id": "A",
          "type_id": 0
        }
      },
      {
        "SpecialToken": {
          "id": "[SEP]",
          "type_id": 0
        }
      },
      {
        "Sequence": {
          "id": "B",
          "type_id": 1
        }
      },
      {
        "SpecialToken": {
          "id": "[SEP]",
          "type_id": 1
        }
      }
    ],
    "special_tokens": {
      "[CLS]": {
        "id": "[CLS]",
        "ids": [
          2
        ],
        "tokens": [
          "[CLS]"
        ]
      },
      "[SEP]": {
        "id": "[SEP]",
        "ids": [
          3
        ],
        "tokens": [
          "[SEP]"
        ]
      }
    }
  },
  "decoder": null,
  "model": {
    "type": "WordPiece",
    "unk_token": "[UNK]",
    "continuing_subword_prefix": "##",
    "max_input_chars_per_word": 100,
    "vocab": {
      "[PAD]": 0,
      "[UNK]": 1,
      "[CLS]": 2,
      "[SEP]": 3,
      "[MASK]": 4,
      "!": 5,
      "\"": 6,
      "#": 7,
      "$": 8,
      "%": 9,
      "&": 10,
      "'": 11,
      "(": 12,
      ")": 13,
      "*": 14,
      "+": 15,
      ",": 16,
      "-": 17,
      ".": 18,
      "/": 19,
      "0": 20,
      "1": 21,
      "2": 22,
      "3": 23,
      "4": 24,
      "5": 25,
      "6": 26,
      "7": 27,
      "8": 28,
      "9": 29,
      ":": 30,
      ";": 31,
      "<": 32,
      "=": 33,
      ">": 34,
      "?": 35,
      "@": 36,
      "[": 37,
      "\\": 38,
      "]": 39,
      "^": 40,
      "_": 41,
      "`": 42,
      "a": 43,
      "b": 44,
      "c": 45,
      "d": 46,
      "e": 47,
      "f": 48,
      "g": 49,
      "h": 50,
      "i": 51,
      "j": 52,
      "k": 53,
      "l": 54,
      "m": 55,
      "n": 56,
      "o": 57,
      "p": 58,
      "q": 59,
      "r": 60,
      "s": 61,
      "t": 62,
      "u": 63,
      "v": 64,
      "w": 65,
      "x": 66,
      "y": 67,
      "z": 68,
      "{": 69,
      "|": 70,
      "}": 71,
      "~": 72,
      "¡": 73,
      "¢": 74,
      "£": 75,
      "¥": 76,
      "©": 77,
      "«": 78,
      "¬": 79,
      "®": 80,
      "°": 81,
      "±": 82,
      "¶": 83,
      "·": 84,
      "»": 85,
      "¿": 86,
      "×": 87,
      "ß": 88,
      "à": 89,
      "á": 90,
      "â": 91,
      "ã": 92,
      "ä": 93,
      "å": 94,
      "æ": 95,
      "ç": 96,
      "è": 97,
      "é": 98,
      "ê": 99,
      "ë": 100,
      "ì": 101,
      "í": 102,
      "ï": 103,
      "ð": 104,
      "ñ": 105,
      "ò": 106,
      "ó": 107,
      "ô": 108,
      "õ": 109,
      "ö": 110,
      "÷": 111,
      "ø": 112,
      "ù": 113,
      "ú": 114,
      "ü": 115,
      "ý": 116,
      "þ": 117,
      "ā": 118,
      "ă": 119,
      "ć": 120,
      "č": 121,
      "đ": 122,
      "ē": 123,
      "ę": 124,
      "ě": 125,
      "ğ": 126,
      "ĩ": 127,
      "ī": 128,
      "ĭ": 129,
      "ł": 130,
      "ń": 131,
      "ō": 132,
      "ŏ": 133,
      "š": 134,
      "ũ": 135,
      "ū": 136,
      "ż": 137,
      "ơ": 138,
      "ƪ": 139,
      "ư": 140,
      "ǎ": 141,
      "ǐ": 142,
      "ǹ": 143,
      "ɇ": 144,
      "ɔ": 145,
      "ɗ": 146,
      "ə": 147,
      "ɛ": 148,
      "ɲ": 149,
      "ʀ": 150,
      "ʃ": 151,
      "ʒ": 152,
      "ʔ": 153,
      "ʕ": 154,
      "ʖ": 155,
      "ˈ": 156,
      "ː": 157,
      "̀": 158,
      "́": 159,
      "̃": 160,
      "̄": 161,
      "̆": 162,
      "̇": 163,
      "̉": 164,
      "̊": 165,
      "̣": 166,
      "̶": 167,
      "͏": 168,
      "͜": 169,
      "͡": 170,
      "ά": 171,
      "α": 172,
      "γ": 173,
      "δ": 174,
      "ε": 175,
      "ζ": 176,
      "θ": 177,
      "ι": 178,
      "λ": 179,
      "μ": 180,
      "ν": 181,
      "ο": 182,
      "π": 183,
      "ρ": 184,
      "ς": 185,
      "σ": 186,
      "τ": 187,
      "φ": 188,
      "ψ": 189,
      "ω": 190,
      "ύ": 191,
      "а": 192,
      "б": 193,
      "в": 194,
      "г": 195,
      "д": 196,
      "е": 197,
      "ж": 198,
      "з": 199,
      "и": 200,
      "й": 201,
      "к": 202,
      "л": 203,
      "м": 204,
      "н": 205,
      "о": 206,
      "п": 207,
      "р": 208,
      "с": 209,
      "т": 210,
      "у": 211,
      "х": 212,
      "ч": 213,
      "ш": 214,
      "ы": 215,
      "ь": 216,
      "э": 217,
      "я": 218,
      "ѕ": 219,
      "і": 220,
      "أ": 221,
      "ا": 222,
      "ب": 223,
      "ة": 224,
      "ت": 225,
      "ج": 226,
      "د": 227,
      "ذ": 228,
      "ع": 229,
      "غ": 230,
      "ق": 231,
      "ك": 232,
      "ل": 233,
      "م": 234,
      "ن": 235,
      "ه": 236,
      "ي": 237,
      "ಠ": 238,
      "ಡ": 239,
      "ಥ": 240,
      "ก": 241,
      "ค": 242,
      "ง": 243,
      "จ": 244,
      "ฉ": 245,
      "ด": 246,
      "ต": 247,
      "ท": 248,
      "น": 249,
      "ป": 250,
      "ม": 251,
      "ย": 252,
      "ร": 253,
      "ว": 254,
      "ศ": 255,
      "ห": 256,
      "อ": 257,
      "ฮ": 258,
      "ะ": 259,
      "ั": 260,
      "า": 261,
      "ี": 262,
      "ุ": 263,
      "เ": 264,
      "ไ": 265,
      "็": 266,
      "่": 267,
      "้": 268,
      "์": 269,
      "ํ": 270,
      "๏": 271,
      "ຶ": 272,
      "༎": 273,
      "༺": 274,
      "༻": 275,
      "༼": 276,
      "༽": 277,
      "ᅠ": 278,
      "ᒎ": 279,
      "឴": 280,
      "᠎": 281,
      "ᴖ": 282,
      "ᴗ": 283,
      "ḥ": 284,
      "ạ": 285,
      "ả": 286,
      "ấ": 287,
      "ầ": 288,
      "ẩ": 289,
      "ẫ": 290,
      "ậ": 291,
      "ắ": 292,
      "ằ": 293,
      "ẳ": 294,
      "ẵ": 295,
      "ặ": 296,
      "ẹ": 297,
      "ẻ": 298,
      "ẽ": 299,
      "ế": 300,
      "ề": 301,
      "ể": 302,
      "ễ": 303,
      "ệ": 304,
      "ỉ": 305,
      "ị": 306,
      "ọ": 307,
      "ỏ": 308,
      "ố": 309,
      "ồ": 310,
      "ổ": 311,
      "ỗ": 312,
      "ộ": 313,
      "ớ": 314,
      "ờ": 315,
      "ở": 316,
      "ỡ": 317,
      "ợ": 318,
      "ụ": 319,
      "ủ": 320,
      "ứ": 321,
      "ừ": 322,
      "ử": 323,
      "ữ": 324,
      "ự": 325,
      "ỳ": 326,
      "ỵ": 327,
      "ỷ": 328,
      "ỹ": 329,
      "​": 330,
      "‌": 331,
      "‍": 332,
      "‎": 333,
      "‐": 334,
      "–": 335,
      "—": 336,
      "―": 337,
      "‘": 338,
      "’": 339,
      "‚": 340,
      "“": 341,
      "”": 342,
      "„": 343,
      "•": 344,
      "‬": 345,
      "‭": 346,
      "′": 347,
      "›": 348,
      "※": 349,
      "‿": 350,
      "⁠": 351,
      "₫": 352,
      "€": 353,
      "₭": 354,
      "₴": 355,
      "←": 356,
      "↑": 357,
      "→": 358,
      "↔": 359,
      "⇒": 360,
      "∀": 361,
      "∆": 362,
      "−": 363,
      "∕": 364,
      "√": 365,
      "∞": 366,
      "∫": 367,
      "∽": 368,
      "≈": 369,
      "≠": 370,
      "≤": 371,
      "≥": 372,
      "≦": 373,
      "≧": 374,
      "⊙": 375,
      "⋃": 376,
      "━": 377,
      "┻": 378,
      "╯": 379,
      "╰": 380,
      "□": 381,
      "►": 382,
      "▽": 383,
      "○": 384,
      "◎": 385,
      "●": 386,
      "◔": 387,
      "◕": 388,
      "◡": 389,
      "☃": 390,
      "☄": 391,
      "☑": 392,
      "☞": 393,
      "☪": 394,
      "☹": 395,
      "☺": 396,
      "☼": 397,
      "♠": 398,
      "♡": 399,
      "♣": 400,
      "♥": 401,
      "♦": 402,
      "♪": 403,
      "♫": 404,
      "♬": 405,
      "⚖": 406,
      "⚠": 407,
      "⚱": 408,
      "⛱": 409,
      "⛹": 410,
      "✅": 411,
      "✈": 412,
      "✉": 413,
      "✌": 414,
      "✍": 415,
      "✓": 416,
      "✔": 417,
      "✦": 418,
      "✰": 419,
      "✳": 420,
      "✿": 421,
      "❄": 422,
      "❝": 423,
      "❞": 424,
      "❤": 425,
      "➡": 426,
      "⬅": 427,
      "、": 428,
      "。": 429,
      "〉": 430,
      "《": 431,
      "》": 432,
      "「": 433,
      "」": 434,
      "【": 435,
      "】": 436,
      "〰": 437,
      "あ": 438,
      "ぃ": 439,
      "い": 440,
      "う": 441,
      "お": 442,
      "か": 443,
      "が": 444,
      "き": 445,
      "く": 446,
      "ぐ": 447,
      "け": 448,
      "こ": 449,
      "ご": 450,
      "さ": 451,
      "ざ": 452,
      "し": 453,
      "じ": 454,
      "す": 455,
      "せ": 456,
      "ぜ": 457,
      "そ": 458,
      "た": 459,
      "だ": 460,
      "っ": 461,
      "つ": 462,
      "づ": 463,
      "て": 464,
      "で": 465,
      "と": 466,
      "ど": 467,
      "な": 468,
      "に": 469,
      "ね": 470,
      "の": 471,
      "は": 472,
      "び": 473,
      "ふ": 474,
      "ぶ": 475,
      "べ": 476,
      "ま": 477,
      "み": 478,
      "め": 479,
      "も": 480,
      "や": 481,
      "ょ": 482,
      "よ": 483,
      "ら": 484,
      "り": 485,
      "る": 486,
      "れ": 487,
      "ろ": 488,
      "わ": 489,
      "を": 490,
      "ん": 491,
      "ア": 492,
      "ィ": 493,
      "イ": 494,
      "ゥ": 495,
      "ォ": 496,
      "オ": 497,
      "カ": 498,
      "キ": 499,
      "ク": 500,
      "グ": 501,
      "サ": 502,
      "シ": 503,
      "ジ": 504,
      "ス": 505,
      "ズ": 506,
      "ゼ": 507,
      "ソ": 508,
      "タ": 509,
      "ダ": 510,
      "チ": 511,
      "ッ": 512,
      "ツ": 513,
      "テ": 514,
      "デ": 515,
      "ト": 516,
      "ド": 517,
      "ナ": 518,
      "ニ": 519,
      "ノ": 520,
      "バ": 521,
      "パ": 522,
      "ピ": 523,
      "フ": 524,
      "ブ": 525,
      "プ": 526,
      "ヘ": 527,
      "ベ": 528,
      "ペ": 529,
      "ホ": 530,
      "マ": 531,
      "ム": 532,
      "メ": 533,
      "ャ": 534,
      "ュ": 535,
      "ユ": 536,
      "ラ": 537,
      "リ": 538,
      "ル": 539,
      "レ": 540,
      "ロ": 541,
      "ン": 542,
      "ヴ": 543,
      "・": 544,
      "ー": 545,
      "一": 546,
      "丁": 547,
      "七": 548,
      "万": 549,
      "丈": 550,
      "三": 551,
      "上": 552,
      "下": 553,
      "不": 554,
      "与": 555,
      "且": 556,
      "世": 557,
      "东": 558,
      "並": 559,
      "个": 560,
      "中": 561,
      "丹": 562,
      "为": 563,
      "主": 564,
      "举": 565,
      "么": 566,
      "之": 567,
      "乐": 568,
      "乘": 569,
      "九": 570,
      "也": 571,
      "习": 572,
      "乡": 573,
      "书": 574,
      "乳": 575,
      "了": 576,
      "争": 577,
      "事": 578,
      "二": 579,
      "于": 580,
      "亏": 581,
      "云": 582,
      "五": 583,
      "亡": 584,
      "交": 585,
      "亦": 586,
      "产": 587,
      "京": 588,
      "亮": 589,
      "人": 590,
      "什": 591,
      "仆": 592,
      "从": 593,
      "他": 594,
      "仙": 595,
      "代": 596,
      "以": 597,
      "仪": 598,
      "们": 599,
      "任": 600,
      "伐": 601,
      "众": 602,
      "伙": 603,
      "会": 604,
      "传": 605,
      "伤": 606,
      "伯": 607,
      "佌": 608,
      "住": 609,
      "佐": 610,
      "体": 611,
      "何": 612,
      "佗": 613,
      "余": 614,
      "佛": 615,
      "作": 616,
      "你": 617,
      "使": 618,
      "來": 619,
      "例": 620,
      "供": 621,
      "依": 622,
      "侠": 623,
      "侧": 624,
      "侯": 625,
      "侵": 626,
      "便": 627,
      "俗": 628,
      "俸": 629,
      "俺": 630,
      "倒": 631,
      "候": 632,
      "値": 633,
      "做": 634,
      "傅": 635,
      "傳": 636,
      "働": 637,
      "像": 638,
      "光": 639,
      "入": 640,
      "全": 641,
      "八": 642,
      "公": 643,
      "六": 644,
      "兮": 645,
      "关": 646,
      "兵": 647,
      "其": 648,
      "典": 649,
      "内": 650,
      "円": 651,
      "再": 652,
      "军": 653,
      "农": 654,
      "冲": 655,
      "冷": 656,
      "冻": 657,
      "凌": 658,
      "几": 659,
      "凡": 660,
      "凱": 661,
      "出": 662,
      "击": 663,
      "凿": 664,
      "刃": 665,
      "分": 666,
      "列": 667,
      "刘": 668,
      "则": 669,
      "初": 670,
      "別": 671,
      "别": 672,
      "到": 673,
      "制": 674,
      "前": 675,
      "剑": 676,
      "功": 677,
      "加": 678,
      "助": 679,
      "務": 680,
      "勾": 681,
      "化": 682,
      "北": 683,
      "区": 684,
      "十": 685,
      "千": 686,
      "升": 687,
      "卍": 688,
      "华": 689,
      "卑": 690,
      "卒": 691,
      "南": 692,
      "卜": 693,
      "卦": 694,
      "卫": 695,
      "卷": 696,
      "历": 697,
      "压": 698,
      "厚": 699,
      "原": 700,
      "厷": 701,
      "去": 702,
      "县": 703,
      "又": 704,
      "叉": 705,
      "及": 706,
      "双": 707,
      "収": 708,
      "发": 709,
      "取": 710,
      "受": 711,
      "口": 712,
      "古": 713,
      "句": 714,
      "可": 715,
      "史": 716,
      "叶": 717,
      "号": 718,
      "司": 719,
      "吁": 720,
      "吃": 721,
      "各": 722,
      "合": 723,
      "吊": 724,
      "同": 725,
      "名": 726,
      "后": 727,
      "吕": 728,
      "吗": 729,
      "君": 730,
      "吧": 731,
      "吳": 732,
      "吴": 733,
      "吻": 734,
      "呈": 735,
      "呕": 736,
      "周": 737,
      "味": 738,
      "命": 739,
      "和": 740,
      "咖": 741,
      "品": 742,
      "唐": 743,
      "唔": 744,
      "唤": 745,
      "售": 746,
      "商": 747,
      "啡": 748,
      "喜": 749,
      "單": 750,
      "嗣": 751,
      "嘉": 752,
      "噐": 753,
      "器": 754,
      "嚟": 755,
      "因": 756,
      "国": 757,
      "图": 758,
      "國": 759,
      "土": 760,
      "在": 761,
      "地": 762,
      "场": 763,
      "垦": 764,
      "城": 765,
      "域": 766,
      "報": 767,
      "場": 768,
      "墅": 769,
      "墨": 770,
      "壶": 771,
      "复": 772,
      "夏": 773,
      "外": 774,
      "多": 775,
      "大": 776,
      "天": 777,
      "太": 778,
      "夫": 779,
      "头": 780,
      "夷": 781,
      "奄": 782,
      "奔": 783,
      "奥": 784,
      "女": 785,
      "她": 786,
      "好": 787,
      "如": 788,
      "妈": 789,
      "妹": 790,
      "始": 791,
      "姐": 792,
      "姑": 793,
      "姓": 794,
      "姜": 795,
      "姿": 796,
      "娘": 797,
      "娶": 798,
      "婚": 799,
      "婿": 800,
      "孃": 801,
      "子": 802,
      "孔": 803,
      "字": 804,
      "孝": 805,
      "学": 806,
      "宁": 807,
      "宇": 808,
      "安": 809,
      "宋": 810,
      "宙": 811,
      "定": 812,
      "宝": 813,
      "实": 814,
      "客": 815,
      "宣": 816,
      "害": 817,
      "家": 818,
      "容": 819,
      "密": 820,
      "富": 821,
      "寶": 822,
      "对": 823,
      "寿": 824,
      "封": 825,
      "将": 826,
      "尉": 827,
      "尊": 828,
      "小": 829,
      "少": 830,
      "尝": 831,
      "尤": 832,
      "就": 833,
      "居": 834,
      "屈": 835,
      "展": 836,
      "山": 837,
      "岁": 838,
      "岭": 839,
      "岱": 840,
      "峨": 841,
      "嶓": 842,
      "嶺": 843,
      "州": 844,
      "工": 845,
      "巨": 846,
      "已": 847,
      "巴": 848,
      "市": 849,
      "帝": 850,
      "带": 851,
      "常": 852,
      "平": 853,
      "年": 854,
      "幻": 855,
      "幽": 856,
      "庄": 857,
      "应": 858,
      "庞": 859,
      "度": 860,
      "庫": 861,
      "庸": 862,
      "庾": 863,
      "廟": 864,
      "建": 865,
      "开": 866,
      "异": 867,
      "式": 868,
      "引": 869,
      "张": 870,
      "弩": 871,
      "弯": 872,
      "張": 873,
      "強": 874,
      "当": 875,
      "彩": 876,
      "影": 877,
      "役": 878,
      "往": 879,
      "很": 880,
      "得": 881,
      "御": 882,
      "徴": 883,
      "德": 884,
      "心": 885,
      "志": 886,
      "急": 887,
      "怪": 888,
      "恋": 889,
      "恨": 890,
      "恩": 891,
      "恭": 892,
      "息": 893,
      "悅": 894,
      "您": 895,
      "情": 896,
      "惊": 897,
      "想": 898,
      "意": 899,
      "愛": 900,
      "感": 901,
      "慎": 902,
      "慕": 903,
      "懐": 904,
      "戎": 905,
      "成": 906,
      "我": 907,
      "或": 908,
      "战": 909,
      "截": 910,
      "房": 911,
      "所": 912,
      "手": 913,
      "打": 914,
      "承": 915,
      "技": 916,
      "投": 917,
      "抖": 918,
      "折": 919,
      "抽": 920,
      "拉": 921,
      "拒": 922,
      "招": 923,
      "择": 924,
      "持": 925,
      "按": 926,
      "挫": 927,
      "损": 928,
      "接": 929,
      "控": 930,
      "搜": 931,
      "携": 932,
      "摇": 933,
      "摧": 934,
      "摩": 935,
      "摭": 936,
      "撃": 937,
      "撮": 938,
      "支": 939,
      "攻": 940,
      "政": 941,
      "救": 942,
      "敗": 943,
      "散": 944,
      "文": 945,
      "新": 946,
      "方": 947,
      "族": 948,
      "无": 949,
      "日": 950,
      "旧": 951,
      "时": 952,
      "明": 953,
      "昔": 954,
      "星": 955,
      "春": 956,
      "是": 957,
      "晓": 958,
      "晴": 959,
      "暗": 960,
      "曰": 961,
      "更": 962,
      "書": 963,
      "最": 964,
      "月": 965,
      "有": 966,
      "服": 967,
      "朕": 968,
      "朝": 969,
      "木": 970,
      "未": 971,
      "末": 972,
      "本": 973,
      "术": 974,
      "朴": 975,
      "机": 976,
      "朽": 977,
      "杀": 978,
      "杏": 979,
      "村": 980,
      "条": 981,
      "来": 982,
      "林": 983,
      "果": 984,
      "枠": 985,
      "柔": 986,
      "查": 987,
      "柱": 988,
      "校": 989,
      "样": 990,
      "格": 991,
      "桂": 992,
      "梁": 993,
      "梅": 994,
      "梦": 995,
      "梧": 996,
      "械": 997,
      "棠": 998,
      "楚": 999,
      "業": 1000,
      "楷": 1001,
      "榆": 1002,
      "権": 1003,
      "機": 1004,
      "欢": 1005,
      "款": 1006,
      "歌": 1007,
      "歡": 1008,
      "正": 1009,
      "此": 1010,
      "武": 1011,
      "歩": 1012,
      "歳": 1013,
      "歸": 1014,
      "死": 1015,
      "残": 1016,
      "殺": 1017,
      "毒": 1018,
      "比": 1019,
      "氏": 1020,
      "民": 1021,
      "气": 1022,
      "気": 1023,
      "水": 1024,
      "永": 1025,
      "求": 1026,
      "汉": 1027,
      "汝": 1028,
      "江": 1029,
      "沃": 1030,
      "沙": 1031,
      "没": 1032,
      "河": 1033,
      "油": 1034,
      "治": 1035,
      "泉": 1036,
      "泌": 1037,
      "法": 1038,
      "注": 1039,
      "泮": 1040,
      "泰": 1041,
      "洋": 1042,
      "活": 1043,
      "流": 1044,
      "测": 1045,
      "浏": 1046,
      "浪": 1047,
      "浮": 1048,
      "海": 1049,
      "消": 1050,
      "淘": 1051,
      "淮": 1052,
      "深": 1053,
      "淳": 1054,
      "清": 1055,
      "渚": 1056,
      "渠": 1057,
      "温": 1058,
      "湖": 1059,
      "湿": 1060,
      "源": 1061,
      "漠": 1062,
      "漢": 1063,
      "潮": 1064,
      "瀏": 1065,
      "火": 1066,
      "灭": 1067,
      "灵": 1068,
      "炎": 1069,
      "炙": 1070,
      "点": 1071,
      "炼": 1072,
      "热": 1073,
      "焉": 1074,
      "焚": 1075,
      "無": 1076,
      "然": 1077,
      "煉": 1078,
      "熊": 1079,
      "燕": 1080,
      "爪": 1081,
      "爱": 1082,
      "爸": 1083,
      "片": 1084,
      "版": 1085,
      "牛": 1086,
      "牡": 1087,
      "物": 1088,
      "牵": 1089,
      "特": 1090,
      "犀": 1091,
      "犯": 1092,
      "狄": 1093,
      "猫": 1094,
      "獄": 1095,
      "玄": 1096,
      "玉": 1097,
      "王": 1098,
      "现": 1099,
      "珠": 1100,
      "理": 1101,
      "琪": 1102,
      "琴": 1103,
      "琵": 1104,
      "琶": 1105,
      "璩": 1106,
      "瓯": 1107,
      "生": 1108,
      "用": 1109,
      "田": 1110,
      "电": 1111,
      "男": 1112,
      "甸": 1113,
      "町": 1114,
      "画": 1115,
      "留": 1116,
      "略": 1117,
      "番": 1118,
      "疆": 1119,
      "癸": 1120,
      "登": 1121,
      "發": 1122,
      "白": 1123,
      "百": 1124,
      "的": 1125,
      "皆": 1126,
      "皇": 1127,
      "皋": 1128,
      "皑": 1129,
      "盗": 1130,
      "盛": 1131,
      "盜": 1132,
      "目": 1133,
      "直": 1134,
      "相": 1135,
      "眉": 1136,
      "看": 1137,
      "県": 1138,
      "真": 1139,
      "眩": 1140,
      "着": 1141,
      "矗": 1142,
      "知": 1143,
      "短": 1144,
      "石": 1145,
      "破": 1146,
      "碓": 1147,
      "確": 1148,
      "礼": 1149,
      "社": 1150,
      "祖": 1151,
      "祝": 1152,
      "神": 1153,
      "票": 1154,
      "离": 1155,
      "禽": 1156,
      "秀": 1157,
      "私": 1158,
      "秋": 1159,
      "秦": 1160,
      "称": 1161,
      "移": 1162,
      "稀": 1163,
      "税": 1164,
      "稲": 1165,
      "稽": 1166,
      "積": 1167,
      "空": 1168,
      "穿": 1169,
      "窦": 1170,
      "竄": 1171,
      "立": 1172,
      "站": 1173,
      "竟": 1174,
      "端": 1175,
      "竹": 1176,
      "笋": 1177,
      "笑": 1178,
      "等": 1179,
      "筑": 1180,
      "筹": 1181,
      "简": 1182,
      "管": 1183,
      "節": 1184,
      "篆": 1185,
      "篇": 1186,
      "築": 1187,
      "粉": 1188,
      "粤": 1189,
      "粮": 1190,
      "粵": 1191,
      "精": 1192,
      "系": 1193,
      "紙": 1194,
      "素": 1195,
      "索": 1196,
      "終": 1197,
      "緮": 1198,
      "红": 1199,
      "纣": 1200,
      "约": 1201,
      "级": 1202,
      "纪": 1203,
      "纱": 1204,
      "纳": 1205,
      "纽": 1206,
      "线": 1207,
      "细": 1208,
      "终": 1209,
      "绎": 1210,
      "经": 1211,
      "结": 1212,
      "给": 1213,
      "统": 1214,
      "绩": 1215,
      "绳": 1216,
      "缘": 1217,
      "缪": 1218,
      "网": 1219,
      "罗": 1220,
      "罪": 1221,
      "置": 1222,
      "羊": 1223,
      "美": 1224,
      "羡": 1225,
      "老": 1226,
      "考": 1227,
      "者": 1228,
      "而": 1229,
      "肉": 1230,
      "肏": 1231,
      "胜": 1232,
      "胡": 1233,
      "能": 1234,
      "脊": 1235,
      "脑": 1236,
      "腴": 1237,
      "膏": 1238,
      "臨": 1239,
      "自": 1240,
      "至": 1241,
      "與": 1242,
      "舞": 1243,
      "船": 1244,
      "色": 1245,
      "艳": 1246,
      "花": 1247,
      "芹": 1248,
      "苍": 1249,
      "苗": 1250,
      "若": 1251,
      "英": 1252,
      "茨": 1253,
      "茶": 1254,
      "荫": 1255,
      "菌": 1256,
      "華": 1257,
      "菲": 1258,
      "萌": 1259,
      "萬": 1260,
      "落": 1261,
      "葛": 1262,
      "葭": 1263,
      "藏": 1264,
      "蘇": 1265,
      "虛": 1266,
      "虜": 1267,
      "虞": 1268,
      "蚩": 1269,
      "蛛": 1270,
      "蛮": 1271,
      "蜀": 1272,
      "蜘": 1273,
      "蝴": 1274,
      "蝶": 1275,
      "融": 1276,
      "行": 1277,
      "術": 1278,
      "装": 1279,
      "裔": 1280,
      "補": 1281,
      "裳": 1282,
      "裸": 1283,
      "襲": 1284,
      "西": 1285,
      "覆": 1286,
      "覽": 1287,
      "觀": 1288,
      "见": 1289,
      "观": 1290,
      "视": 1291,
      "览": 1292,
      "角": 1293,
      "解": 1294,
      "計": 1295,
      "記": 1296,
      "設": 1297,
      "詠": 1298,
      "話": 1299,
      "認": 1300,
      "語": 1301,
      "読": 1302,
      "調": 1303,
      "識": 1304,
      "讨": 1305,
      "训": 1306,
      "记": 1307,
      "设": 1308,
      "译": 1309,
      "话": 1310,
      "该": 1311,
      "语": 1312,
      "诱": 1313,
      "说": 1314,
      "诸": 1315,
      "谓": 1316,
      "谕": 1317,
      "谢": 1318,
      "谥": 1319,
      "谷": 1320,
      "象": 1321,
      "貌": 1322,
      "貢": 1323,
      "販": 1324,
      "貴": 1325,
      "資": 1326,
      "賵": 1327,
      "财": 1328,
      "贤": 1329,
      "败": 1330,
      "质": 1331,
      "贴": 1332,
      "贺": 1333,
      "赤": 1334,
      "走": 1335,
      "赵": 1336,
      "越": 1337,
      "足": 1338,
      "趾": 1339,
      "跟": 1340,
      "路": 1341,
      "践": 1342,
      "踐": 1343,
      "身": 1344,
      "轩": 1345,
      "转": 1346,
      "载": 1347,
      "辅": 1348,
      "辈": 1349,
      "辕": 1350,
      "边": 1351,
      "过": 1352,
      "迎": 1353,
      "还": 1354,
      "这": 1355,
      "追": 1356,
      "退": 1357,
      "逆": 1358,
      "选": 1359,
      "逐": 1360,
      "通": 1361,
      "逢": 1362,
      "逼": 1363,
      "遁": 1364,
      "遂": 1365,
      "遇": 1366,
      "過": 1367,
      "道": 1368,
      "遣": 1369,
      "遷": 1370,
      "那": 1371,
      "邱": 1372,
      "郎": 1373,
      "郡": 1374,
      "部": 1375,
      "都": 1376,
      "鄭": 1377,
      "配": 1378,
      "酒": 1379,
      "醉": 1380,
      "里": 1381,
      "重": 1382,
      "金": 1383,
      "鉄": 1384,
      "鋸": 1385,
      "錯": 1386,
      "鏈": 1387,
      "钢": 1388,
      "钱": 1389,
      "铁": 1390,
      "链": 1391,
      "锈": 1392,
      "锋": 1393,
      "错": 1394,
      "键": 1395,
      "長": 1396,
      "长": 1397,
      "門": 1398,
      "関": 1399,
      "闇": 1400,
      "门": 1401,
      "间": 1402,
      "闽": 1403,
      "阪": 1404,
      "阳": 1405,
      "阴": 1406,
      "阿": 1407,
      "陆": 1408,
      "降": 1409,
      "限": 1410,
      "院": 1411,
      "陽": 1412,
      "際": 1413,
      "隶": 1414,
      "隹": 1415,
      "难": 1416,
      "雀": 1417,
      "雄": 1418,
      "集": 1419,
      "雒": 1420,
      "難": 1421,
      "雨": 1422,
      "雩": 1423,
      "雪": 1424,
      "霍": 1425,
      "露": 1426,
      "靈": 1427,
      "非": 1428,
      "韩": 1429,
      "音": 1430,
      "頂": 1431,
      "頑": 1432,
      "頻": 1433,
      "顔": 1434,
      "願": 1435,
      "顶": 1436,
      "预": 1437,
      "频": 1438,
      "風": 1439,
      "风": 1440,
      "飛": 1441,
      "食": 1442,
      "饰": 1443,
      "馬": 1444,
      "马": 1445,
      "骄": 1446,
      "骆": 1447,
      "骑": 1448,
      "骚": 1449,
      "骨": 1450,
      "高": 1451,
      "髪": 1452,
      "鬼": 1453,
      "魂": 1454,
      "魅": 1455,
      "鮮": 1456,
      "鱼": 1457,
      "鸟": 1458,
      "鸭": 1459,
      "鹿": 1460,
      "麗": 1461,
      "黃": 1462,
      "黄": 1463,
      "黎": 1464,
      "黑": 1465,
      "點": 1466,
      "ꈍ": 1467,
      "꧁": 1468,
      "꧂": 1469,
      "가": 1470,
      "각": 1471,
      "간": 1472,
      "감": 1473,
      "게": 1474,
      "겠": 1475,
      "격": 1476,
      "결": 1477,
      "경": 1478,
      "고": 1479,
      "곳": 1480,
      "광": 1481,
      "교": 1482,
      "구": 1483,
      "국": 1484,
      "그": 1485,
      "글": 1486,
      "기": 1487,
      "김": 1488,
      "까": 1489,
      "깐": 1490,
      "꽝": 1491,
      "끝": 1492,
      "나": 1493,
      "날": 1494,
      "남": 1495,
      "내": 1496,
      "냐": 1497,
      "널": 1498,
      "노": 1499,
      "는": 1500,
      "늘": 1501,
      "니": 1502,
      "님": 1503,
      "다": 1504,
      "단": 1505,
      "대": 1506,
      "더": 1507,
      "도": 1508,
      "동": 1509,
      "되": 1510,
      "두": 1511,
      "드": 1512,
      "든": 1513,
      "들": 1514,
      "듯": 1515,
      "딘": 1516,
      "때": 1517,
      "떠": 1518,
      "라": 1519,
      "락": 1520,
      "래": 1521,
      "러": 1522,
      "로": 1523,
      "료": 1524,
      "를": 1525,
      "릅": 1526,
      "리": 1527,
      "마": 1528,
      "만": 1529,
      "많": 1530,
      "말": 1531,
      "맞": 1532,
      "먼": 1533,
      "면": 1534,
      "모": 1535,
      "민": 1536,
      "바": 1537,
      "박": 1538,
      "방": 1539,
      "배": 1540,
      "백": 1541,
      "번": 1542,
      "베": 1543,
      "변": 1544,
      "보": 1545,
      "본": 1546,
      "분": 1547,
      "빌": 1548,
      "빠": 1549,
      "쁘": 1550,
      "사": 1551,
      "삶": 1552,
      "상": 1553,
      "새": 1554,
      "생": 1555,
      "서": 1556,
      "성": 1557,
      "숙": 1558,
      "습": 1559,
      "시": 1560,
      "신": 1561,
      "심": 1562,
      "쓰": 1563,
      "씁": 1564,
      "아": 1565,
      "않": 1566,
      "야": 1567,
      "어": 1568,
      "억": 1569,
      "에": 1570,
      "엔": 1571,
      "여": 1572,
      "연": 1573,
      "영": 1574,
      "온": 1575,
      "올": 1576,
      "왔": 1577,
      "왜": 1578,
      "우": 1579,
      "운": 1580,
      "움": 1581,
      "원": 1582,
      "웠": 1583,
      "윈": 1584,
      "으": 1585,
      "은": 1586,
      "을": 1587,
      "음": 1588,
      "응": 1589,
      "의": 1590,
      "이": 1591,
      "인": 1592,
      "일": 1593,
      "임": 1594,
      "있": 1595,
      "자": 1596,
      "작": 1597,
      "장": 1598,
      "재": 1599,
      "적": 1600,
      "전": 1601,
      "절": 1602,
      "점": 1603,
      "정": 1604,
      "제": 1605,
      "졌": 1606,
      "존": 1607,
      "주": 1608,
      "중": 1609,
      "지": 1610,
      "직": 1611,
      "집": 1612,
      "짤": 1613,
      "짧": 1614,
      "창": 1615,
      "찾": 1616,
      "천": 1617,
      "충": 1618,
      "춰": 1619,
      "친": 1620,
      "컴": 1621,
      "터": 1622,
      "툰": 1623,
      "트": 1624,
      "편": 1625,
      "폭": 1626,
      "퓨": 1627,
      "하": 1628,
      "학": 1629,
      "한": 1630,
      "할": 1631,
      "합": 1632,
      "해": 1633,
      "했": 1634,
      "행": 1635,
      "향": 1636,
      "험": 1637,
      "현": 1638,
      "화": 1639,
      "회": 1640,
      "훗": 1641,
      "힘": 1642,
      "": 1643,
      "": 1644,
      "": 1645,
      "️": 1646,
      "￼": 1647,
      "�": 1648,
      "🌡": 1649,
      "🌧": 1650,
      "🌶": 1651,
      "🍵": 1652,
      "🎖": 1653,
      "🎟": 1654,
      "🏍": 1655,
      "🏎": 1656,
      "🏕": 1657,
      "🏖": 1658,
      "🏙": 1659,
      "🏝": 1660,
      "🏞": 1661,
      "🏟": 1662,
      "🐘": 1663,
      "👁": 1664,
      "🔥": 1665,
      "🕮": 1666,
      "🕰": 1667,
      "🕵": 1668,
      "🕶": 1669,
      "🖨": 1670,
      "🗓": 1671,
      "🗞": 1672,
      "🗡": 1673,
      "🗣": 1674,
      "🗳": 1675,
      "🗺": 1676,
      "😎": 1677,
      "🛋": 1678,
      "🛍": 1679,
      "🛡": 1680,
      "🫨": 1681,
      "𫯝": 1682,
      "##m": 1683,
      "##v": 1684,
      "##c": 1685,
      "##t": 1686,
      "##n": 1687,
      "##q": 1688,
      "##s": 1689,
      "##d": 1690,
      "##h": 1691,
      "##i": 1692,
      "##r": 1693,
      "##y": 1694,
      "##u": 1695,
      "##_": 1696,
      "##1": 1697,
      "##0": 1698,
      "##8": 1699,
      "##a": 1700,
      "##z": 1701,
      "##e": 1702,
      "##ộ": 1703,
      "##g": 1704,
      "##^": 1705,
      "##!": 1706,
      "##ế": 1707,
      "##o": 1708,
      "##w": 1709,
      "##f": 1710,
      "##l": 1711,
      "##p": 1712,
      "##b": 1713,
      "##k": 1714,
      "##í": 1715,
      "##ắ": 1716,
      "##7": 1717,
      "##9": 1718,
      "##ĩ": 1719,
      "##2": 1720,
      "##ư": 1721,
      "##ờ": 1722,
      "##ầ": 1723,
      "##ỷ": 1724,
      "##á": 1725,
      "##ứ": 1726,
      "##ừ": 1727,
      "##x": 1728,
      "###": 1729,
      "##j": 1730,
      "##ằ": 1731,
      "##ú": 1732,
      "##ử": 1733,
      "##3": 1734,
      "##6": 1735,
      "##ặ": 1736,
      "##5": 1737,
      "##4": 1738,
      "##ợ": 1739,
      "##â": 1740,
      "##ê": 1741,
      "##ì": 1742,
      "##ố": 1743,
      "##ọ": 1744,
      "##ị": 1745,
      "##à": 1746,
      "##ơ": 1747,
      "##đ": 1748,
      "##ó": 1749,
      "##ô": 1750,
      "##ậ": 1751,
      "##ể": 1752,
      "##ă": 1753,
      "##ấ": 1754,
      "##é": 1755,
      "##区": 1756,
      "##ỉ": 1757,
      "##ủ": 1758,
      "##ở": 1759,
      "##ồ": 1760,
      "##ệ": 1761,
      "##̶": 1762,
      "##ữ": 1763,
      "##ề": 1764,
      "##.": 1765,
      "##ẹ": 1766,
      "##ạ": 1767,
      "##ự": 1768,
      "##ỳ": 1769,
      "##ỡ": 1770,
      "##ả": 1771,
      "##ã": 1772,
      "##-": 1773,
      "##阪": 1774,
      "##è": 1775,
      "##ỹ": 1776,
      "##ù": 1777,
      "##京": 1778,
      "##ẫ": 1779,
      "##\"": 1780,
      "##?": 1781,
      "##ụ": 1782,
      "##ẳ": 1783,
      "##õ": 1784,
      "##/": 1785,
      "##=": 1786,
      "##ũ": 1787,
      "##,": 1788,
      "##ö": 1789,
      "##(": 1790,
      "##ü": 1791,
      "##ğ": 1792,
      "##ò": 1793,
      "##ễ": 1794,
      "##ổ": 1795,
      "##ớ": 1796,
      "##*": 1797,
      "##'": 1798,
      "##魅": 1799,
      "##か": 1800,
      "##れ": 1801,
      "##て": 1802,
      "##く": 1803,
      "##ý": 1804,
      "##<": 1805,
      "##@": 1806,
      "##~": 1807,
      "##ỗ": 1808,
      "##)": 1809,
      "##ỏ": 1810,
      "##ẵ": 1811,
      "##ẻ": 1812,
      "##ン": 1813,
      "##ヴ": 1814,
      "##ィ": 1815,
      "##シ": 1816,
      "##ブ": 1817,
      "##ル": 1818,
      "##唔": 1819,
      "##識": 1820,
      "##華": 1821,
      "##語": 1822,
      "##ẽ": 1823,
      "##ỵ": 1824,
      "##​": 1825,
      "##吴": 1826,
      "##应": 1827,
      "##该": 1828,
      "##跟": 1829,
      "##我": 1830,
      "##开": 1831,
      "##始": 1832,
      "##学": 1833,
      "##习": 1834,
      "##리": 1835,
      "##를": 1836,
      "##贺": 1837,
      "##十": 1838,
      "##八": 1839,
      "##世": 1840,
      "##渠": 1841,
      "##曰": 1842,
      "##心": 1843,
      "##>": 1844,
      "##鹿": 1845,
      "##な": 1846,
      "##の": 1847,
      "##$": 1848,
      "##罪": 1849,
      "##书": 1850,
      "##༺": 1851,
      "##+": 1852,
      "##ẩ": 1853,
      "##慎": 1854,
      "##王": 1855,
      "##五": 1856,
      "##年": 1857,
      "##秋": 1858,
      "##ʒ": 1859,
      "##黎": 1860,
      "##族": 1861,
      "##控": 1862,
      "##壶": 1863,
      "##發": 1864,
      "##殺": 1865,
      "##三": 1866,
      "##萬": 1867,
      "##人": 1868,
      "##ャ": 1869,
      "##パ": 1870,
      "##口": 1871,
      "##温": 1872,
      "##手": 1873,
      "##冲": 1874,
      "##%": 1875,
      "##侯": 1876,
      "##ᅠ": 1877,
      "##;": 1878,
      "##双": 1879,
      "##版": 1880,
      "##纳": 1881,
      "##ä": 1882,
      "##日": 1883,
      "##本": 1884,
      "##話": 1885,
      "##せ": 1886,
      "##る": 1887,
      "##よ": 1888,
      "##“": 1889,
      "##国": 1890,
      "##终": 1891,
      "##不": 1892,
      "##能": 1893,
      "##同": 1894,
      "##化": 1895,
      "##越": 1896,
      "##南": 1897,
      "##麗": 1898,
      "##單": 1899,
      "##舞": 1900,
      "##皇": 1901,
      "##頂": 1902,
      "##장": 1903,
      "##을": 1904,
      "##у": 1905,
      "##и": 1906,
      "##ุ": 1907,
      "##้": 1908,
      "##ง": 1909,
      "##เ": 1910,
      "##ต": 1911,
      "##น": 1912,
      "##記": 1913,
      "##海": 1914,
      "##山": 1915,
      "##ま": 1916,
      "##き": 1917,
      "##ん": 1918,
      "##ぐ": 1919,
      "##̀": 1920,
      "##蜀": 1921,
      "##将": 1922,
      "##兵": 1923,
      "##万": 1924,
      "##讨": 1925,
      "##雄": 1926,
      "##趾": 1927,
      "##之": 1928,
      "##地": 1929,
      "##”": 1930,
      "##다": 1931,
      "##는": 1932,
      "##史": 1933,
      "##略": 1934,
      "##|": 1935,
      "##`": 1936,
      "##아": 1937,
      "##야": 1938,
      "##]": 1939,
      "##傳": 1940,
      "##č": 1941,
      "##≥": 1942,
      "##◕": 1943,
      "##신": 1944,
      "##方": 1945,
      "##尤": 1946,
      "##与": 1947,
      "##战": 1948,
      "##德": 1949,
      "##华": 1950,
      "##사": 1951,
      "##의": 1952,
      "##チ": 1953,
      "##ト": 1954,
      "##ゼ": 1955,
      "##械": 1956,
      "##設": 1957,
      "##計": 1958,
      "##냐": 1959,
      "##면": 1960,
      "##일": 1961,
      "##도": 1962,
      "##있": 1963,
      "##어": 1964,
      "##ð": 1965,
      "##:": 1966,
      "##列": 1967,
      "##中": 1968,
      "##鸟": 1969,
      "##}": 1970,
      "##庾": 1971,
      "##\\": 1972,
      "##格": 1973,
      "##歳": 1974,
      "##泉": 1975,
      "##徴": 1976,
      "##収": 1977,
      "##票": 1978,
      "##里": 1979,
      "##朝": 1980,
      "##「": 1981,
      "##격": 1982,
      "##឴": 1983,
      "##̇": 1984,
      "##し": 1985,
      "##い": 1986,
      "##ε": 1987,
      "##ύ": 1988,
      "##ς": 1989,
      "##ы": 1990,
      "##際": 1991,
      "##業": 1992,
      "##務": 1993,
      "##熊": 1994,
      "##绎": 1995,
      "##于": 1996,
      "##楚": 1997,
      "##蛮": 1998,
      "##风": 1999,
      "##破": 2000,
      "##浪": 2001,
      "##強": 2002,
      "##━": 2003,
      "##┻": 2004,
      "##陽": 2005,
      "##女": 2006,
      "##眉": 2007,
      "##珠": 2008,
      "##悅": 2009,
      "##其": 2010,
      "##貌": 2011,
      "##而": 2012,
      "##通": 2013,
      "##ぶ": 2014,
      "##{": 2015,
      "##引": 2016,
      "##🎖": 2017,
      "##️": 2018,
      "##⁠": 2019,
      "##图": 2020,
      "##网": 2021,
      "##́": 2022,
      "##지": 2023,
      "##고": 2024,
      "##이": 2025,
      "##榆": 2026,
      "##水": 2027,
      "##语": 2028,
      "##太": 2029,
      "##难": 2030,
      "##绩": 2031,
      "##牛": 2032,
      "##是": 2033,
      "##你": 2034,
      "##的": 2035,
      "##錯": 2036,
      "##ಠ": 2037,
      "##창": 2038,
      "##모": 2039,
      "##임": 2040,
      "##拉": 2041,
      "##句": 2042,
      "##顶": 2043,
      "##焉": 2044,
      "##燕": 2045,
      "##’": 2046,
      "##深": 2047,
      "##襲": 2048,
      "##寿": 2049,
      "##郎": 2050,
      "##ํ": 2051,
      "##า": 2052,
      "##ป": 2053,
      "##็": 2054,
      "##称": 2055,
      "##碓": 2056,
      "##氏": 2057,
      "##春": 2058,
      "##ب": 2059,
      "##ي": 2060,
      "##우": 2061,
      "##엔": 2062,
      "##摩": 2063,
      "##红": 2064,
      "##田": 2065,
      "##ー": 2066,
      "##ド": 2067,
      "##前": 2068,
      "##给": 2069,
      "##东": 2070,
      "##西": 2071,
      "##商": 2072,
      "##富": 2073,
      "##载": 2074,
      "##₫": 2075,
      "##с": 2076,
      "##т": 2077,
      "##а": 2078,
      "##р": 2079,
      "##е": 2080,
      "##л": 2081,
      "##尉": 2082,
      "##墨": 2083,
      "##等": 2084,
      "##从": 2085,
      "##石": 2086,
      "##道": 2087,
      "##伐": 2088,
      "##イ": 2089,
      "##ナ": 2090,
      "##ム": 2091,
      "##空": 2092,
      "##간": 2093,
      "##タ": 2094,
      "##ジ": 2095,
      "##オ": 2096,
      "##ƪ": 2097,
      "##ع": 2098,
      "##ت": 2099,
      "##ق": 2100,
      "##د": 2101,
      "##ñ": 2102,
      "##生": 2103,
      "##金": 2104,
      "##[": 2105,
      "##ć": 2106,
      "##릅": 2107,
      "##니": 2108,
      "##自": 2109,
      "##葭": 2110,
      "##萌": 2111,
      "##拒": 2112,
      "##正": 2113,
      "##在": 2114,
      "##汉": 2115,
      "##城": 2116,
      "##制": 2117,
      "##此": 2118,
      "##链": 2119,
      "##接": 2120,
      "##‘": 2121,
      "##ç": 2122,
      "##好": 2123,
      "##光": 2124,
      "##×": 2125,
      "##∆": 2126,
      "##©": 2127,
      "##®": 2128,
      "##화": 2129,
      "##점": 2130,
      "##代": 2131,
      "##新": 2132,
      "##款": 2133,
      "##爱": 2134,
      "##乐": 2135,
      "##压": 2136,
      "##🌶": 2137,
      "##은": 2138,
      "##♥": 2139,
      "##╯": 2140,
      "##°": 2141,
      "##€": 2142,
      "##£": 2143,
      "##о": 2144,
      "##像": 2145,
      "##が": 2146,
      "##&": 2147,
      "##ē": 2148,
      "##국": 2149,
      "##곳": 2150,
      "##有": 2151,
      "##姿": 2152,
      "##容": 2153,
      "##端": 2154,
      "##美": 2155,
      "##—": 2156,
      "##还": 2157,
      "##点": 2158,
      "##过": 2159,
      "##辕": 2160,
      "##☑": 2161,
      "##ᴖ": 2162,
      "##¬": 2163,
      "##、": 2164,
      "##》": 2165,
      "##枠": 2166,
      "##ท": 2167,
      "##ี": 2168,
      "##ไ": 2169,
      "##ม": 2170,
      "##่": 2171,
      "##瓯": 2172,
      "##올": 2173,
      "##라": 2174,
      "##♬": 2175,
      "##♫": 2176,
      "##μ": 2177,
      "##名": 2178,
      "##嗣": 2179,
      "##宣": 2180,
      "##明": 2181,
      "##传": 2182,
      "##ß": 2183,
      "##•": 2184,
      "##ʔ": 2185,
      "##影": 2186,
      "##醉": 2187,
      "##蝴": 2188,
      "##蝶": 2189,
      "##何": 2190,
      "##以": 2191,
      "##і": 2192,
      "##구": 2193,
      "##馬": 2194,
      "##遷": 2195,
      "##￼": 2196,
      "##術": 2197,
      "##′": 2198,
      "##ō": 2199,
      "##🎟": 2200,
      "##置": 2201,
      "##内": 2202,
      "##ʖ": 2203,
      "##気": 2204,
      "##ら": 2205,
      "##⛱": 2206,
      "##🏞": 2207,
      "##🏖": 2208,
      "##泌": 2209,
      "##吳": 2210,
      "##å": 2211,
      "##阳": 2212,
      "##志": 2213,
      "##民": 2214,
      "##百": 2215,
      "##姓": 2216,
      "##鮮": 2217,
      "##□": 2218,
      "##ā": 2219,
      "##α": 2220,
      "##功": 2221,
      "##夫": 2222,
      "##→": 2223,
      "##去": 2224,
      "##п": 2225,
      "##ń": 2226,
      "##∞": 2227,
      "##내": 2228,
      "##하": 2229,
      "##宝": 2230,
      "##에": 2231,
      "##서": 2232,
      "##校": 2233,
      "##♪": 2234,
      "##ク": 2235,
      "##リ": 2236,
      "##で": 2237,
      "##奥": 2238,
      "##梅": 2239,
      "##래": 2240,
      "##ь": 2241,
      "##蛛": 2242,
      "##脑": 2243,
      "##毒": 2244,
      "##术": 2245,
      "##향": 2246,
      "##甸": 2247,
      "##幽": 2248,
      "##靈": 2249,
      "##集": 2250,
      "##ο": 2251,
      "##ǐ": 2252,
      "##淳": 2253,
      "##质": 2254,
      "##为": 2255,
      "##俗": 2256,
      "##♦": 2257,
      "##♠": 2258,
      "##み": 2259,
      "##ょ": 2260,
      "##̉": 2261,
      "##役": 2262,
      "##所": 2263,
      "##狄": 2264,
      "##丈": 2265,
      "##す": 2266,
      "##承": 2267,
      "##知": 2268,
      "##た": 2269,
      "##门": 2270,
      "##절": 2271,
      "##했": 2272,
      "##帝": 2273,
      "##垦": 2274,
      "##食": 2275,
      "##子": 2276,
      "##来": 2277,
      "##雒": 2278,
      "##め": 2279,
      "##周": 2280,
      "##庞": 2281,
      "##音": 2282,
      "##搜": 2283,
      "##索": 2284,
      "##м": 2285,
      "##본": 2286,
      "##二": 2287,
      "##자": 2288,
      "##게": 2289,
      "##歩": 2290,
      "##う": 2291,
      "##庄": 2292,
      "##时": 2293,
      "##嘉": 2294,
      "##宁": 2295,
      "##部": 2296,
      "##异": 2297,
      "##勾": 2298,
      "##践": 2299,
      "##尝": 2300,
      "##遣": 2301,
      "##使": 2302,
      "##谕": 2303,
      "##足": 2304,
      "##凱": 2305,
      "##芹": 2306,
      "##國": 2307,
      "##河": 2308,
      "##居": 2309,
      "##🗣": 2310,
      "##唐": 2311,
      "##張": 2312,
      "##っ": 2313,
      "##及": 2314,
      "##退": 2315,
      "##至": 2316,
      "##逢": 2317,
      "##乡": 2318,
      "##🗡": 2319,
      "##러": 2320,
      "##분": 2321,
      "##в": 2322,
      "##х": 2323,
      "##г": 2324,
      "##б": 2325,
      "##к": 2326,
      "##я": 2327,
      "##了": 2328,
      "##漠": 2329,
      "##柱": 2330,
      "##侧": 2331,
      "##弯": 2332,
      "##牵": 2333,
      "##粵": 2334,
      "##农": 2335,
      "##販": 2336,
      "##サ": 2337,
      "##만": 2338,
      "##두": 2339,
      "##억": 2340,
      "##들": 2341,
      "##ː": 2342,
      "##ə": 2343,
      "##相": 2344,
      "##は": 2345,
      "##風": 2346,
      "##じ": 2347,
      "##り": 2348,
      "##н": 2349,
      "##날": 2350,
      "##д": 2351,
      "##昔": 2352,
      "##未": 2353,
      "##郡": 2354,
      "##县": 2355,
      "##佌": 2356,
      "##主": 2357,
      "##습": 2358,
      "##ั": 2359,
      "##ร": 2360,
      "##ก": 2361,
      "##ว": 2362,
      "##ย": 2363,
      "##ด": 2364,
      "##佐": 2365,
      "##鱼": 2366,
      "##咖": 2367,
      "##啡": 2368,
      "##家": 2369,
      "##用": 2370,
      "##细": 2371,
      "##锈": 2372,
      "##钢": 2373,
      "##电": 2374,
      "##热": 2375,
      "##ж": 2376,
      "##客": 2377,
      "##气": 2378,
      "##售": 2379,
      "##出": 2380,
      "##非": 2381,
      "##意": 2382,
      "##キ": 2383,
      "##¶": 2384,
      "##«": 2385,
      "##婿": 2386,
      "##受": 2387,
      "##欢": 2388,
      "##迎": 2389,
      "##带": 2390,
      "##千": 2391,
      "##恩": 2392,
      "##번": 2393,
      "##주": 2394,
      "##魂": 2395,
      "##¢": 2396,
      "##¥": 2397,
      "##√": 2398,
      "##头": 2399,
      "##쁘": 2400,
      "##∫": 2401,
      "##秀": 2402,
      "##文": 2403,
      "##別": 2404,
      "##墅": 2405,
      "##理": 2406,
      "##恨": 2407,
      "##览": 2408,
      "##祖": 2409,
      "##贤": 2410,
      "##原": 2411,
      "##【": 2412,
      "##然": 2413,
      "##分": 2414,
      "##定": 2415,
      "##天": 2416,
      "##書": 2417,
      "##ø": 2418,
      "##侠": 2419,
      "##情": 2420,
      "##缘": 2421,
      "##大": 2422,
      "##张": 2423,
      "##仪": 2424,
      "##▽": 2425,
      "##≦": 2426,
      "##❤": 2427,
      "##安": 2428,
      "##✰": 2429,
      "##倒": 2430,
      "##贴": 2431,
      "##房": 2432,
      "##产": 2433,
      "##键": 2434,
      "##仙": 2435,
      "##死": 2436,
      "##柔": 2437,
      "##任": 2438,
      "##補": 2439,
      "##辈": 2440,
      "##一": 2441,
      "##遇": 2442,
      "##见": 2443,
      "##ŏ": 2444,
      "##π": 2445,
      "##가": 2446,
      "##‐": 2447,
      "##ш": 2448,
      "##谓": 2449,
      "##展": 2450,
      "##🏎": 2451,
      "##夷": 2452,
      "##间": 2453,
      "##末": 2454,
      "##泮": 2455,
      "##逐": 2456,
      "##无": 2457,
      "##疆": 2458,
      "##孃": 2459,
      "##《": 2460,
      "##礼": 2461,
      "##羡": 2462,
      "##慕": 2463,
      "##吗": 2464,
      "##깐": 2465,
      "##음": 2466,
      "##까": 2467,
      "##ن": 2468,
      "##ك": 2469,
      "##站": 2470,
      "##边": 2471,
      "##로": 2472,
      "##운": 2473,
      "##奔": 2474,
      "##竄": 2475,
      "##경": 2476,
      "##梦": 2477,
      "##想": 2478,
      "##已": 2479,
      "##成": 2480,
      "##往": 2481,
      "##事": 2482,
      "##林": 2483,
      "##观": 2484,
      "##看": 2485,
      "##视": 2486,
      "##频": 2487,
      "##钱": 2488,
      "##就": 2489,
      "##机": 2490,
      "##场": 2491,
      "##月": 2492,
      "##こ": 2493,
      "##遁": 2494,
      "##走": 2495,
      "##什": 2496,
      "##么": 2497,
      "##经": 2498,
      "##历": 2499,
      "##多": 2500,
      "##统": 2501,
      "##治": 2502,
      "##각": 2503,
      "##卑": 2504,
      "##湿": 2505,
      "##彩": 2506,
      "##門": 2507,
      "##願": 2508,
      "##트": 2509,
      "##남": 2510,
      "##少": 2511,
      "##巨": 2512,
      "##乳": 2513,
      "##降": 2514,
      "##ū": 2515,
      "##骄": 2516,
      "##纪": 2517,
      "##й": 2518,
      "##更": 2519,
      "##胜": 2520,
      "##筹": 2521,
      "##戎": 2522,
      "##節": 2523,
      "##確": 2524,
      "##認": 2525,
      "##숙": 2526,
      "##해": 2527,
      "##졌": 2528,
      "##합": 2529,
      "##ニ": 2530,
      "##バ": 2531,
      "##解": 2532,
      "##字": 2533,
      "##æ": 2534,
      "##助": 2535,
      "##弩": 2536,
      "##折": 2537,
      "##挫": 2538,
      "##荫": 2539,
      "##☞": 2540,
      "##頻": 2541,
      "##果": 2542,
      "##做": 2543,
      "##到": 2544,
      "##¿": 2545,
      "##艳": 2546,
      "##按": 2547,
      "##复": 2548,
      "##条": 2549,
      "##消": 2550,
      "##息": 2551,
      "##": 2552,
      "##": 2553,
      "##": 2554,
      "##に": 2555,
      "##土": 2556,
      "##말": 2557,
      "##妹": 2558,
      "##初": 2559,
      "##长": 2560,
      "##辅": 2561,
      "##绳": 2562,
      "##政": 2563,
      "##膏": 2564,
      "##腴": 2565,
      "##⋃": 2566,
      "##╰": 2567,
      "##ɔ": 2568,
      "##路": 2569,
      "##ά": 2570,
      "##ν": 2571,
      "##τ": 2572,
      "##λ": 2573,
      "##γ": 2574,
      "##ι": 2575,
      "##古": 2576,
      "##來": 2577,
      "##稀": 2578,
      "##常": 2579,
      "##诸": 2580,
      "##‿": 2581,
      "##ラ": 2582,
      "##ス": 2583,
      "##ア": 2584,
      "##ね": 2585,
      "##怪": 2586,
      "##争": 2587,
      "##锋": 2588,
      "##드": 2589,
      "##민": 2590,
      "##注": 2591,
      "##这": 2592,
      "##个": 2593,
      "##没": 2594,
      "##救": 2595,
      "##霍": 2596,
      "##沃": 2597,
      "##茨": 2598,
      "##留": 2599,
      "##資": 2600,
      "##ホ": 2601,
      "##テ": 2602,
      "##琵": 2603,
      "##琶": 2604,
      "##癸": 2605,
      "##得": 2606,
      "##逼": 2607,
      "##真": 2608,
      "##神": 2609,
      "##嚟": 2610,
      "##因": 2611,
      "##夏": 2612,
      "##也": 2613,
      "##号": 2614,
      "##谥": 2615,
      "##愛": 2616,
      "##つ": 2617,
      "##わ": 2618,
      "##천": 2619,
      "##叶": 2620,
      "##と": 2621,
      "##税": 2622,
      "##。": 2623,
      "##行": 2624,
      "##取": 2625,
      "##敗": 2626,
      "##虛": 2627,
      "##高": 2628,
      "##苗": 2629,
      "##裔": 2630,
      "##兮": 2631,
      "##记": 2632,
      "##‌": 2633,
      "##한": 2634,
      "##ī": 2635,
      "##闽": 2636,
      "##众": 2637,
      "##吧": 2638,
      "##岭": 2639,
      "##ぜ": 2640,
      "##ど": 2641,
      "##船": 2642,
      "##社": 2643,
      "##约": 2644,
      "##铁": 2645,
      "##选": 2646,
      "##择": 2647,
      "##瀏": 2648,
      "##제": 2649,
      "##🏟": 2650,
      "##ë": 2651,
      "##六": 2652,
      "##九": 2653,
      "##击": 2654,
      "##鏈": 2655,
      "##̃": 2656,
      "##话": 2657,
      "##🌧": 2658,
      "##読": 2659,
      "##심": 2660,
      "##平": 2661,
      "##御": 2662,
      "##测": 2663,
      "##∀": 2664,
      "##喜": 2665,
      "##发": 2666,
      "##财": 2667,
      "##ɛ": 2668,
      "##菌": 2669,
      "##お": 2670,
      "##移": 2671,
      "##猫": 2672,
      "##谢": 2673,
      "##您": 2674,
      "##支": 2675,
      "##持": 2676,
      "##合": 2677,
      "##作": 2678,
      "##骆": 2679,
      "##裸": 2680,
      "##亦": 2681,
      "##姐": 2682,
      "##험": 2683,
      "##료": 2684,
      "##宇": 2685,
      "##觀": 2686,
      "##プ": 2687,
      "##長": 2688,
      "##獄": 2689,
      "##骑": 2690,
      "##白": 2691,
      "##马": 2692,
      "##ذ": 2693,
      "##ه": 2694,
      "##粉": 2695,
      "##便": 2696,
      "##携": 2697,
      "##法": 2698,
      "##升": 2699,
      "##级": 2700,
      "##ะ": 2701,
      "##ศ": 2702,
      "##ค": 2703,
      "##错": 2704,
      "##단": 2705,
      "##폭": 2706,
      "##행": 2707,
      "##◔": 2708,
      "##巴": 2709,
      "##び": 2710,
      "##裳": 2711,
      "##佗": 2712,
      "##举": 2713,
      "##攻": 2714,
      "##油": 2715,
      "##短": 2716,
      "##纣": 2717,
      "##逆": 2718,
      "##虜": 2719,
      "##侵": 2720,
      "##犯": 2721,
      "##»": 2722,
      "##配": 2723,
      "##だ": 2724,
      "##さ": 2725,
      "##−": 2726,
      "##卒": 2727,
      "##凿": 2728,
      "##粮": 2729,
      "##暗": 2730,
      "##闇": 2731,
      "##飛": 2732,
      "##そ": 2733,
      "##鬼": 2734,
      "##流": 2735,
      "##潮": 2736,
      "##上": 2737,
      "##↑": 2738,
      "##歸": 2739,
      "##報": 2740,
      "##交": 2741,
      "##摭": 2742,
      "##渚": 2743,
      "##杀": 2744,
      "##浏": 2745,
      "##학": 2746,
      "##생": 2747,
      "##骨": 2748,
      "##ĭ": 2749,
      "##娘": 2750,
      "##身": 2751,
      "##穿": 2752,
      "##纱": 2753,
      "##入": 2754,
      "##物": 2755,
      "##蘇": 2756,
      "##工": 2757,
      "##密": 2758,
      "##卷": 2759,
      "##冻": 2760,
      "##鸭": 2761,
      "##爪": 2762,
      "##ï": 2763,
      "##梧": 2764,
      "##佛": 2765,
      "##训": 2766,
      "##武": 2767,
      "##秦": 2768,
      "##军": 2769,
      "##害": 2770,
      "##遂": 2771,
      "##亡": 2772,
      "##ḥ": 2773,
      "##노": 2774,
      "##实": 2775,
      "##度": 2776,
      "##男": 2777,
      "##邱": 2778,
      "##比": 2779,
      "##特": 2780,
      "##皋": 2781,
      "##皑": 2782,
      "##교": 2783,
      "##爸": 2784,
      "##̣": 2785,
      "##晓": 2786,
      "##棠": 2787,
      "##⊙": 2788,
      "##灵": 2789,
      "##상": 2790,
      "##骚": 2791,
      "##θ": 2792,
      "##メ": 2793,
      "##þ": 2794,
      "##대": 2795,
      "##寶": 2796,
      "##或": 2797,
      "##几": 2798,
      "##炼": 2799,
      "##凌": 2800,
      "##品": 2801,
      "##臨": 2802,
      "##も": 2803,
      "##外": 2804,
      "##现": 2805,
      "##很": 2806,
      "##老": 2807,
      "##朴": 2808,
      "##姜": 2809,
      "##貢": 2810,
      "##築": 2811,
      "##町": 2812,
      "##丁": 2813,
      "##目": 2814,
      "##余": 2815,
      "##诱": 2816,
      "##眩": 2817,
      "##笑": 2818,
      "##顔": 2819,
      "##ソ": 2820,
      "##俸": 2821,
      "##番": 2822,
      "##퓨": 2823,
      "##터": 2824,
      "##全": 2825,
      "##英": 2826,
      "##雩": 2827,
      "##ズ": 2828,
      "##着": 2829,
      "##姑": 2830,
      "##对": 2831,
      "##考": 2832,
      "##伯": 2833,
      "##庸": 2834,
      "##者": 2835,
      "##宙": 2836,
      "##정": 2837,
      "##🏝": 2838,
      "##け": 2839,
      "##踐": 2840,
      "##小": 2841,
      "##伙": 2842,
      "##娶": 2843,
      "##北": 2844,
      "##🫨": 2845,
      "##体": 2846,
      "##例": 2847,
      "##笋": 2848,
      "##ل": 2849,
      "##ج": 2850,
      "##م": 2851,
      "##ة": 2852,
      "##ヘ": 2853,
      "##ǎ": 2854,
      "##卦": 2855,
      "##丹": 2856,
      "##花": 2857,
      "##下": 2858,
      "##딘": 2859,
      "##無": 2860,
      "##ę": 2861,
      "##與": 2862,
      "##庫": 2863,
      "##盜": 2864,
      "##鋸": 2865,
      "##截": 2866,
      "##ч": 2867,
      "##š": 2868,
      "##简": 2869,
      "##抽": 2870,
      "##象": 2871,
      "##孔": 2872,
      "##雀": 2873,
      "##立": 2874,
      "##色": 2875,
      "##线": 2876,
      "##玄": 2877,
      "##关": 2878,
      "##装": 2879,
      "##饰": 2880,
      "##画": 2881,
      "##片": 2882,
      "##꧂": 2883,
      "##屈": 2884,
      "##妈": 2885,
      "##や": 2886,
      "##働": 2887,
      "##を": 2888,
      "##調": 2889,
      "##べ": 2890,
      "##カ": 2891,
      "##登": 2892,
      "##岁": 2893,
      "##님": 2894,
      "##ಥ": 2895,
      "##候": 2896,
      "##村": 2897,
      "##追": 2898,
      "##露": 2899,
      "##州": 2900,
      "##域": 2901,
      "##場": 2902,
      "##❄": 2903,
      "##ゥ": 2904,
      "##ッ": 2905,
      "##尊": 2906,
      "##회": 2907,
      "##晴": 2908,
      "##อ": 2909,
      "##ห": 2910,
      "##์": 2911,
      "##摇": 2912,
      "##桂": 2913,
      "##幻": 2914,
      "##服": 2915,
      "##落": 2916,
      "##菲": 2917,
      "##住": 2918,
      "##抖": 2919,
      "##直": 2920,
      "##춰": 2921,
      "##奄": 2922,
      "##峨": 2923,
      "##嶓": 2924,
      "##툰": 2925,
      "##朽": 2926,
      "##剑": 2927,
      "##ě": 2928,
      "##呕": 2929,
      "##君": 2930,
      "##译": 2931,
      "##吁": 2932,
      "##宋": 2933,
      "##광": 2934,
      "##味": 2935,
      "##篇": 2936,
      "##呈": 2937,
      "##盛": 2938,
      "##ぃ": 2939,
      "##ろ": 2940,
      "##肉": 2941,
      "##筑": 2942,
      "##命": 2943,
      "##雪": 2944,
      "##们": 2945,
      "##撮": 2946,
      "##会": 2947,
      "##グ": 2948,
      "##ュ": 2949,
      "##ǹ": 2950,
      "##з": 2951,
      "##样": 2952,
      "##ᴗ": 2953,
      "##ꈍ": 2954,
      "##겠": 2955,
      "##湖": 2956,
      "##ʀ": 2957,
      "##재": 2958,
      "##원": 2959,
      "##岱": 2960,
      "##依": 2961,
      "##빠": 2962,
      "##☹": 2963,
      "##典": 2964,
      "##阿": 2965,
      "##ペ": 2966,
      "##レ": 2967,
      "##紙": 2968,
      "##ł": 2969,
      "##说": 2970,
      "##亏": 2971,
      "##ご": 2972,
      "##ざ": 2973,
      "##웠": 2974,
      "##락": 2975,
      "##詠": 2976,
      "##琪": 2977,
      "##璩": 2978,
      "##ピ": 2979,
      "##洋": 2980,
      "##公": 2981,
      "##式": 2982,
      "##権": 2983,
      "##움": 2984,
      "##으": 2985,
      "##ng": 2986,
      "th": 2987,
      "ch": 2988,
      "nh": 2989,
      "##nh": 2990,
      "ng": 2991,
      "là": 2992,
      "tr": 2993,
      "kh": 2994,
      "có": 2995,
      "thì": 2996,
      "##ên": 2997,
      "ph": 2998,
      "gi": 2999,
      "qu": 3000,
      "##ác": 3001,
      "##ông": 3002,
      "nó": 3003,
      "##ấy": 3004,
      "mà": 3005,
      "##ôi": 3006,
      "nà": 3007,
      "##ới": 3008,
      "đi": 3009,
      "##ình": 3010,
      "##iế": 3011,
      "##ái": 3012,
      "như": 3013,
      "cũ": 3014,
      "##ay": 3015,
      "##ồi": 3016,
      "##ại": 3017,
      "##ời": 3018,
      "cũng": 3019,
      "##iệ": 3020,
      "không": 3021,
      "và": 3022,
      "##ượ": 3023,
      "##on": 3024,
      "sa": 3025,
      "##iề": 3026,
      "rồi": 3027,
      "làm": 3028,
      "##uy": 3029,
      "ko": 3030,
      "này": 3031,
      "##ải": 3032,
      "mình": 3033,
      "cho": 3034,
      "cái": 3035,
      "##ất": 3036,
      "##ần": 3037,
      "##ược": 3038,
      "##en": 3039,
      "ra": 3040,
      "được": 3041,
      "gì": 3042,
      "ngh": 3043,
      "##òn": 3044,
      "lại": 3045,
      "củ": 3046,
      "##ong": 3047,
      "còn": 3048,
      "##ằng": 3049,
      "##âu": 3050,
      "##an": 3051,
      "con": 3052,
      "tôi": 3053,
      "##ười": 3054,
      "##iết": 3055,
      "##ch": 3056,
      "##ân": 3057,
      "cả": 3058,
      "thôi": 3059,
      "của": 3060,
      "phải": 3061,
      "đó": 3062,
      "nào": 3063,
      "người": 3064,
      "mu": 3065,
      "mấy": 3066,
      "em": 3067,
      "với": 3068,
      "##ật": 3069,
      "##ết": 3070,
      "chứ": 3071,
      "##ọc": 3072,
      "##ướ": 3073,
      "thí": 3074,
      "xe": 3075,
      "##in": 3076,
      "các": 3077,
      "##ao": 3078,
      "##ơn": 3079,
      "về": 3080,
      "##ài": 3081,
      "để": 3082,
      "thấy": 3083,
      "##ưa": 3084,
      "##ang": 3085,
      "ki": 3086,
      "thằng": 3087,
      "##iều": 3088,
      "nhưng": 3089,
      "mới": 3090,
      "thế": 3091,
      "nên": 3092,
      "##ăm": 3093,
      "##ôn": 3094,
      "bác": 3095,
      "##ầu": 3096,
      "anh": 3097,
      "##àn": 3098,
      "##ện": 3099,
      "##ạn": 3100,
      "##ống": 3101,
      "##..": 3102,
      "##ây": 3103,
      "vào": 3104,
      "nhiều": 3105,
      "##ườ": 3106,
      "##ước": 3107,
      "quá": 3108,
      "##ường": 3109,
      "hơn": 3110,
      "nói": 3111,
      "##ận": 3112,
      "giờ": 3113,
      "lu": 3114,
      "chỉ": 3115,
      "to": 3116,
      "nhà": 3117,
      "##ắc": 3118,
      "##ữa": 3119,
      "##iên": 3120,
      "##úc": 3121,
      "##iền": 3122,
      "chuy": 3123,
      "fen": 3124,
      "##êu": 3125,
      "ho": 3126,
      "bả": 3127,
      "hay": 3128,
      "bị": 3129,
      "năm": 3130,
      "##án": 3131,
      "trong": 3132,
      "##ẫn": 3133,
      "##ơi": 3134,
      "thím": 3135,
      "đâu": 3136,
      "từ": 3137,
      "##àng": 3138,
      "##ính": 3139,
      "ăn": 3140,
      "##ai": 3141,
      "đá": 3142,
      "lên": 3143,
      "##ối": 3144,
      "biết": 3145,
      "##ươ": 3146,
      "##ương": 3147,
      "##ểu": 3148,
      "##ậy": 3149,
      "thu": 3150,
      "##ùng": 3151,
      "##úng": 3152,
      "##anh": 3153,
      "tiền": 3154,
      "mua": 3155,
      "##ến": 3156,
      "sao": 3157,
      "##er": 3158,
      "##ốn": 3159,
      "chưa": 3160,
      "công": 3161,
      "ông": 3162,
      "đầu": 3163,
      "khi": 3164,
      "##ắm": 3165,
      "vậy": 3166,
      "độ": 3167,
      "khác": 3168,
      "đã": 3169,
      "luôn": 3170,
      "sau": 3171,
      "học": 3172,
      "##inh": 3173,
      "vẫn": 3174,
      "nữa": 3175,
      "##am": 3176,
      "đến": 3177,
      "bạn": 3178,
      "##ắn": 3179,
      "##ắt": 3180,
      "##ung": 3181,
      "##ành": 3182,
      "##ổi": 3183,
      "##ày": 3184,
      "cứ": 3185,
      "việ": 3186,
      "##ếu": 3187,
      "##áng": 3188,
      "##ồng": 3189,
      "lo": 3190,
      "##ăng": 3191,
      "tiế": 3192,
      "đang": 3193,
      "tu": 3194,
      "chuyện": 3195,
      "ai": 3196,
      "chắc": 3197,
      "thật": 3198,
      "cu": 3199,
      "##ọn": 3200,
      "##ốt": 3201,
      "##00": 3202,
      "##âm": 3203,
      "hết": 3204,
      "##au": 3205,
      "##ập": 3206,
      "##eo": 3207,
      "gái": 3208,
      "##ột": 3209,
      "##ỏi": 3210,
      "##át": 3211,
      "vì": 3212,
      "##ực": 3213,
      "đc": 3214,
      "giá": 3215,
      "##ừa": 3216,
      "##êm": 3217,
      "đúng": 3218,
      "ngày": 3219,
      "lắm": 3220,
      "##ức": 3221,
      "...": 3222,
      "đị": 3223,
      "sẽ": 3224,
      "lúc": 3225,
      "đấy": 3226,
      "##ớt": 3227,
      "##ầm": 3228,
      "##ục": 3229,
      "qua": 3230,
      "##ỗi": 3231,
      "trước": 3232,
      "thể": 3233,
      "##ạy": 3234,
      "##ặt": 3235,
      "nhé": 3236,
      "##iện": 3237,
      "##ững": 3238,
      "##ấp": 3239,
      "ngo": 3240,
      "những": 3241,
      "##ội": 3242,
      "nếu": 3243,
      "bảo": 3244,
      "xem": 3245,
      "một": 3246,
      "hàng": 3247,
      "tự": 3248,
      "trên": 3249,
      "việc": 3250,
      "đây": 3251,
      "chơi": 3252,
      "do": 3253,
      "hi": 3254,
      "xong": 3255,
      "lấy": 3256,
      "muốn": 3257,
      "vợ": 3258,
      "##ốc": 3259,
      "đọc": 3260,
      "toàn": 3261,
      "đề": 3262,
      "lần": 3263,
      "cảm": 3264,
      "tư": 3265,
      "##ặc": 3266,
      "##iệm": 3267,
      "nhất": 3268,
      "định": 3269,
      "##éo": 3270,
      "chả": 3271,
      "##ar": 3272,
      "cơ": 3273,
      "kiểu": 3274,
      "nghĩ": 3275,
      "nhau": 3276,
      "##ển": 3277,
      "viết": 3278,
      "bên": 3279,
      "##ìn": 3280,
      "bọn": 3281,
      "co": 3282,
      "##áo": 3283,
      "yêu": 3284,
      "##òng": 3285,
      "mẹ": 3286,
      "quan": 3287,
      "má": 3288,
      "số": 3289,
      "tâm": 3290,
      "chi": 3291,
      "thớt": 3292,
      "nhìn": 3293,
      "##ọi": 3294,
      "theo": 3295,
      "kho": 3296,
      "chạy": 3297,
      "bán": 3298,
      "##ản": 3299,
      "nước": 3300,
      "cao": 3301,
      "ấy": 3302,
      "đứ": 3303,
      "##ãi": 3304,
      "thích": 3305,
      "##ểm": 3306,
      "vo": 3307,
      "##út": 3308,
      "tính": 3309,
      "cần": 3310,
      "vừa": 3311,
      "hắn": 3312,
      "thời": 3313,
      "chính": 3314,
      "bản": 3315,
      "##ấu": 3316,
      "nhỉ": 3317,
      "ti": 3318,
      "khó": 3319,
      "##ấn": 3320,
      "bao": 3321,
      "tháng": 3322,
      "thêm": 3323,
      "##ăn": 3324,
      "xu": 3325,
      "dùng": 3326,
      "thành": 3327,
      "tình": 3328,
      "nghe": 3329,
      "tí": 3330,
      "##tr": 3331,
      "##ởng": 3332,
      "20": 3333,
      "sự": 3334,
      "##ộc": 3335,
      "##ửa": 3336,
      "##ạo": 3337,
      "tin": 3338,
      "kiế": 3339,
      "##es": 3340,
      "tới": 3341,
      "chị": 3342,
      "ta": 3343,
      "nhận": 3344,
      "đồng": 3345,
      "tay": 3346,
      "gh": 3347,
      "##ừng": 3348,
      "lý": 3349,
      "bỏ": 3350,
      "cách": 3351,
      "đời": 3352,
      "bằng": 3353,
      "voz": 3354,
      "hỏi": 3355,
      "hiểu": 3356,
      "hình": 3357,
      "##ẹp": 3358,
      "chỗ": 3359,
      "##ịch": 3360,
      "ngoài": 3361,
      "##ánh": 3362,
      "##ạnh": 3363,
      "nhân": 3364,
      "đường": 3365,
      "mặt": 3366,
      "mất": 3367,
      "##ck": 3368,
      "##ẳng": 3369,
      "##ôm": 3370,
      "kia": 3371,
      "##óng": 3372,
      "hợ": 3373,
      "chu": 3374,
      "##ặp": 3375,
      "thường": 3376,
      "sống": 3377,
      "##ửi": 3378,
      "##ưới": 3379,
      "tốt": 3380,
      "##le": 3381,
      "chủ": 3382,
      "hợp": 3383,
      "vi": 3384,
      "##at": 3385,
      "##ọng": 3386,
      "cùng": 3387,
      "mỗi": 3388,
      "tầm": 3389,
      "máy": 3390,
      "bu": 3391,
      "quy": 3392,
      "xin": 3393,
      "trường": 3394,
      "##im": 3395,
      "##iệu": 3396,
      "đẹp": 3397,
      "ít": 3398,
      "họ": 3399,
      "##ạc": 3400,
      "vô": 3401,
      "so": 3402,
      "dc": 3403,
      "nhật": 3404,
      "rất": 3405,
      "vn": 3406,
      "##ền": 3407,
      "nay": 3408,
      "chung": 3409,
      "lớ": 3410,
      "nhớ": 3411,
      "bình": 3412,
      "ngon": 3413,
      "sinh": 3414,
      "##al": 3415,
      "đứa": 3416,
      "##ìm": 3417,
      "ngu": 3418,
      "10": 3419,
      "hôm": 3420,
      "tiếp": 3421,
      "đủ": 3422,
      "gia": 3423,
      "gần": 3424,
      "sh": 3425,
      "sai": 3426,
      "gặp": 3427,
      "kinh": 3428,
      "##ạt": 3429,
      "lâu": 3430,
      "##ồn": 3431,
      "bài": 3432,
      "dân": 3433,
      "##iệp": 3434,
      "##ầy": 3435,
      "sang": 3436,
      "##ạng": 3437,
      "bắt": 3438,
      "tìm": 3439,
      "thân": 3440,
      "##ẩn": 3441,
      "##ám": 3442,
      "động": 3443,
      "dự": 3444,
      "##or": 3445,
      "hoặc": 3446,
      "##ách": 3447,
      "điểm": 3448,
      "dễ": 3449,
      "##ét": 3450,
      "cuối": 3451,
      "tho": 3452,
      "##ắng": 3453,
      "câu": 3454,
      "##ụng": 3455,
      "gọi": 3456,
      "bà": 3457,
      "##ảng": 3458,
      "thứ": 3459,
      "vụ": 3460,
      "vl": 3461,
      "##iệt": 3462,
      "đéo": 3463,
      "lương": 3464,
      "thay": 3465,
      "##ạch": 3466,
      "##ượng": 3467,
      "quen": 3468,
      "bi": 3469,
      "vấn": 3470,
      "đo": 3471,
      "báo": 3472,
      "hơi": 3473,
      "su": 3474,
      "vài": 3475,
      "##ều": 3476,
      "##el": 3477,
      "hồi": 3478,
      "bộ": 3479,
      "già": 3480,
      "phát": 3481,
      "##ắp": 3482,
      "tuổi": 3483,
      "##ro": 3484,
      "truy": 3485,
      "##èo": 3486,
      "quên": 3487,
      "giả": 3488,
      "tại": 3489,
      "100": 3490,
      "##ty": 3491,
      "kể": 3492,
      "trả": 3493,
      "ngồi": 3494,
      "hiện": 3495,
      "tiếng": 3496,
      "chịu": 3497,
      "thông": 3498,
      "kiếm": 3499,
      "điện": 3500,
      "ơi": 3501,
      "##as": 3502,
      "chết": 3503,
      "phí": 3504,
      "##ướng": 3505,
      "sợ": 3506,
      "nghiệp": 3507,
      "tập": 3508,
      "loại": 3509,
      "tài": 3510,
      "thủ": 3511,
      "##uyên": 3512,
      "##ấm": 3513,
      "##et": 3514,
      "đánh": 3515,
      "an": 3516,
      "đều": 3517,
      "##iêu": 3518,
      "tuần": 3519,
      "vu": 3520,
      "mù": 3521,
      "thực": 3522,
      "##ảnh": 3523,
      "uống": 3524,
      "cấp": 3525,
      "##ặng": 3526,
      "đất": 3527,
      "phần": 3528,
      "điều": 3529,
      "ngay": 3530,
      "chồng": 3531,
      "giải": 3532,
      "giống": 3533,
      "đổi": 3534,
      "đồ": 3535,
      "##ậu": 3536,
      "cầu": 3537,
      "lư": 3538,
      "càng": 3539,
      "thi": 3540,
      "nghiệm": 3541,
      "##ce": 3542,
      "##òi": 3543,
      "##ợi": 3544,
      "##óc": 3545,
      "gian": 3546,
      "##iến": 3547,
      "trung": 3548,
      "ty": 3549,
      "##iếu": 3550,
      "cố": 3551,
      "bố": 3552,
      "chửi": 3553,
      "đối": 3554,
      "cm": 3555,
      "liên": 3556,
      "##lo": 3557,
      "năng": 3558,
      "đừng": 3559,
      "re": 3560,
      "sáng": 3561,
      "quả": 3562,
      "ảnh": 3563,
      "đại": 3564,
      "thử": 3565,
      "lớn": 3566,
      "nội": 3567,
      "viên": 3568,
      "tưởng": 3569,
      "##ưởng": 3570,
      "nhỏ": 3571,
      "##ad": 3572,
      "##ào": 3573,
      "mày": 3574,
      "khá": 3575,
      "tên": 3576,
      "cưới": 3577,
      "nhanh": 3578,
      "trẻ": 3579,
      "ổn": 3580,
      "trọng": 3581,
      "chuyển": 3582,
      "##ạm": 3583,
      "chẳng": 3584,
      "##re": 3585,
      "cty": 3586,
      "nhiên": 3587,
      "hành": 3588,
      "rảnh": 3589,
      "##ép": 3590,
      "cá": 3591,
      "chân": 3592,
      "##te": 3593,
      "éo": 3594,
      "thị": 3595,
      "đội": 3596,
      "trai": 3597,
      "thức": 3598,
      "coi": 3599,
      "tụ": 3600,
      "vị": 3601,
      "##oo": 3602,
      "văn": 3603,
      "hoàn": 3604,
      "dịch": 3605,
      "phim": 3606,
      "tuy": 3607,
      "##ệnh": 3608,
      "nam": 3609,
      "chán": 3610,
      "xưa": 3611,
      "đáng": 3612,
      "hội": 3613,
      "##ệt": 3614,
      "dụng": 3615,
      "mắt": 3616,
      "##pp": 3617,
      "cảnh": 3618,
      "phòng": 3619,
      "kết": 3620,
      "di": 3621,
      "in": 3622,
      "phá": 3623,
      "ok": 3624,
      "yếu": 3625,
      "truyện": 3626,
      "mở": 3627,
      "kí": 3628,
      "vui": 3629,
      "xuống": 3630,
      "bóng": 3631,
      "nổi": 3632,
      "chia": 3633,
      "chó": 3634,
      "dù": 3635,
      "##em": 3636,
      "##ớm": 3637,
      "##ít": 3638,
      "##to": 3639,
      "##ic": 3640,
      "ma": 3641,
      "mọi": 3642,
      "đơn": 3643,
      "tế": 3644,
      "mạnh": 3645,
      "chuẩn": 3646,
      "##ưng": 3647,
      "##0k": 3648,
      "##óa": 3649,
      "tối": 3650,
      "##ém": 3651,
      "hộ": 3652,
      "xa": 3653,
      "##ỉnh": 3654,
      "nghỉ": 3655,
      "##úp": 3656,
      "trận": 3657,
      "##ễn": 3658,
      "việt": 3659,
      "đình": 3660,
      "xúc": 3661,
      "chúng": 3662,
      "li": 3663,
      "thanh": 3664,
      "đưa": 3665,
      "hả": 3666,
      "chất": 3667,
      "##ll": 3668,
      "##ão": 3669,
      "nha": 3670,
      "xấu": 3671,
      "khách": 3672,
      "tiêu": 3673,
      "chục": 3674,
      "tiên": 3675,
      "##st": 3676,
      "bé": 3677,
      "niệm": 3678,
      "chá": 3679,
      "tổ": 3680,
      "vs": 3681,
      "ca": 3682,
      "##ợt": 3683,
      "vc": 3684,
      "rẻ": 3685,
      "lời": 3686,
      "##ộng": 3687,
      "nu": 3688,
      "##ếp": 3689,
      "chọn": 3690,
      "trình": 3691,
      "tụi": 3692,
      "xài": 3693,
      "thương": 3694,
      "xác": 3695,
      "hệ": 3696,
      "bệnh": 3697,
      "ri": 3698,
      "nhập": 3699,
      "bàn": 3700,
      "##li": 3701,
      "sho": 3702,
      "lan": 3703,
      "nhiêu": 3704,
      "ngủ": 3705,
      "hã": 3706,
      "tà": 3707,
      "thua": 3708,
      "##êng": 3709,
      "đòi": 3710,
      "cuộc": 3711,
      "lực": 3712,
      "tao": 3713,
      "##ra": 3714,
      "lừa": 3715,
      "lưu": 3716,
      "giao": 3717,
      "tăng": 3718,
      "##it": 3719,
      "dẫn": 3720,
      "thuộc": 3721,
      "sức": 3722,
      "##ứng": 3723,
      "giảm": 3724,
      "30": 3725,
      "201": 3726,
      "đóng": 3727,
      "##ou": 3728,
      "mang": 3729,
      "chứng": 3730,
      "đợt": 3731,
      "cô": 3732,
      "đặt": 3733,
      "kêu": 3734,
      "giới": 3735,
      "đàn": 3736,
      "vãi": 3737,
      "thẻ": 3738,
      "mai": 3739,
      "đỡ": 3740,
      "##ing": 3741,
      "ba": 3742,
      "từng": 3743,
      "may": 3744,
      "phụ": 3745,
      "đông": 3746,
      "tiếc": 3747,
      "sớm": 3748,
      "cmn": 3749,
      "rõ": 3750,
      "chương": 3751,
      "bây": 3752,
      "bay": 3753,
      "lỗi": 3754,
      "##ậm": 3755,
      "quay": 3756,
      "khổ": 3757,
      "ban": 3758,
      "vẻ": 3759,
      "chí": 3760,
      "tù": 3761,
      "##ta": 3762,
      "cụ": 3763,
      "sản": 3764,
      "12": 3765,
      "dài": 3766,
      "vozer": 3767,
      "tác": 3768,
      "tất": 3769,
      "lượng": 3770,
      "##óm": 3771,
      "kiến": 3772,
      "giác": 3773,
      "đu": 3774,
      "cực": 3775,
      "dám": 3776,
      "thần": 3777,
      "hn": 3778,
      "15": 3779,
      "kỉ": 3780,
      "##èn": 3781,
      "tàu": 3782,
      "thái": 3783,
      "##ẳn": 3784,
      "thuê": 3785,
      "tạo": 3786,
      "nữ": 3787,
      "vật": 3788,
      "khu": 3789,
      "##ẩm": 3790,
      "hẳn": 3791,
      "dưới": 3792,
      "trang": 3793,
      "chút": 3794,
      "gửi": 3795,
      "cha": 3796,
      "tinh": 3797,
      "mo": 3798,
      "mặc": 3799,
      "cửa": 3800,
      "phép": 3801,
      "khả": 3802,
      "bất": 3803,
      "quyết": 3804,
      "ae": 3805,
      "nhẹ": 3806,
      "##ee": 3807,
      "riêng": 3808,
      "tui": 3809,
      "cháu": 3810,
      "thuốc": 3811,
      "hai": 3812,
      "##ằm": 3813,
      "nguyên": 3814,
      "dạy": 3815,
      "mùa": 3816,
      "đám": 3817,
      "ngoại": 3818,
      "quốc": 3819,
      "##ent": 3820,
      "trời": 3821,
      "##ke": 3822,
      "chê": 3823,
      "nghĩa": 3824,
      "quê": 3825,
      "##vi": 3826,
      "giàu": 3827,
      "đầy": 3828,
      "##ượt": 3829,
      "toán": 3830,
      "##ag": 3831,
      "chiều": 3832,
      "##ồm": 3833,
      "mỹ": 3834,
      "lợi": 3835,
      "xuất": 3836,
      "kì": 3837,
      "phân": 3838,
      "thiếu": 3839,
      "hà": 3840,
      "mức": 3841,
      "trí": 3842,
      "hồ": 3843,
      "minh": 3844,
      "tranh": 3845,
      "chờ": 3846,
      "##ạp": 3847,
      "tử": 3848,
      "hạn": 3849,
      "dư": 3850,
      "phương": 3851,
      "đa": 3852,
      "trừ": 3853,
      "tiết": 3854,
      "giỏi": 3855,
      "đau": 3856,
      "thấp": 3857,
      "sg": 3858,
      "mi": 3859,
      "##úi": 3860,
      "nợ": 3861,
      "ny": 3862,
      "ha": 3863,
      "sách": 3864,
      "buồn": 3865,
      "đăng": 3866,
      "tỷ": 3867,
      "no": 3868,
      "cổ": 3869,
      "200": 3870,
      "duy": 3871,
      "nuôi": 3872,
      "giúp": 3873,
      "đổ": 3874,
      "kiện": 3875,
      "gó": 3876,
      "tặng": 3877,
      "hóa": 3878,
      "bánh": 3879,
      "mạng": 3880,
      "mãi": 3881,
      "chấp": 3882,
      "##....": 3883,
      "chú": 3884,
      "##ảy": 3885,
      "nhờ": 3886,
      "triệu": 3887,
      "cây": 3888,
      "##ame": 3889,
      "lớp": 3890,
      "##èm": 3891,
      "lập": 3892,
      "tây": 3893,
      "##ti": 3894,
      "đoạn": 3895,
      "tích": 3896,
      "xây": 3897,
      "đạo": 3898,
      "chế": 3899,
      "quyền": 3900,
      "tội": 3901,
      "xã": 3902,
      "quán": 3903,
      "khỏi": 3904,
      "lí": 3905,
      "biệt": 3906,
      "đôi": 3907,
      "bận": 3908,
      "ly": 3909,
      "giữ": 3910,
      "tương": 3911,
      "du": 3912,
      "##cc": 3913,
      "##ọt": 3914,
      "lin": 3915,
      "vệ": 3916,
      "trải": 3917,
      "trị": 3918,
      "đen": 3919,
      "môn": 3920,
      "thầy": 3921,
      "đêm": 3922,
      "top": 3923,
      "suy": 3924,
      "cắt": 3925,
      "po": 3926,
      "nằm": 3927,
      "lạ": 3928,
      "vay": 3929,
      "luật": 3930,
      "thiết": 3931,
      "đứng": 3932,
      "tri": 3933,
      "nặng": 3934,
      "kế": 3935,
      "mồm": 3936,
      "sắp": 3937,
      "##ón": 3938,
      "gà": 3939,
      "lịch": 3940,
      "sân": 3941,
      "chuyên": 3942,
      "hiệu": 3943,
      "si": 3944,
      "giữa": 3945,
      "cuốn": 3946,
      "pháp": 3947,
      "ni": 3948,
      "khoảng": 3949,
      "huy": 3950,
      "mệt": 3951,
      "ghi": 3952,
      "##la": 3953,
      "fence": 3954,
      "sĩ": 3955,
      "##ặn": 3956,
      "##ẩu": 3957,
      "##ẩy": 3958,
      "fb": 3959,
      "##ựa": 3960,
      "app": 3961,
      "đón": 3962,
      "lòng": 3963,
      "bữa": 3964,
      "lái": 3965,
      "de": 3966,
      "cư": 3967,
      "##est": 3968,
      "bo": 3969,
      "50": 3970,
      ".....": 3971,
      "shop": 3972,
      "thẳng": 3973,
      "cầm": 3974,
      "đẻ": 3975,
      "sử": 3976,
      "hu": 3977,
      "vàng": 3978,
      "doanh": 3979,
      "##ùi": 3980,
      "sửa": 3981,
      "lẽ": 3982,
      "da": 3983,
      "te": 3984,
      "giấy": 3985,
      "..": 3986,
      "mã": 3987,
      "cười": 3988,
      "##ởi": 3989,
      "tốn": 3990,
      "che": 3991,
      "cl": 3992,
      "up": 3993,
      "giáo": 3994,
      "đức": 3995,
      "hoa": 3996,
      "biến": 3997,
      "áo": 3998,
      "ngân": 3999,
      "sếp": 4000,
      "trái": 4001,
      ").": 4002,
      "lol": 4003,
      "la": 4004,
      "))": 4005,
      "ghê": 4006,
      "##der": 4007,
      "##ộn": 4008,
      "quanh": 4009,
      "ví": 4010,
      "hưởng": 4011,
      "đả": 4012,
      "##ine": 4013,
      "áp": 4014,
      "màu": 4015,
      "##ew": 4016,
      "##ứt": 4017,
      "ơn": 4018,
      "%.": 4019,
      "hãng": 4020,
      "##ri": 4021,
      "##ate": 4022,
      "cơm": 4023,
      "##ụp": 4024,
      "vcl": 4025,
      "##ỏng": 4026,
      "linh": 4027,
      "tổng": 4028,
      "##th": 4029,
      "vòng": 4030,
      "cam": 4031,
      "mắc": 4032,
      "xưng": 4033,
      "tham": 4034,
      "gra": 4035,
      "ro": 4036,
      "diễn": 4037,
      "hướng": 4038,
      "rỗi": 4039,
      "##us": 4040,
      "kém": 4041,
      "tận": 4042,
      "tiện": 4043,
      "phục": 4044,
      "bạc": 4045,
      "lão": 4046,
      "méo": 4047,
      "le": 4048,
      "sp": 4049,
      "liệu": 4050,
      "hóng": 4051,
      "địa": 4052,
      "máu": 4053,
      "##km": 4054,
      "##ùa": 4055,
      "cứu": 4056,
      "nhắn": 4057,
      "đem": 4058,
      "tỉnh": 4059,
      "tục": 4060,
      "link": 4061,
      "tượng": 4062,
      "sướng": 4063,
      "biển": 4064,
      "tra": 4065,
      "xinh": 4066,
      "nơi": 4067,
      "game": 4068,
      "ngành": 4069,
      "nguy": 4070,
      "nửa": 4071,
      "##un": 4072,
      "hàn": 4073,
      "dụ": 4074,
      "##do": 4075,
      "com": 4076,
      "kiểm": 4077,
      "nghề": 4078,
      "ký": 4079,
      "se": 4080,
      "##âng": 4081,
      "thuy": 4082,
      "lãi": 4083,
      "dòng": 4084,
      "##òa": 4085,
      "niên": 4086,
      "##ve": 4087,
      "đặc": 4088,
      "đỏ": 4089,
      "khoản": 4090,
      "##de": 4091,
      "tín": 4092,
      "##ank": 4093,
      "grab": 4094,
      "kê": 4095,
      "##ess": 4096,
      "thắng": 4097,
      "202": 4098,
      "lệ": 4099,
      "thất": 4100,
      "on": 4101,
      "án": 4102,
      "##ẹn": 4103,
      "nhạc": 4104,
      "xử": 4105,
      "you": 4106,
      "mùi": 4107,
      "##one": 4108,
      "nghèo": 4109,
      "hoàng": 4110,
      "thoại": 4111,
      "châu": 4112,
      "âm": 4113,
      "##lock": 4114,
      "dây": 4115,
      "nt": 4116,
      "hạ": 4117,
      "nhu": 4118,
      "vk": 4119,
      "fan": 4120,
      "món": 4121,
      "khí": 4122,
      "kéo": 4123,
      "chữ": 4124,
      "chở": 4125,
      "##ơm": 4126,
      "kỳ": 4127,
      "cục": 4128,
      "dính": 4129,
      "phong": 4130,
      "##ub": 4131,
      "thiên": 4132,
      "??": 4133,
      "##ịn": 4134,
      "hiểm": 4135,
      "khám": 4136,
      "nóng": 4137,
      "tùy": 4138,
      "gió": 4139,
      "tai": 4140,
      "##ĩnh": 4141,
      "thả": 4142,
      "fa": 4143,
      "##bo": 4144,
      "kỹ": 4145,
      "fu": 4146,
      "giản": 4147,
      "suốt": 4148,
      "chụp": 4149,
      "mái": 4150,
      "ngang": 4151,
      "thống": 4152,
      "tết": 4153,
      "tốc": 4154,
      "hôn": 4155,
      "lao": 4156,
      "##ff": 4157,
      "rút": 4158,
      "căn": 4159,
      "mong": 4160,
      "##ịp": 4161,
      "sim": 4162,
      "hứng": 4163,
      "thịt": 4164,
      "phố": 4165,
      "yên": 4166,
      "trợ": 4167,
      "tỉ": 4168,
      "thuật": 4169,
      "dạng": 4170,
      "),": 4171,
      "ah": 4172,
      "lạnh": 4173,
      "ứng": 4174,
      "sát": 4175,
      "##me": 4176,
      "lạc": 4177,
      "11": 4178,
      "block": 4179,
      "danh": 4180,
      "trở": 4181,
      "bật": 4182,
      "##00k": 4183,
      "##ẵn": 4184,
      "##ph": 4185,
      "mũ": 4186,
      "hậu": 4187,
      "xo": 4188,
      "viện": 4189,
      "thuyết": 4190,
      "trắng": 4191,
      "tiến": 4192,
      "##ter": 4193,
      "phi": 4194,
      "##iếm": 4195,
      "....": 4196,
      "quần": 4197,
      "##ỡng": 4198,
      "tuyển": 4199,
      "sạch": 4200,
      "triển": 4201,
      "răng": 4202,
      "chiến": 4203,
      "lũ": 4204,
      "phản": 4205,
      "vin": 4206,
      "cạnh": 4207,
      "nghi": 4208,
      "vọng": 4209,
      "đợi": 4210,
      "cờ": 4211,
      "xăng": 4212,
      "sơ": 4213,
      "pha": 4214,
      "dạo": 4215,
      "##ẹt": 4216,
      "nhảy": 4217,
      "vốn": 4218,
      "##0km": 4219,
      "quân": 4220,
      "xí": 4221,
      "ghét": 4222,
      "làng": 4223,
      "luận": 4224,
      "##il": 4225,
      "nghệ": 4226,
      "cay": 4227,
      "kèo": 4228,
      "##da": 4229,
      "bớt": 4230,
      "hút": 4231,
      "khoa": 4232,
      "bò": 4233,
      "cân": 4234,
      "##ứa": 4235,
      "##ver": 4236,
      "ảo": 4237,
      "sẵn": 4238,
      "quản": 4239,
      "thuế": 4240,
      "siêu": 4241,
      "trăm": 4242,
      "trò": 4243,
      "##iềm": 4244,
      "chai": 4245,
      "nọ": 4246,
      "##én": 4247,
      "đh": 4248,
      "tờ": 4249,
      "trc": 4250,
      "bú": 4251,
      "mời": 4252,
      "##um": 4253,
      "truyền": 4254,
      "đấu": 4255,
      "fre": 4256,
      "##áy": 4257,
      "khỏ": 4258,
      "mê": 4259,
      "lai": 4260,
      "phết": 4261,
      "##co": 4262,
      "lành": 4263,
      "đâm": 4264,
      "hẹn": 4265,
      "said": 4266,
      "bh": 4267,
      "rượ": 4268,
      "thèm": 4269,
      "cc": 4270,
      "mưa": 4271,
      "cấm": 4272,
      "40": 4273,
      "ức": 4274,
      "khỏe": 4275,
      "thoải": 4276,
      "sale": 4277,
      "##ym": 4278,
      "kìa": 4279,
      "cộng": 4280,
      "sư": 4281,
      "##ẽo": 4282,
      "mối": 4283,
      "gấp": 4284,
      "chăm": 4285,
      "nhắc": 4286,
      "gây": 4287,
      "25": 4288,
      "##ẫu": 4289,
      "vũ": 4290,
      "não": 4291,
      "tức": 4292,
      "đm": 4293,
      "phạm": 4294,
      "nhậu": 4295,
      "##ót": 4296,
      "pro": 4297,
      "##ùn": 4298,
      "dầu": 4299,
      "check": 4300,
      "dần": 4301,
      "cáo": 4302,
      "ấn": 4303,
      "đít": 4304,
      "thú": 4305,
      "tán": 4306,
      "be": 4307,
      "##ard": 4308,
      "quảng": 4309,
      "##line": 4310,
      "it": 4311,
      "vận": 4312,
      "đắt": 4313,
      "xanh": 4314,
      "hoạt": 4315,
      "##ki": 4316,
      "##ss": 4317,
      "man": 4318,
      "phúc": 4319,
      "cỡ": 4320,
      "phen": 4321,
      "##up": 4322,
      "xét": 4323,
      "chắn": 4324,
      "trúng": 4325,
      "nick": 4326,
      "sở": 4327,
      "##cm": 4328,
      "dục": 4329,
      "trưởng": 4330,
      "đỉnh": 4331,
      "phẩm": 4332,
      "khai": 4333,
      "kệ": 4334,
      "kích": 4335,
      "hài": 4336,
      "buổi": 4337,
      "ngược": 4338,
      "đấm": 4339,
      "##ủng": 4340,
      "góp": 4341,
      "bê": 4342,
      "st": 4343,
      "##ủi": 4344,
      "chức": 4345,
      "nhầm": 4346,
      "bắc": 4347,
      "đèn": 4348,
      "phê": 4349,
      "##se": 4350,
      "suất": 4351,
      "sơn": 4352,
      "au": 4353,
      "trách": 4354,
      "mục": 4355,
      "vid": 4356,
      "tỏ": 4357,
      "diện": 4358,
      "##ướt": 4359,
      "hạng": 4360,
      "ngại": 4361,
      "nè": 4362,
      "ck": 4363,
      "lắp": 4364,
      "bè": 4365,
      "tạm": 4366,
      "ôm": 4367,
      "hòa": 4368,
      "ổng": 4369,
      "cli": 4370,
      "tránh": 4371,
      "win": 4372,
      "dậy": 4373,
      "sẻ": 4374,
      "we": 4375,
      "ntn": 4376,
      "18": 4377,
      "tô": 4378,
      "hoá": 4379,
      "##ụt": 4380,
      "dâm": 4381,
      "lỗ": 4382,
      "sánh": 4383,
      "thừa": 4384,
      "dựng": 4385,
      "nhiệt": 4386,
      "gốc": 4387,
      "trực": 4388,
      "đẩy": 4389,
      "rượu": 4390,
      "tắt": 4391,
      "độc": 4392,
      "đoán": 4393,
      "êm": 4394,
      "chém": 4395,
      "cmnr": 4396,
      "bó": 4397,
      "ga": 4398,
      "xóa": 4399,
      "##ợn": 4400,
      "rác": 4401,
      "mũi": 4402,
      "video": 4403,
      "bank": 4404,
      "sm": 4405,
      "simp": 4406,
      "đà": 4407,
      "trông": 4408,
      "he": 4409,
      "fi": 4410,
      "ham": 4411,
      "##fe": 4412,
      "hại": 4413,
      "##ẹo": 4414,
      "nhóm": 4415,
      "bt": 4416,
      "đế": 4417,
      "ưu": 4418,
      "im": 4419,
      "nát": 4420,
      "dắt": 4421,
      "hy": 4422,
      "nguồn": 4423,
      "cà": 4424,
      "mề": 4425,
      "chống": 4426,
      "shopee": 4427,
      "nổ": 4428,
      "full": 4429,
      "cãi": 4430,
      "for": 4431,
      "ủng": 4432,
      "chúc": 4433,
      "##ah": 4434,
      "nâng": 4435,
      "rộng": 4436,
      "bốc": 4437,
      "kĩ": 4438,
      "vé": 4439,
      "vkl": 4440,
      "##ích": 4441,
      "cr": 4442,
      "team": 4443,
      "##ass": 4444,
      "go": 4445,
      "tỏi": 4446,
      "##ượn": 4447,
      "##ct": 4448,
      "viet": 4449,
      "???": 4450,
      "loạn": 4451,
      "dưỡng": 4452,
      "lướt": 4453,
      "hát": 4454,
      "##ut": 4455,
      "##ak": 4456,
      "tải": 4457,
      "##ầng": 4458,
      "khẩu": 4459,
      "bước": 4460,
      "miền": 4461,
      "ru": 4462,
      "post": 4463,
      "nạn": 4464,
      "##lv": 4465,
      "shi": 4466,
      "màn": 4467,
      "ad": 4468,
      "cận": 4469,
      "môi": 4470,
      "chảy": 4471,
      "khuyên": 4472,
      "bổ": 4473,
      "2k": 4474,
      "thợ": 4475,
      "mạch": 4476,
      "dở": 4477,
      "dung": 4478,
      "tầng": 4479,
      "đạp": 4480,
      "##ộm": 4481,
      "âu": 4482,
      "cú": 4483,
      "tôn": 4484,
      "thậm": 4485,
      "rằng": 4486,
      "nhớt": 4487,
      "chậm": 4488,
      "rửa": 4489,
      "hải": 4490,
      "đào": 4491,
      "chap": 4492,
      "chiếu": 4493,
      "ngta": 4494,
      "pin": 4495,
      "clip": 4496,
      "liền": 4497,
      "##pe": 4498,
      "vượt": 4499,
      "##ook": 4500,
      "nấu": 4501,
      "trọ": 4502,
      "gắng": 4503,
      "##ịt": 4504,
      "khôn": 4505,
      "##iếc": 4506,
      "phút": 4507,
      "tq": 4508,
      "sổ": 4509,
      "tiệm": 4510,
      "mẫu": 4511,
      "online": 4512,
      "gói": 4513,
      "hư": 4514,
      "lông": 4515,
      "đập": 4516,
      "thao": 4517,
      "phạt": 4518,
      "đô": 4519,
      "##are": 4520,
      "lộ": 4521,
      "cày": 4522,
      "sâu": 4523,
      "sút": 4524,
      "##sh": 4525,
      "nhi": 4526,
      "trâu": 4527,
      "giọng": 4528,
      "can": 4529,
      "hồng": 4530,
      "mơ": 4531,
      "vùng": 4532,
      "##ãy": 4533,
      "nốt": 4534,
      "đảo": 4535,
      "đeo": 4536,
      "##))": 4537,
      "@@": 4538,
      "##ment": 4539,
      "trốn": 4540,
      "đống": 4541,
      "##ii": 4542,
      "tóc": 4543,
      "dành": 4544,
      "kính": 4545,
      "mẽo": 4546,
      "acc": 4547,
      "or": 4548,
      "tố": 4549,
      "##iếng": 4550,
      "cứng": 4551,
      "hộp": 4552,
      "chỉnh": 4553,
      "hỗ": 4554,
      "ép": 4555,
      "ab": 4556,
      "thiện": 4557,
      "ar": 4558,
      "cmt": 4559,
      "cắm": 4560,
      "dm": 4561,
      "##ỡi": 4562,
      "kịp": 4563,
      "##id": 4564,
      "##ịa": 4565,
      "nộ": 4566,
      "hạnh": 4567,
      "##ner": 4568,
      "khăn": 4569,
      "##ark": 4570,
      "sữa": 4571,
      "lã": 4572,
      "khóc": 4573,
      "thank": 4574,
      "dị": 4575,
      "lười": 4576,
      "bắn": 4577,
      "khứ": 4578,
      "phía": 4579,
      "lá": 4580,
      "khoe": 4581,
      "kỷ": 4582,
      "500": 4583,
      "##ãn": 4584,
      "long": 4585,
      "tệ": 4586,
      "##ail": 4587,
      "##age": 4588,
      "##ur": 4589,
      "kiệm": 4590,
      "tý": 4591,
      "biên": 4592,
      "##õi": 4593,
      "##bi": 4594,
      "thoát": 4595,
      "óc": 4596,
      "cánh": 4597,
      "căng": 4598,
      "ích": 4599,
      "16": 4600,
      "##........": 4601,
      "19": 4602,
      "vịt": 4603,
      "free": 4604,
      "đt": 4605,
      "mát": 4606,
      "**": 4607,
      "bảng": 4608,
      "##ser": 4609,
      "##ort": 4610,
      "nhiệm": 4611,
      "quà": 4612,
      "luy": 4613,
      "mò": 4614,
      "bia": 4615,
      "lẫn": 4616,
      "##ùm": 4617,
      "ràng": 4618,
      "xịn": 4619,
      "trụ": 4620,
      "##ol": 4621,
      "##ma": 4622,
      "##50": 4623,
      "thiệt": 4624,
      "vẽ": 4625,
      "lưng": 4626,
      "pe": 4627,
      "lỡ": 4628,
      "rau": 4629,
      "tả": 4630,
      "tp": 4631,
      "trộm": 4632,
      "lôi": 4633,
      "tim": 4634,
      "xếp": 4635,
      "mừng": 4636,
      "##ói": 4637,
      "trạng": 4638,
      "test": 4639,
      "đĩ": 4640,
      "chữa": 4641,
      "300": 4642,
      "ưng": 4643,
      "##ase": 4644,
      "km": 4645,
      "niềm": 4646,
      "trầm": 4647,
      "kim": 4648,
      "ầm": 4649,
      "quý": 4650,
      "ghế": 4651,
      "##tub": 4652,
      "dương": 4653,
      "vác": 4654,
      "luyện": 4655,
      "##si": 4656,
      "code": 4657,
      "real": 4658,
      "dừng": 4659,
      "khen": 4660,
      "chợ": 4661,
      "mì": 4662,
      "phận": 4663,
      "vực": 4664,
      "cont": 4665,
      "ex": 4666,
      "##úa": 4667,
      "dữ": 4668,
      "đẳng": 4669,
      "web": 4670,
      "bụng": 4671,
      "##ba": 4672,
      "đương": 4673,
      "chốt": 4674,
      "##pt": 4675,
      "chặt": 4676,
      "goo": 4677,
      "thà": 4678,
      "tk": 4679,
      "mượn": 4680,
      "ngọt": 4681,
      "##dt": 4682,
      "bù": 4683,
      "phù": 4684,
      "the": 4685,
      "nhàng": 4686,
      "đích": 4687,
      "sắc": 4688,
      "cs": 4689,
      "đạt": 4690,
      "miếng": 4691,
      "xung": 4692,
      "hỏng": 4693,
      "##alo": 4694,
      "14": 4695,
      "60": 4696,
      "##cn": 4697,
      "tiêm": 4698,
      "##and": 4699,
      "địch": 4700,
      "ngờ": 4701,
      "mèo": 4702,
      "nắm": 4703,
      "xóm": 4704,
      "đảm": 4705,
      "cafe": 4706,
      "13": 4707,
      "gỡ": 4708,
      "xứ": 4709,
      "xà": 4710,
      "hãy": 4711,
      "đoàn": 4712,
      "cắn": 4713,
      "đê": 4714,
      "chiếc": 4715,
      "##ga": 4716,
      "sóc": 4717,
      "##ấc": 4718,
      "auto": 4719,
      "dựa": 4720,
      "xui": 4721,
      "bẩn": 4722,
      "thơm": 4723,
      "##view": 4724,
      "góc": 4725,
      "mềm": 4726,
      "đài": 4727,
      "tắm": 4728,
      "nc": 4729,
      "sài": 4730,
      "me": 4731,
      "##di": 4732,
      "nghiện": 4733,
      "nắng": 4734,
      "nhục": 4735,
      "nông": 4736,
      "##art": 4737,
      "##tube": 4738,
      "ngữ": 4739,
      "##...": 4740,
      "bro": 4741,
      "va": 4742,
      "miễn": 4743,
      "thư": 4744,
      "phú": 4745,
      "phổ": 4746,
      "##!!": 4747,
      "ngôn": 4748,
      "đứt": 4749,
      "cử": 4750,
      "show": 4751,
      "ser": 4752,
      "trì": 4753,
      "##õm": 4754,
      "tha": 4755,
      "khủng": 4756,
      "1m": 4757,
      "mc": 4758,
      "đuổi": 4759,
      "bởi": 4760,
      "gạch": 4761,
      "##zz": 4762,
      "xíu": 4763,
      "nền": 4764,
      "lọc": 4765,
      "túc": 4766,
      "hồn": 4767,
      "mod": 4768,
      "trôi": 4769,
      "gõ": 4770,
      "ne": 4771,
      "dấu": 4772,
      "ngắn": 4773,
      "##os": 4774,
      "khuy": 4775,
      "trưa": 4776,
      "log": 4777,
      "trà": 4778,
      "đù": 4779,
      "cải": 4780,
      "cung": 4781,
      "c1": 4782,
      "thoảng": 4783,
      "bát": 4784,
      "##fi": 4785,
      "tóm": 4786,
      "lễ": 4787,
      "ốm": 4788,
      "nhả": 4789,
      "miên": 4790,
      "đột": 4791,
      "review": 4792,
      "lùn": 4793,
      "##iệng": 4794,
      "muộn": 4795,
      "điệ": 4796,
      "thận": 4797,
      "tiểu": 4798,
      "90": 4799,
      "đàng": 4800,
      "lượt": 4801,
      "ci": 4802,
      "miệng": 4803,
      "cháy": 4804,
      "tuyệt": 4805,
      "rủ": 4806,
      "lựa": 4807,
      "kèm": 4808,
      "##iếp": 4809,
      "##ca": 4810,
      "tuỳ": 4811,
      "ngoái": 4812,
      "cò": 4813,
      "hè": 4814,
      "##gle": 4815,
      "đậu": 4816,
      "điên": 4817,
      "youtube": 4818,
      "vớ": 4819,
      "tinder": 4820,
      "ship": 4821,
      "bồ": 4822,
      "##ữu": 4823,
      "##ly": 4824,
      "ấm": 4825,
      "khóa": 4826,
      "ngã": 4827,
      "khúc": 4828,
      "google": 4829,
      "bla": 4830,
      "hữu": 4831,
      "80": 4832,
      "phán": 4833,
      "vỡ": 4834,
      "kín": 4835,
      "thanks": 4836,
      "gu": 4837,
      "ủa": 4838,
      "gọn": 4839,
      "hầu": 4840,
      "##vid": 4841,
      "hôi": 4842,
      "súc": 4843,
      "khoẻ": 4844,
      "##les": 4845,
      "giật": 4846,
      "my": 4847,
      "túi": 4848,
      "chào": 4849,
      "hấp": 4850,
      "##tt": 4851,
      "chạm": 4852,
      "ngáo": 4853,
      "khéo": 4854,
      "rư": 4855,
      "sk": 4856,
      "uy": 4857,
      "##tv": 4858,
      "ác": 4859,
      "chấm": 4860,
      "->": 4861,
      "gắn": 4862,
      "chim": 4863,
      "nyc": 4864,
      "bô": 4865,
      "comment": 4866,
      "hủ": 4867,
      "mít": 4868,
      "biểu": 4869,
      "chừng": 4870,
      "thù": 4871,
      "khô": 4872,
      "nộp": 4873,
      "lăn": 4874,
      "loser": 4875,
      "vote": 4876,
      "##end": 4877,
      "tung": 4878,
      "is": 4879,
      "out": 4880,
      "sạc": 4881,
      "hlv": 4882,
      "##gh": 4883,
      "##phone": 4884,
      "đùa": 4885,
      "tắc": 4886,
      "17": 4887,
      "cứt": 4888,
      "thượng": 4889,
      "tròn": 4890,
      "##ue": 4891,
      "than": 4892,
      "thưởng": 4893,
      "mõm": 4894,
      "mắn": 4895,
      "70": 4896,
      "bd": 4897,
      "cặp": 4898,
      "##ẫm": 4899,
      "##mo": 4900,
      "jo": 4901,
      "##ld": 4902,
      "ẻm": 4903,
      "##ủa": 4904,
      "##all": 4905,
      "covid": 4906,
      "nét": 4907,
      "quận": 4908,
      "24": 4909,
      "bar": 4910,
      "tướng": 4911,
      "dáng": 4912,
      "giày": 4913,
      "##gi": 4914,
      "giết": 4915,
      "tít": 4916,
      "lô": 4917,
      "thở": 4918,
      "canh": 4919,
      "ỉa": 4920,
      "mess": 4921,
      "đần": 4922,
      "wc": 4923,
      "bại": 4924,
      "chui": 4925,
      "láo": 4926,
      "lợn": 4927,
      "vứt": 4928,
      "khảo": 4929,
      "gớm": 4930,
      "tấn": 4931,
      "mật": 4932,
      "1tr": 4933,
      "gay": 4934,
      "đói": 4935,
      "dán": 4936,
      "tường": 4937,
      "chuyền": 4938,
      "cám": 4939,
      "rep": 4940,
      "gánh": 4941,
      "##is": 4942,
      "hào": 4943,
      "chặn": 4944,
      "max": 4945,
      "##ms": 4946,
      "pl": 4947,
      "nghiên": 4948,
      "thúc": 4949,
      "chóng": 4950,
      "like": 4951,
      "##ụi": 4952,
      "heo": 4953,
      "đua": 4954,
      "bày": 4955,
      "##op": 4956,
      "xứng": 4957,
      "##30": 4958,
      "pr": 4959,
      "tân": 4960,
      "##ell": 4961,
      "hiếm": 4962,
      "bóp": 4963,
      "kcn": 4964,
      "gấu": 4965,
      "ướ": 4966,
      "giai": 4967,
      "trần": 4968,
      "off": 4969,
      "##he": 4970,
      "múi": 4971,
      "trứng": 4972,
      "rời": 4973,
      "khiến": 4974,
      "##rop": 4975,
      "thăm": 4976,
      "sales": 4977,
      "vả": 4978,
      "kênh": 4979,
      "bầu": 4980,
      "lãnh": 4981,
      "trồng": 4982,
      "trùng": 4983,
      "đỗ": 4984,
      "bơm": 4985,
      "hiền": 4986,
      "treo": 4987,
      ",...": 4988,
      "mô": 4989,
      "oto": 4990,
      "bá": 4991,
      "dĩ": 4992,
      "##10": 4993,
      "##ướp": 4994,
      "nỗi": 4995,
      "sv": 4996,
      "cập": 4997,
      "and": 4998,
      "content": 4999,
      "lều": 5000,
      "lẻ": 5001,
      "dứt": 5002,
      "pi": 5003,
      "nồi": 5004,
      "hùng": 5005,
      "cua": 5006,
      "ôi": 5007,
      "##tion": 5008,
      "tủ": 5009,
      "hương": 5010,
      "mờ": 5011,
      "nv": 5012,
      "đam": 5013,
      "##ore": 5014,
      "vai": 5015,
      "sàn": 5016,
      "móc": 5017,
      "35": 5018,
      "thổi": 5019,
      "dày": 5020,
      "xi": 5021,
      "##--": 5022,
      "thắc": 5023,
      "mảnh": 5024,
      "##hi": 5025,
      "iphone": 5026,
      "pen": 5027,
      "nhan": 5028,
      "##dy": 5029,
      "cỏ": 5030,
      "xả": 5031,
      "hoài": 5032,
      "cọc": 5033,
      "tịch": 5034,
      "##mi": 5035,
      "hoạch": 5036,
      "##tel": 5037,
      "bền": 5038,
      "thiệu": 5039,
      "cướp": 5040,
      "kẻ": 5041,
      "xuyên": 5042,
      "hoà": 5043,
      "xảy": 5044,
      "##ka": 5045,
      "lòi": 5046,
      "xịt": 5047,
      "buôn": 5048,
      "us": 5049,
      "str": 5050,
      "topic": 5051,
      "võ": 5052,
      "hề": 5053,
      "soát": 5054,
      "res": 5055,
      "tĩnh": 5056,
      "22": 5057,
      "xì": 5058,
      "toang": 5059,
      "say": 5060,
      "dõi": 5061,
      "non": 5062,
      "thụ": 5063,
      "thuận": 5064,
      "face": 5065,
      "béo": 5066,
      "##pl": 5067,
      "gen": 5068,
      "gạo": 5069,
      "đốt": 5070,
      "khắc": 5071,
      "phủ": 5072,
      "dàng": 5073,
      "lào": 5074,
      "dưng": 5075,
      "khinh": 5076,
      "hên": 5077,
      "mụ": 5078,
      "***": 5079,
      "=>": 5080,
      "tươi": 5081,
      "cài": 5082,
      "br": 5083,
      "na": 5084,
      "viêm": 5085,
      "##ốp": 5086,
      "bấm": 5087,
      "hcm": 5088,
      "lối": 5089,
      "chớ": 5090,
      "sml": 5091,
      "gợi": 5092,
      "vần": 5093,
      "ninh": 5094,
      "buộc": 5095,
      "card": 5096,
      "ái": 5097,
      "##ha": 5098,
      "gym": 5099,
      "ps": 5100,
      "điệp": 5101,
      "chè": 5102,
      "phóng": 5103,
      "xàm": 5104,
      "gro": 5105,
      "mỏi": 5106,
      "at": 5107,
      "cn": 5108,
      "rơi": 5109,
      "nho": 5110,
      "tộc": 5111,
      "tấm": 5112,
      "##bb": 5113,
      "500k": 5114,
      "vp": 5115,
      "phanh": 5116,
      "ke": 5117,
      "xuân": 5118,
      "dàn": 5119,
      "##ỗng": 5120,
      "ước": 5121,
      "gđ": 5122,
      "gỗ": 5123,
      "phường": 5124,
      "bôi": 5125,
      "ip": 5126,
      "eu": 5127,
      "21": 5128,
      "##read": 5129,
      "giám": 5130,
      "dí": 5131,
      "##ze": 5132,
      "email": 5133,
      "quái": 5134,
      "nghiêm": 5135,
      "bí": 5136,
      "té": 5137,
      "hon": 5138,
      "ráng": 5139,
      "mịa": 5140,
      "hiệp": 5141,
      "99": 5142,
      "tan": 5143,
      "##ỏa": 5144,
      "dao": 5145,
      "##qu": 5146,
      "##nd": 5147,
      "cv": 5148,
      "##ẵng": 5149,
      "date": 5150,
      "đái": 5151,
      "\".": 5152,
      "né": 5153,
      "giang": 5154,
      "nụ": 5155,
      "yah": 5156,
      "lách": 5157,
      "bãi": 5158,
      "thẩm": 5159,
      "##áp": 5160,
      "tạ": 5161,
      "hở": 5162,
      "sốt": 5163,
      "ja": 5164,
      "bus": 5165,
      "##ởm": 5166,
      "mảng": 5167,
      "vua": 5168,
      "##]]": 5169,
      "pass": 5170,
      "un": 5171,
      "##ễm": 5172,
      "yahoo": 5173,
      "dạ": 5174,
      "thread": 5175,
      "hs": 5176,
      "##ry": 5177,
      "al": 5178,
      "bờ": 5179,
      "chấn": 5180,
      "dẩm": 5181,
      "đằng": 5182,
      "your": 5183,
      "nhét": 5184,
      "húp": 5185,
      "##thu": 5186,
      "lệch": 5187,
      "nguyễn": 5188,
      "đệ": 5189,
      "phở": 5190,
      "cmnl": 5191,
      "tuyến": 5192,
      "##kg": 5193,
      "clb": 5194,
      "đụng": 5195,
      "khung": 5196,
      "les": 5197,
      "khối": 5198,
      "ùa": 5199,
      "ngoan": 5200,
      "nhảm": 5201,
      "dọn": 5202,
      "##gn": 5203,
      "##book": 5204,
      "mập": 5205,
      "vân": 5206,
      "vd": 5207,
      "dẹp": 5208,
      "chén": 5209,
      "fake": 5210,
      "ném": 5211,
      "tik": 5212,
      "##bank": 5213,
      "##arch": 5214,
      "bơi": 5215,
      "băng": 5216,
      "tôm": 5217,
      "##sa": 5218,
      "##fa": 5219,
      "hốt": 5220,
      "##xi": 5221,
      "mông": 5222,
      "##ãng": 5223,
      "##mm": 5224,
      "cau": 5225,
      "khắp": 5226,
      "sn": 5227,
      "nhịn": 5228,
      "sc": 5229,
      "chiếm": 5230,
      "2015": 5231,
      "gòn": 5232,
      "##ườn": 5233,
      "chối": 5234,
      "cán": 5235,
      "##ts": 5236,
      "chat": 5237,
      "ngàn": 5238,
      "núi": 5239,
      "##ia": 5240,
      "đền": 5241,
      "trống": 5242,
      "zalo": 5243,
      "chang": 5244,
      "ac": 5245,
      "mãn": 5246,
      "mỡ": 5247,
      "hủy": 5248,
      "wi": 5249,
      "khiển": 5250,
      "họp": 5251,
      "phế": 5252,
      "mar": 5253,
      "bv": 5254,
      "dơ": 5255,
      "honda": 5256,
      "ruột": 5257,
      "nhiễm": 5258,
      "thánh": 5259,
      "cx": 5260,
      "group": 5261,
      "lộn": 5262,
      "hổ": 5263,
      "lê": 5264,
      "cẩn": 5265,
      "##box": 5266,
      "bám": 5267,
      "cop": 5268,
      "soi": 5269,
      "sub": 5270,
      "gg": 5271,
      "lây": 5272,
      "ku": 5273,
      "lục": 5274,
      "lọ": 5275,
      "kẹt": 5276,
      "thải": 5277,
      "phiên": 5278,
      "xương": 5279,
      "ole": 5280,
      "toy": 5281,
      "rã": 5282,
      "sủa": 5283,
      "ola": 5284,
      "đụt": 5285,
      "thang": 5286,
      "##ush": 5287,
      "net": 5288,
      "sung": 5289,
      "cậu": 5290,
      "150": 5291,
      "nga": 5292,
      "bét": 5293,
      "lò": 5294,
      "pep": 5295,
      "##ble": 5296,
      "bún": 5297,
      "oke": 5298,
      "xách": 5299,
      "thơ": 5300,
      "huynh": 5301,
      "leo": 5302,
      "tháo": 5303,
      "hò": 5304,
      "phỏng": 5305,
      "mổ": 5306,
      "100k": 5307,
      "kg": 5308,
      "phiền": 5309,
      "search": 5310,
      "lưới": 5311,
      "chuột": 5312,
      "book": 5313,
      "san": 5314,
      "rưỡi": 5315,
      "nhạt": 5316,
      "nhượ": 5317,
      "lửa": 5318,
      "op": 5319,
      "thăng": 5320,
      "thỉnh": 5321,
      "thủy": 5322,
      "lap": 5323,
      "##tok": 5324,
      "min": 5325,
      "kn": 5326,
      "côn": 5327,
      "tú": 5328,
      "##ram": 5329,
      "inter": 5330,
      "set": 5331,
      "tủi": 5332,
      "##_thu": 5333,
      "##ớp": 5334,
      "cùi": 5335,
      "##ast": 5336,
      "huống": 5337,
      "hít": 5338,
      "##ằn": 5339,
      "##_thu_": 5340,
      "rùi": 5341,
      "##xh": 5342,
      "cau_thu_": 5343,
      "ngắm": 5344,
      "cup": 5345,
      "##ada": 5346,
      "share": 5347,
      "nạp": 5348,
      "page": 5349,
      "tv": 5350,
      "sdt": 5351,
      "tồn": 5352,
      "đáp": 5353,
      "bs": 5354,
      "bơ": 5355,
      "hô": 5356,
      "zin": 5357,
      "##eed": 5358,
      "lứa": 5359,
      "quo": 5360,
      "bụi": 5361,
      "city": 5362,
      "túng": 5363,
      "cáp": 5364,
      "cút": 5365,
      "##xx": 5366,
      "2020": 5367,
      "iq": 5368,
      "lốp": 5369,
      "rừng": 5370,
      "vẩn": 5371,
      "deal": 5372,
      "skin": 5373,
      "bần": 5374,
      "dốt": 5375,
      "nhựa": 5376,
      "mòn": 5377,
      "sóng": 5378,
      "sing": 5379,
      "thai": 5380,
      "kha": 5381,
      "huyện": 5382,
      "bin": 5383,
      "giã": 5384,
      "phiếu": 5385,
      "quang": 5386,
      "khởi": 5387,
      "##date": 5388,
      "đáy": 5389,
      "\",": 5390,
      "nghị": 5391,
      "tiktok": 5392,
      "banh": 5393,
      "nhạy": 5394,
      "chịch": 5395,
      "khái": 5396,
      "##man": 5397,
      "hạt": 5398,
      "##ẫy": 5399,
      "2tr": 5400,
      "cf": 5401,
      "súng": 5402,
      "nối": 5403,
      "nô": 5404,
      "chúa": 5405,
      "ste": 5406,
      "lun": 5407,
      "khoá": 5408,
      "##dit": 5409,
      "phối": 5410,
      "viettel": 5411,
      "khiếp": 5412,
      "hoang": 5413,
      "tạp": 5414,
      "tật": 5415,
      "ngập": 5416,
      "haiz": 5417,
      "1st": 5418,
      "vặt": 5419,
      "dồn": 5420,
      "messi": 5421,
      "mệnh": 5422,
      "##wn": 5423,
      "40km": 5424,
      "dăm": 5425,
      "trạm": 5426,
      "drop": 5427,
      "ks": 5428,
      "car": 5429,
      "cúp": 5430,
      "update": 5431,
      "phốt": 5432,
      "hận": 5433,
      "hèn": 5434,
      "##ash": 5435,
      "pa": 5436,
      "kịch": 5437,
      "loz": 5438,
      "bl": 5439,
      "vĩnh": 5440,
      "vđ": 5441,
      "200k": 5442,
      "tông": 5443,
      "phu": 5444,
      "##ion": 5445,
      "điển": 5446,
      "5tr": 5447,
      "50k": 5448,
      "haha": 5449,
      "cấu": 5450,
      "lon": 5451,
      "gầm": 5452,
      "vội": 5453,
      "nhá": 5454,
      "hot": 5455,
      "thổ": 5456,
      "sex": 5457,
      "bể": 5458,
      "##oi": 5459,
      "trào": 5460,
      "spam": 5461,
      "new": 5462,
      "hãm": 5463,
      "xiên": 5464,
      "##ump": 5465,
      "lâm": 5466,
      "seri": 5467,
      "tiềm": 5468,
      "thùng": 5469,
      "45": 5470,
      "quote": 5471,
      "##dol": 5472,
      "##ưu": 5473,
      "chiên": 5474,
      "##va": 5475,
      "rách": 5476,
      "phấn": 5477,
      "nhắm": 5478,
      "thỏa": 5479,
      "27": 5480,
      "##ũng": 5481,
      "duyên": 5482,
      "rap": 5483,
      "inbox": 5484,
      "rớt": 5485,
      "conta": 5486,
      "##chi": 5487,
      "xạo": 5488,
      "họa": 5489,
      "đếch": 5490,
      "pc": 5491,
      "xuôi": 5492,
      "thoáng": 5493,
      "trư": 5494,
      "nhì": 5495,
      "winner": 5496,
      "bếp": 5497,
      "trĩ": 5498,
      "úc": 5499,
      "ống": 5500,
      "28": 5501,
      "gương": 5502,
      "thui": 5503,
      "úp": 5504,
      "hứa": 5505,
      "##ber": 5506,
      "rô": 5507,
      "##min": 5508,
      "gáy": 5509,
      "dò": 5510,
      "crush": 5511,
      "chênh": 5512,
      "2021": 5513,
      "400": 5514,
      "làn": 5515,
      "muối": 5516,
      "biện": 5517,
      "view": 5518,
      "dại": 5519,
      "idol": 5520,
      "cường": 5521,
      "nhấp": 5522,
      "##lot": 5523,
      "##bc": 5524,
      "10k": 5525,
      "ánh": 5526,
      "10tr": 5527,
      "am": 5528,
      "đè": 5529,
      "##xt": 5530,
      "##m2": 5531,
      "đuối": 5532,
      "sen": 5533,
      "xoay": 5534,
      "hehe": 5535,
      "vờ": 5536,
      "xăm": 5537,
      "mụn": 5538,
      "tráng": 5539,
      "bắp": 5540,
      "liệt": 5541,
      "##ọa": 5542,
      "##ord": 5543,
      "ben": 5544,
      "rành": 5545,
      "giường": 5546,
      "36": 5547,
      "copy": 5548,
      "vf": 5549,
      "vất": 5550,
      "tẩy": 5551,
      "sông": 5552,
      "1k": 5553,
      "##ow": 5554,
      "tái": 5555,
      "##ft": 5556,
      "##20": 5557,
      "chăn": 5558,
      "lùi": 5559,
      "##ml": 5560,
      "phò": 5561,
      "2016": 5562,
      "laz": 5563,
      "rần": 5564,
      "ẩm": 5565,
      "2022": 5566,
      "nãy": 5567,
      "##ted": 5568,
      "vú": 5569,
      "trump": 5570,
      "duyệt": 5571,
      "ung": 5572,
      "vỏ": 5573,
      "bóc": 5574,
      "đút": 5575,
      "khuyến": 5576,
      "facebook": 5577,
      "lĩnh": 5578,
      "mớ": 5579,
      "noel": 5580,
      "cột": 5581,
      "xỉ": 5582,
      "thói": 5583,
      "quất": 5584,
      "conan": 5585,
      "combo": 5586,
      "hao": 5587,
      "wa": 5588,
      "##rr": 5589,
      "lau": 5590,
      "liv": 5591,
      "##top": 5592,
      "dev": 5593,
      "nướng": 5594,
      "bđ": 5595,
      "tiệp": 5596,
      "chiêu": 5597,
      "tg": 5598,
      "loa": 5599,
      "##aa": 5600,
      "lót": 5601,
      "son": 5602,
      "đốc": 5603,
      "củng": 5604,
      "bỉ": 5605,
      "lầm": 5606,
      "táo": 5607,
      "##................": 5608,
      "nản": 5609,
      "cro": 5610,
      "##era": 5611,
      "tụt": 5612,
      "nhàn": 5613,
      "tro": 5614,
      "giận": 5615,
      "indo": 5616,
      "##ght": 5617,
      "bn": 5618,
      "phịch": 5619,
      "chua": 5620,
      "gầy": 5621,
      "sgbb": 5622,
      "khâm": 5623,
      "23": 5624,
      "hd": 5625,
      "hom": 5626,
      "mắm": 5627,
      "vạn": 5628,
      "ớt": 5629,
      "lúa": 5630,
      "##rm": 5631,
      "8x": 5632,
      "đành": 5633,
      "phèn": 5634,
      "quãng": 5635,
      "sàng": 5636,
      "##gb": 5637,
      "hàm": 5638,
      "andro": 5639,
      "trọn": 5640,
      "boy": 5641,
      "cổng": 5642,
      "nhổ": 5643,
      "##ata": 5644,
      "##sk": 5645,
      "rủi": 5646,
      "váy": 5647,
      "5t": 5648,
      "best": 5649,
      "ju": 5650,
      "sti": 5651,
      "gan": 5652,
      "ngơ": 5653,
      "xạ": 5654,
      "sắm": 5655,
      "vâng": 5656,
      "đồn": 5657,
      "săm": 5658,
      "hối": 5659,
      "chip": 5660,
      "bột": 5661,
      "pháo": 5662,
      "##ot": 5663,
      "chay": 5664,
      "tua": 5665,
      "bm": 5666,
      "nẵng": 5667,
      "chel": 5668,
      "vướng": 5669,
      "thảo": 5670,
      "cấn": 5671,
      "rối": 5672,
      "##com": 5673,
      "barca": 5674,
      "dỗ": 5675,
      "ple": 5676,
      "tb": 5677,
      "ám": 5678,
      "trao": 5679,
      "kiếp": 5680,
      "bông": 5681,
      "size": 5682,
      "park": 5683,
      "##ge": 5684,
      "bung": 5685,
      "trấn": 5686,
      "bạch": 5687,
      "manh": 5688,
      "=]]": 5689,
      "lát": 5690,
      "thiểu": 5691,
      "alo": 5692,
      "android": 5693,
      "vương": 5694,
      "đn": 5695,
      "2x": 5696,
      "đk": 5697,
      "ồn": 5698,
      "reup": 5699,
      "dọa": 5700,
      "##tac": 5701,
      "##ud": 5702,
      "anti": 5703,
      "##pa": 5704,
      "##tra": 5705,
      "song": 5706,
      "bực": 5707,
      "tech": 5708,
      "há": 5709,
      "sắt": 5710,
      "khịa": 5711,
      "##ara": 5712,
      "lặp": 5713,
      "binh": 5714,
      "fe": 5715,
      "thờ": 5716,
      "n1": 5717,
      "vang": 5718,
      "var": 5719,
      "26": 5720,
      "vắng": 5721,
      "##12": 5722,
      "tạch": 5723,
      "nn": 5724,
      "tào": 5725,
      "6h": 5726,
      "mười": 5727,
      "ngứa": 5728,
      "mạt": 5729,
      "ngộ": 5730,
      "ran": 5731,
      "3tr": 5732,
      "hnao": 5733,
      "hiến": 5734,
      "tàn": 5735,
      "taxi": 5736,
      "big": 5737,
      "ccc": 5738,
      "săn": 5739,
      "##kh": 5740,
      "chắp": 5741,
      "nghìn": 5742,
      "##pper": 5743,
      "tùng": 5744,
      "##vel": 5745,
      "đú": 5746,
      "đuôi": 5747,
      "reset": 5748,
      "fr": 5749,
      "tam": 5750,
      "##uu": 5751,
      "psg": 5752,
      "2014": 5753,
      "ctac": 5754,
      "vầy": 5755,
      "cát": 5756,
      "3x": 5757,
      "nít": 5758,
      "lận": 5759,
      "múc": 5760,
      "lăng": 5761,
      "chuộng": 5762,
      "!!!": 5763,
      "000": 5764,
      "pv": 5765,
      "loài": 5766,
      "back": 5767,
      "cốt": 5768,
      "phái": 5769,
      "ct": 5770,
      "kháng": 5771,
      "lưỡi": 5772,
      "skinner": 5773,
      "gãy": 5774,
      "chích": 5775,
      "bèo": 5776,
      "visa": 5777,
      "av": 5778,
      "nhở": 5779,
      "##ờng": 5780,
      "tứ": 5781,
      "mộ": 5782,
      "giấu": 5783,
      "cb": 5784,
      "diệt": 5785,
      "nấy": 5786,
      "lính": 5787,
      "lậu": 5788,
      "vá": 5789,
      "ngư": 5790,
      ")))": 5791,
      "thảm": 5792,
      "sờ": 5793,
      "##by": 5794,
      "##go": 5795,
      "thoái": 5796,
      "##per": 5797,
      "##oz": 5798,
      "9x": 5799,
      "coin": 5800,
      "đậm": 5801,
      "logic": 5802,
      "khựa": 5803,
      "please": 5804,
      "thuần": 5805,
      "tuyên": 5806,
      "proble": 5807,
      "ss": 5808,
      "box": 5809,
      "uh": 5810,
      "đĩa": 5811,
      "all": 5812,
      "quỹ": 5813,
      "đềm": 5814,
      "buff": 5815,
      "ib": 5816,
      "koo": 5817,
      "of": 5818,
      "##ato": 5819,
      "huyết": 5820,
      "gạ": 5821,
      "chăng": 5822,
      "dưa": 5823,
      "lú": 5824,
      "bậy": 5825,
      "tw": 5826,
      "tt": 5827,
      "bào": 5828,
      "2012": 5829,
      "huyền": 5830,
      "300k": 5831,
      "##ex": 5832,
      "ngực": 5833,
      "##ague": 5834,
      "##kk": 5835,
      "hảo": 5836,
      "hầm": 5837,
      "rang": 5838,
      "tòa": 5839,
      "1000": 5840,
      "chật": 5841,
      "##ade": 5842,
      "problems": 5843,
      "mồ": 5844,
      "nhường": 5845,
      "600": 5846,
      "nút": 5847,
      "##bu": 5848,
      "ms": 5849,
      "vánh": 5850,
      "hp": 5851,
      "mực": 5852,
      "##40": 5853,
      "tò": 5854,
      "##gg": 5855,
      "dùm": 5856,
      "hr": 5857,
      "lỏ": 5858,
      "xh": 5859,
      "apple": 5860,
      "##ali": 5861,
      "cốp": 5862,
      "vios": 5863,
      "mốt": 5864,
      "tách": 5865,
      "ốc": 5866,
      "tit": 5867,
      "quẹt": 5868,
      "2018": 5869,
      "kem": 5870,
      "##ps": 5871,
      "vườn": 5872,
      "hố": 5873,
      "trượt": 5874,
      "thọ": 5875,
      "trêu": 5876,
      "dốc": 5877,
      "triệt": 5878,
      "thâm": 5879,
      "cưa": 5880,
      "loanh": 5881,
      "ghẻ": 5882,
      "sốc": 5883,
      "##om": 5884,
      "sạn": 5885,
      "chôn": 5886,
      "ngọc": 5887,
      "hưu": 5888,
      "cốc": 5889,
      "khơi": 5890,
      "chạn": 5891,
      "lít": 5892,
      "men": 5893,
      "ôn": 5894,
      "ghé": 5895,
      "##io": 5896,
      "đãi": 5897,
      "##nn": 5898,
      "##ọe": 5899,
      "2019": 5900,
      "lụ": 5901,
      "mọc": 5902,
      "xích": 5903,
      "nể": 5904,
      "ev": 5905,
      "thầu": 5906,
      "chổ": 5907,
      "this": 5908,
      "euro": 5909,
      "cống": 5910,
      "##ậc": 5911,
      "cạo": 5912,
      "spa": 5913,
      "ak": 5914,
      "gồm": 5915,
      "xế": 5916,
      "lủng": 5917,
      "rốt": 5918,
      "form": 5919,
      "##33": 5920,
      "mn": 5921,
      "clone": 5922,
      "30k": 5923,
      "del": 5924,
      "mau": 5925,
      "##ỉa": 5926,
      "mail": 5927,
      "culi": 5928,
      "bùng": 5929,
      "wor": 5930,
      "phe": 5931,
      "bds": 5932,
      "bang": 5933,
      "liều": 5934,
      "rét": 5935,
      "##ìa": 5936,
      "lead": 5937,
      "bđs": 5938,
      "dram": 5939,
      "os": 5940,
      "mỏng": 5941,
      "##ớn": 5942,
      "cuồng": 5943,
      "ngán": 5944,
      "gd": 5945,
      "giấc": 5946,
      "time": 5947,
      "lạm": 5948,
      "##fo": 5949,
      "giặt": 5950,
      "phím": 5951,
      "dái": 5952,
      "fil": 5953,
      "##ỡn": 5954,
      "chuyến": 5955,
      "dâu": 5956,
      "tạt": 5957,
      "đèo": 5958,
      "##uch": 5959,
      "cản": 5960,
      "3d": 5961,
      "bth": 5962,
      "vết": 5963,
      "lux": 5964,
      "tổn": 5965,
      "series": 5966,
      "vcb": 5967,
      "lazada": 5968,
      "fpt": 5969,
      "line": 5970,
      "##ềnh": 5971,
      "next": 5972,
      "van": 5973,
      "đếm": 5974,
      "bid": 5975,
      "nhuận": 5976,
      "cắp": 5977,
      "##ho": 5978,
      "liêm": 5979,
      "hđ": 5980,
      "hẻ": 5981,
      "drama": 5982,
      "thối": 5983,
      "mẽ": 5984,
      "2013": 5985,
      "cháo": 5986,
      "lội": 5987,
      "##be": 5988,
      "khoái": 5989,
      "gú": 5990,
      "##ina": 5991,
      "##low": 5992,
      "##gian": 5993,
      "xắn": 5994,
      "##estay": 5995,
      "homestay": 5996,
      "##tu": 5997,
      "100tr": 5998,
      "mộng": 5999,
      "tot": 6000,
      "trú": 6001,
      "file": 6002,
      "option": 6003,
      "tởm": 6004,
      "ngâm": 6005,
      "phó": 6006,
      "bọt": 6007,
      "phức": 6008,
      "##ime": 6009,
      "ké": 6010,
      "##ild": 6011,
      "nứt": 6012,
      "xông": 6013,
      "##ne": 6014,
      "x2": 6015,
      "đoan": 6016,
      "bời": 6017,
      "chảnh": 6018,
      "bế": 6019,
      "đạn": 6020,
      "rước": 6021,
      "lam": 6022,
      "mượt": 6023,
      "##ane": 6024,
      "29": 6025,
      "mặn": 6026,
      "##đt": 6027,
      "live": 6028,
      "bùa": 6029,
      "thg": 6030,
      "##))))": 6031,
      "bức": 6032,
      "##ườm": 6033,
      "gân": 6034,
      "gối": 6035,
      "lật": 6036,
      "rà": 6037,
      "đểu": 6038,
      "hoi": 6039,
      "75": 6040,
      "lèo": 6041,
      "nén": 6042,
      "cai": 6043,
      "tn": 6044,
      "thấu": 6045,
      "khoai": 6046,
      "20k": 6047,
      "nhánh": 6048,
      "hằng": 6049,
      "rồng": 6050,
      "trùm": 6051,
      "lung": 6052,
      "ao": 6053,
      "lả": 6054,
      "##son": 6055,
      "##pi": 6056,
      "giành": 6057,
      "##eam": 6058,
      "%,": 6059,
      "steak": 6060,
      "chọc": 6061,
      "bịa": 6062,
      "gom": 6063,
      "phật": 6064,
      "dai": 6065,
      "main": 6066,
      "ẩn": 6067,
      "bad": 6068,
      "mark": 6069,
      "trend": 6070,
      "hack": 6071,
      "bra": 6072,
      "bậc": 6073,
      "fl": 6074,
      "mị": 6075,
      "mas": 6076,
      "vạch": 6077,
      "tiki": 6078,
      "tấp": 6079,
      "##??": 6080,
      "lờ": 6081,
      "mit": 6082,
      "##und": 6083,
      "tớ": 6084,
      "troll": 6085,
      "ngựa": 6086,
      "khỉ": 6087,
      "##dd": 6088,
      "vcc": 6089,
      "cào": 6090,
      "20tr": 6091,
      "800": 6092,
      "ngôi": 6093,
      "quét": 6094,
      "apply": 6095,
      "body": 6096,
      "lì": 6097,
      "##asy": 6098,
      "2023": 6099,
      "pre": 6100,
      "xoá": 6101,
      "bênh": 6102,
      "họng": 6103,
      "xl": 6104,
      "##ếch": 6105,
      "100km": 6106,
      "mây": 6107,
      "##ern": 6108,
      "chuối": 6109,
      "cccd": 6110,
      "rung": 6111,
      "##orn": 6112,
      "dịp": 6113,
      "tgian": 6114,
      "mại": 6115,
      "khán": 6116,
      "some": 6117,
      "gang": 6118,
      "đặn": 6119,
      "đùi": 6120,
      "dép": 6121,
      "xào": 6122,
      "lang": 6123,
      "mâm": 6124,
      "kiên": 6125,
      "riết": 6126,
      "sập": 6127,
      "ghép": 6128,
      "giãn": 6129,
      "club": 6130,
      "en": 6131,
      "not": 6132,
      "mềnh": 6133,
      "##lan": 6134,
      "lạt": 6135,
      "type": 6136,
      "700": 6137,
      "quạt": 6138,
      "bão": 6139,
      "lồng": 6140,
      "##zon": 6141,
      "ngó": 6142,
      "hưng": 6143,
      "múa": 6144,
      "vir": 6145,
      "trại": 6146,
      "trễ": 6147,
      "dập": 6148,
      "giùm": 6149,
      "huế": 6150,
      "kb": 6151,
      "hiếp": 6152,
      "xé": 6153,
      "lắng": 6154,
      "ngõ": 6155,
      "arg": 6156,
      "ama": 6157,
      "nhẽ": 6158,
      "admin": 6159,
      "vời": 6160,
      "tph": 6161,
      "case": 6162,
      "32": 6163,
      "gắt": 6164,
      "ski": 6165,
      "##ance": 6166,
      "cúng": 6167,
      "lắc": 6168,
      "f1": 6169,
      "stress": 6170,
      "##po": 6171,
      "##ano": 6172,
      "usd": 6173,
      "bọc": 6174,
      "hê": 6175,
      "chậu": 6176,
      "red": 6177,
      "hang": 6178,
      "tru": 6179,
      "giảng": 6180,
      "##so": 6181,
      "intern": 6182,
      "mỏ": 6183,
      "pt": 6184,
      "tphcm": 6185,
      "2v": 6186,
      "5k": 6187,
      "dũng": 6188,
      "##cu": 6189,
      "12h": 6190,
      "gập": 6191,
      "lùa": 6192,
      "trinh": 6193,
      "tuấn": 6194,
      "hiếu": 6195,
      "nháy": 6196,
      "zai": 6197,
      "đớn": 6198,
      "list": 6199,
      "cuốc": 6200,
      "mobi": 6201,
      "bồi": 6202,
      "lề": 6203,
      "job": 6204,
      "dãi": 6205,
      "m2": 6206,
      "vtv": 6207,
      "vẹn": 6208,
      "head": 6209,
      "ky": 6210,
      "nhể": 6211,
      "lẹ": 6212,
      "mat": 6213,
      "râu": 6214,
      "nhẫn": 6215,
      "rén": 6216,
      "##ko": 6217,
      "quỷ": 6218,
      "lệnh": 6219,
      "đb": 6220,
      "confi": 6221,
      "##ựng": 6222,
      "gr": 6223,
      "yến": 6224,
      "nhược": 6225,
      "##ỏn": 6226,
      "thấm": 6227,
      "khắm": 6228,
      "khuya": 6229,
      "ngón": 6230,
      "trúc": 6231,
      "ram": 6232,
      "down": 6233,
      "quỳ": 6234,
      "camera": 6235,
      "c2": 6236,
      "rẽ": 6237,
      "##ci": 6238,
      "khẳng": 6239,
      "phuộc": 6240,
      "cức": 6241,
      "mem": 6242,
      "chùa": 6243,
      "moá": 6244,
      "trích": 6245,
      "xiao": 6246,
      "##fen": 6247,
      "trưng": 6248,
      "mài": 6249,
      "khói": 6250,
      "mốc": 6251,
      "vinh": 6252,
      "##nt": 6253,
      "build": 6254,
      "sỹ": 6255,
      "nhóc": 6256,
      "giề": 6257,
      "bom": 6258,
      "wave": 6259,
      "bẻ": 6260,
      "cp": 6261,
      "cúm": 6262,
      "han": 6263,
      "vững": 6264,
      "chợt": 6265,
      "xám": 6266,
      "đai": 6267,
      "”.": 6268,
      "đinh": 6269,
      "easy": 6270,
      "rễ": 6271,
      "lươn": 6272,
      "rắn": 6273,
      "tour": 6274,
      "amazon": 6275,
      "bon": 6276,
      "thô": 6277,
      "xưởng": 6278,
      "quăng": 6279,
      "ars": 6280,
      "laptop": 6281,
      "50km": 6282,
      "cất": 6283,
      "##ater": 6284,
      "##atar": 6285,
      "##sion": 6286,
      "bai": 6287,
      "rụng": 6288,
      "bỗng": 6289,
      "rỗng": 6290,
      "ver": 6291,
      "quyển": 6292,
      "bội": 6293,
      "wow": 6294,
      "dả": 6295,
      "##cel": 6296,
      "ngớ": 6297,
      "##ood": 6298,
      "run": 6299,
      "tống": 6300,
      "thụt": 6301,
      "cross": 6302,
      "bhxh": 6303,
      "''": 6304,
      "khoát": 6305,
      "ngột": 6306,
      "##----": 6307,
      "95": 6308,
      "bạt": 6309,
      "xôi": 6310,
      "hụt": 6311,
      "rạp": 6312,
      "hiển": 6313,
      "cre": 6314,
      "tê": 6315,
      "dã": 6316,
      "chuông": 6317,
      "mp": 6318,
      "2000": 6319,
      "cồn": 6320,
      "ân": 6321,
      "120": 6322,
      "nguyện": 6323,
      "jack": 6324,
      "phụng": 6325,
      "league": 6326,
      "film": 6327,
      "luộc": 6328,
      "black": 6329,
      "bạo": 6330,
      "triều": 6331,
      "ngửi": 6332,
      "cóc": 6333,
      "nhát": 6334,
      "mou": 6335,
      "vuông": 6336,
      "add": 6337,
      "hông": 6338,
      "sx": 6339,
      "đòn": 6340,
      "nhờn": 6341,
      "loay": 6342,
      "rưởi": 6343,
      "maz": 6344,
      "cửng": 6345,
      "cơn": 6346,
      "tỏa": 6347,
      "try": 6348,
      "shit": 6349,
      "##back": 6350,
      "đùng": 6351,
      "nhai": 6352,
      "hoay": 6353,
      "bái": 6354,
      "as": 6355,
      "mt": 6356,
      "ngăn": 6357,
      "dẫm": 6358,
      "nhợn": 6359,
      "mưu": 6360,
      "liver": 6361,
      "##h30": 6362,
      "pk": 6363,
      "##gar": 6364,
      "hẻm": 6365,
      "tràn": 6366,
      "trộn": 6367,
      "nhìu": 6368,
      "bk": 6369,
      "bến": 6370,
      "call": 6371,
      "mer": 6372,
      "toi": 6373,
      "baby": 6374,
      "data": 6375,
      "##ona": 6376,
      "bạ": 6377,
      "mác": 6378,
      "trữ": 6379,
      "kiu": 6380,
      "mơn": 6381,
      "chín": 6382,
      "skill": 6383,
      "vở": 6384,
      "nhịp": 6385,
      "tivi": 6386,
      "dội": 6387,
      "epl": 6388,
      "rộn": 6389,
      "chà": 6390,
      "giáp": 6391,
      "press": 6392,
      "cự": 6393,
      "##aha": 6394,
      "tbn": 6395,
      "mazda": 6396,
      "đực": 6397,
      "thề": 6398,
      "via": 6399,
      "##ation": 6400,
      "confirm": 6401,
      "lag": 6402,
      "lặn": 6403,
      "tc": 6404,
      "train": 6405,
      "nhượng": 6406,
      "tá": 6407,
      "##mit": 6408,
      "lòn": 6409,
      "chủng": 6410,
      "dọc": 6411,
      "vib": 6412,
      "199": 6413,
      "##tvoz": 6414,
      "##ins": 6415,
      "vt": 6416,
      "phét": 6417,
      "khớp": 6418,
      "lấn": 6419,
      "lơ": 6420,
      "ot": 6421,
      "30p": 6422,
      "haizz": 6423,
      "khuôn": 6424,
      "350": 6425,
      "##ress": 6426,
      "##ýt": 6427,
      "info": 6428,
      "cương": 6429,
      "sảng": 6430,
      "slot": 6431,
      "abs": 6432,
      "lãng": 6433,
      "phủi": 6434,
      "vạ": 6435,
      "##80": 6436,
      "##23": 6437,
      "hel": 6438,
      "ủn": 6439,
      "##ero": 6440,
      "gội": 6441,
      "ới": 6442,
      "thách": 6443,
      "sams": 6444,
      "##aka": 6445,
      "##mar": 6446,
      "ngầm": 6447,
      "lạy": 6448,
      "mét": 6449,
      "war": 6450,
      "cong": 6451,
      "lộc": 6452,
      "lóc": 6453,
      "phũ": 6454,
      "4tr": 6455,
      "đắp": 6456,
      "same": 6457,
      "dd": 6458,
      "ốp": 6459,
      "mởn": 6460,
      "lặng": 6461,
      "hú": 6462,
      "vải": 6463,
      "nuối": 6464,
      "mb": 6465,
      "mạn": 6466,
      "##eta": 6467,
      "##iii": 6468,
      "fo": 6469,
      "dê": 6470,
      "lum": 6471,
      "##uno": 6472,
      "order": 6473,
      "què": 6474,
      "dạn": 6475,
      "sỉ": 6476,
      "tùm": 6477,
      "if": 6478,
      "cmnd": 6479,
      "đục": 6480,
      "mac": 6481,
      "55": 6482,
      "##óp": 6483,
      "bách": 6484,
      "bề": 6485,
      "50tr": 6486,
      "##con": 6487,
      "thép": 6488,
      "day": 6489,
      "vặn": 6490,
      "air": 6491,
      "2017": 6492,
      "chen": 6493,
      "mits": 6494,
      "keo": 6495,
      "##ator": 6496,
      "74": 6497,
      "rực": 6498,
      "phan": 6499,
      "ve": 6500,
      "loạt": 6501,
      "contact": 6502,
      "phà": 6503,
      "bì": 6504,
      "samsung": 6505,
      "ll": 6506,
      "lởm": 6507,
      "khú": 6508,
      "80km": 6509,
      "key": 6510,
      "hệt": 6511,
      "vỉa": 6512,
      "nuốt": 6513,
      "rãnh": 6514,
      "lc": 6515,
      "vĩ": 6516,
      "ngũ": 6517,
      "##ink": 6518,
      "hí": 6519,
      "hán": 6520,
      "per": 6521,
      "hope": 6522,
      "##ops": 6523,
      "31": 6524,
      "internet": 6525,
      "sw": 6526,
      "market": 6527,
      "hsbc": 6528,
      "fame": 6529,
      "hét": 6530,
      "mỳ": 6531,
      "viễn": 6532,
      "##shi": 6533,
      "##gain": 6534,
      "rổ": 6535,
      "ghim": 6536,
      "##tyle": 6537,
      "again": 6538,
      "cd": 6539,
      "ass": 6540,
      "end": 6541,
      "móng": 6542,
      "ong": 6543,
      "muôn": 6544,
      "ele": 6545,
      "##ie": 6546,
      "##arm": 6547,
      "ngạo": 6548,
      "ngót": 6549,
      "đẽo": 6550,
      "##ric": 6551,
      "dad": 6552,
      "ưa": 6553,
      "điền": 6554,
      "lể": 6555,
      "nhặt": 6556,
      "sầu": 6557,
      "khốn": 6558,
      "xẻ": 6559,
      "##ui": 6560,
      "ngoãn": 6561,
      "thuyền": 6562,
      "es": 6563,
      "lượn": 6564,
      "dell": 6565,
      "##dan": 6566,
      "chứa": 6567,
      "cối": 6568,
      "clo": 6569,
      "ráp": 6570,
      "ven": 6571,
      "cas": 6572,
      "tăm": 6573,
      "khấu": 6574,
      "##iệc": 6575,
      "buông": 6576,
      "30tr": 6577,
      "def": 6578,
      "kẹo": 6579,
      "trơn": 6580,
      "cug": 6581,
      "2010": 6582,
      "uni": 6583,
      "ts": 6584,
      "shipper": 6585,
      "đắn": 6586,
      "##ễu": 6587,
      "chanh": 6588,
      "voi": 6589,
      "125": 6590,
      "đệm": 6591,
      "gào": 6592,
      "1m7": 6593,
      "space": 6594,
      "ròng": 6595,
      "##vic": 6596,
      "##ist": 6597,
      "then": 6598,
      "nghịch": 6599,
      "sùng": 6600,
      "##ým": 6601,
      "cớ": 6602,
      "hung": 6603,
      "xam": 6604,
      "ướt": 6605,
      "nhức": 6606,
      "ngẩn": 6607,
      "cap": 6608,
      "bayern": 6609,
      "thốn": 6610,
      "virus": 6611,
      "rậm": 6612,
      "hẹp": 6613,
      "mẻ": 6614,
      "kar": 6615,
      "par": 6616,
      "rỡ": 6617,
      "##cy": 6618,
      "##rd": 6619,
      "thým": 6620,
      "ngửa": 6621,
      "have": 6622,
      "nhái": 6623,
      "ngơi": 6624,
      "supp": 6625,
      "dis": 6626,
      "nhẹn": 6627,
      "mini": 6628,
      "##99": 6629,
      "smart": 6630,
      "bự": 6631,
      "tấu": 6632,
      "##nam": 6633,
      "chát": 6634,
      "lọt": 6635,
      "pu": 6636,
      "rạc": 6637,
      "vinf": 6638,
      "thước": 6639,
      "##ino": 6640,
      "vouch": 6641,
      "bưng": 6642,
      "ign": 6643,
      "mửa": 6644,
      "atm": 6645,
      "voucher": 6646,
      "đố": 6647,
      "rũ": 6648,
      "##11": 6649,
      "one": 6650,
      "dè": 6651,
      "##60": 6652,
      "mike": 6653,
      "##sea": 6654,
      "ada": 6655,
      "ranh": 6656,
      "ruộng": 6657,
      "đùn": 6658,
      "logo": 6659,
      "##let": 6660,
      "sel": 6661,
      "xô": 6662,
      "##ous": 6663,
      "lõi": 6664,
      "rể": 6665,
      "thừng": 6666,
      "nhãn": 6667,
      "hoảng": 6668,
      "momo": 6669,
      "dt": 6670,
      "mẩu": 6671,
      "mass": 6672,
      "nạt": 6673,
      "rườm": 6674,
      "vẩu": 6675,
      "##ợm": 6676,
      "sugar": 6677,
      "còm": 6678,
      "##gt": 6679,
      "giây": 6680,
      "toà": 6681,
      "bat": 6682,
      "note": 6683,
      "n2": 6684,
      "##our": 6685,
      "ob": 6686,
      "play": 6687,
      "world": 6688,
      "đáo": 6689,
      "vong": 6690,
      "daddy": 6691,
      "xá": 6692,
      "hihi": 6693,
      "##ool": 6694,
      "33": 6695,
      "sừng": 6696,
      "nhỡ": 6697,
      "by": 6698,
      "iu": 6699,
      "rao": 6700,
      "sgm": 6701,
      "exp": 6702,
      "bet": 6703,
      "ka": 6704,
      "rãi": 6705,
      "bruno": 6706,
      "lột": 6707,
      "sót": 6708,
      "tần": 6709,
      "##ior": 6710,
      "##ía": 6711,
      "khoán": 6712,
      "dược": 6713,
      "thầm": 6714,
      "giời": 6715,
      "stick": 6716,
      "edit": 6717,
      "##íu": 6718,
      "phông": 6719,
      "giò": 6720,
      "ignore": 6721,
      "kt": 6722,
      "khiếu": 6723,
      "beer": 6724,
      "nở": 6725,
      "que": 6726,
      "huỷ": 6727,
      "vã": 6728,
      "thập": 6729,
      "nập": 6730,
      "tuyền": 6731,
      "cx5": 6732,
      "1h": 6733,
      "tát": 6734,
      "tăn": 6735,
      "lui": 6736,
      "##out": 6737,
      "##extvoz": 6738,
      "xiaomi": 6739,
      "gò": 6740,
      "hâm": 6741,
      "vẹo": 6742,
      "ủi": 6743,
      "chelsea": 6744,
      "ml": 6745,
      "20t": 6746,
      "map": 6747,
      "dn": 6748,
      "dinh": 6749,
      "thenextvoz": 6750,
      "##qua": 6751,
      "care": 6752,
      "f33": 6753,
      "tre": 6754,
      "tier": 6755,
      "bổng": 6756,
      "cđ": 6757,
      "vắt": 6758,
      "master": 6759,
      "mon": 6760,
      "nồng": 6761,
      "chìm": 6762,
      "kiều": 6763,
      "ngoặt": 6764,
      "giam": 6765,
      "còi": 6766,
      "pay": 6767,
      "rạn": 6768,
      "khoan": 6769,
      "điệu": 6770,
      "thôn": 6771,
      "rồ": 6772,
      "##ction": 6773,
      "myan": 6774,
      "report": 6775,
      "phập": 6776,
      "ez": 6777,
      "liếm": 6778,
      "nôn": 6779,
      "ếch": 6780,
      "pho": 6781,
      "phổi": 6782,
      "##inu": 6783,
      "chit": 6784,
      "##esh": 6785,
      "el": 6786,
      "des": 6787,
      "dh": 6788,
      "oan": 6789,
      "tiệc": 6790,
      "phơi": 6791,
      "nghễ": 6792,
      "oops": 6793,
      "thiệp": 6794,
      "chiết": 6795,
      "nuôn": 6796,
      "sếch": 6797,
      "bec": 6798,
      "vinfast": 6799,
      "qúa": 6800,
      "##ath": 6801,
      "rea": 6802,
      "style": 6803,
      "65": 6804,
      "rào": 6805,
      "trương": 6806,
      "abc": 6807,
      "myanmar": 6808,
      "tơ": 6809,
      "đếu": 6810,
      "high": 6811,
      "chuỗi": 6812,
      "##rid": 6813,
      "rùa": 6814,
      "xay": 6815,
      "ag": 6816,
      "hỷ": 6817,
      "chừa": 6818,
      "8h": 6819,
      "mal": 6820,
      "ali": 6821,
      "khích": 6822,
      "dặn": 6823,
      "tem": 6824,
      "solo": 6825,
      "sport": 6826,
      "boo": 6827,
      "eng": 6828,
      "đựng": 6829,
      "##zil": 6830,
      "##ause": 6831,
      "super": 6832,
      "rượi": 6833,
      "sy": 6834,
      "đảng": 6835,
      "hái": 6836,
      "rai": 6837,
      "fix": 6838,
      "trân": 6839,
      "farm": 6840,
      "xề": 6841,
      "trội": 6842,
      "##play": 6843,
      "avatar": 6844,
      "cởi": 6845,
      "##tis": 6846,
      "led": 6847,
      "title": 6848,
      "6tr": 6849,
      "bỡn": 6850,
      "ir": 6851,
      "sôi": 6852,
      "sườn": 6853,
      "##ếm": 6854,
      "kai": 6855,
      "##ộp": 6856,
      "10h": 6857,
      "ns": 6858,
      "nai": 6859,
      "15tr": 6860,
      "gre": 6861,
      "mĩ": 6862,
      "đắng": 6863,
      "ối": 6864,
      "38": 6865,
      "gv": 6866,
      "chưởng": 6867,
      "checker": 6868,
      "ksao": 6869,
      "##ẹc": 6870,
      "10km": 6871,
      "c3": 6872,
      "##18": 6873,
      "tks": 6874,
      "3h": 6875,
      "gợn": 6876,
      "hic": 6877,
      "nứng": 6878,
      "##ger": 6879,
      "##xy": 6880,
      "trọc": 6881,
      "##ely": 6882,
      "129": 6883,
      "pog": 6884,
      "2h": 6885,
      "dì": 6886,
      "bân": 6887,
      "lẹo": 6888,
      "rèn": 6889,
      "tl": 6890,
      "châm": 6891,
      "tuôn": 6892,
      "##ppe": 6893,
      "support": 6894,
      "lơi": 6895,
      "##yt": 6896,
      "quẩy": 6897,
      "##che": 6898,
      "5h": 6899,
      "base": 6900,
      "##bit": 6901,
      "class": 6902,
      "nhấn": 6903,
      "bit": 6904,
      "hạch": 6905,
      "pm": 6906,
      "tok": 6907,
      "pressing": 6908,
      "nóc": 6909,
      "mp3": 6910,
      "##uru": 6911,
      "zái": 6912,
      "ào": 6913,
      "vip": 6914,
      "lược": 6915,
      "phun": 6916,
      "don": 6917,
      "gl": 6918,
      "kkk": 6919,
      "lẫm": 6920,
      "reo": 6921,
      "rym": 6922,
      "yo": 6923,
      "##pan": 6924,
      "trục": 6925,
      "shot": 6926,
      "lẽo": 6927,
      "tọe": 6928,
      "tom": 6929,
      "3k": 6930,
      "ngầu": 6931,
      "har": 6932,
      "ngô": 6933,
      "king": 6934,
      "lũy": 6935,
      "400k": 6936,
      "fol": 6937,
      "mút": 6938,
      "ngậm": 6939,
      "change": 6940,
      "lấc": 6941,
      "mg": 6942,
      "xòa": 6943,
      "thác": 6944,
      "gồng": 6945,
      "x3": 6946,
      "##ap": 6947,
      "vit": 6948,
      "lesor": 6949,
      "marketing": 6950,
      "cẩu": 6951,
      "mic": 6952,
      "chìa": 6953,
      "cụt": 6954,
      "ngưỡng": 6955,
      "cấc": 6956,
      "qủa": 6957,
      "##hu": 6958,
      "##90": 6959,
      "))))": 6960,
      "bừa": 6961,
      "nắp": 6962,
      "tèo": 6963,
      "xxx": 6964,
      "##ặm": 6965,
      "hói": 6966,
      "mợ": 6967,
      "nhồi": 6968,
      "##int": 6969,
      "##ind": 6970,
      "level": 6971,
      "fir": 6972,
      "freud": 6973,
      "96": 6974,
      "##bat": 6975,
      "##tro": 6976,
      "cash": 6977,
      "8tr": 6978,
      "tảng": 6979,
      "##15": 6980,
      "##lic": 6981,
      "biden": 6982,
      "bút": 6983,
      "kiệt": 6984,
      "sứ": 6985,
      "vòi": 6986,
      "##app": 6987,
      "##ker": 6988,
      "##ơng": 6989,
      "phang": 6990,
      "fad": 6991,
      "đan": 6992,
      "##ún": 6993,
      "into": 6994,
      "bới": 6995,
      "pp": 6996,
      "lik": 6997,
      "myfen": 6998,
      "still": 6999,
      "gác": 7000,
      "##lex": 7001,
      "because": 7002,
      "ls": 7003,
      "xót": 7004,
      "đớp": 7005,
      "triết": 7006,
      "server": 7007,
      "submit": 7008,
      "adachi": 7009,
      "ghềnh": 7010,
      "##iiii": 7011,
      "mitsuru": 7012,
      "cưng": 7013,
      "##ments": 7014,
      "##istr": 7015,
      "xamer": 7016,
      "##ươn": 7017,
      "thự": 7018,
      "chồ": 7019,
      "teo": 7020,
      "##yy": 7021,
      "##ling": 7022,
      "huấn": 7023,
      "ol": 7024,
      "vuốt": 7025,
      "dằm": 7026,
      "ed": 7027,
      "later": 7028,
      "##iềng": 7029,
      "stream": 7030,
      "over": 7031,
      "2vk": 7032,
      "lay": 7033,
      "##ul": 7034,
      "##ant": 7035,
      "cáu": 7036,
      "bã": 7037,
      "wh": 7038,
      "##land": 7039,
      "sợi": 7040,
      "hỏn": 7041,
      "móa": 7042,
      "##ure": 7043,
      "phẳng": 7044,
      "##cho": 7045,
      "dồi": 7046,
      "hãi": 7047,
      "nhí": 7048,
      "sakh": 7049,
      "##anay": 7050,
      "mắcc": 7051,
      "llĩnh": 7052,
      "ron": 7053,
      "##je": 7054,
      "kyu": 7055,
      "ddt": 7056,
      "gar": 7057,
      "húc": 7058,
      "sakhanay": 7059,
      "that": 7060,
      "administr": 7061,
      "sương": 7062,
      "tàng": 7063,
      "vấp": 7064,
      "##cs": 7065,
      "##ice": 7066,
      "cạn": 7067,
      "nan": 7068,
      "ngự": 7069,
      "t7": 7070,
      "##bv": 7071,
      "##ropri": 7072,
      "elements": 7073,
      "administrator": 7074,
      "//": 7075,
      "##ũa": 7076,
      "contains": 7077,
      "##................................": 7078,
      "##ropriate": 7079,
      "tè": 7080,
      "thuỷ": 7081,
      "ddag": 7082,
      "likely": 7083,
      "continu": 7084,
      "osin": 7085,
      "submitted": 7086,
      "continuous": 7087,
      "bồn": 7088,
      "lm": 7089,
      "##atch": 7090,
      "inapp": 7091,
      "brazil": 7092,
      "fadil": 7093,
      "inappropriate": 7094,
      "mịn": 7095,
      "##ịnh": 7096,
      "ơiiii": 7097,
      "db": 7098,
      "##ton": 7099,
      "lụm": 7100,
      "lz": 7101,
      "oải": 7102,
      "x7": 7103,
      "##ja": 7104,
      "khùng": 7105,
      "##lla": 7106,
      "4k": 7107,
      "##wer": 7108,
      "dẻ": 7109,
      "ngừng": 7110,
      "34": 7111,
      "b2": 7112,
      "mẹc": 7113,
      "2008": 7114,
      "##rl": 7115,
      "##uki": 7116,
      "điếu": 7117,
      "...)": 7118,
      "chuồng": 7119,
      "gam": 7120,
      "loan": 7121,
      "4x": 7122,
      "ul": 7123,
      "yam": 7124,
      "##ku": 7125,
      "150k": 7126,
      "xước": 7127,
      "1m6": 7128,
      "đắc": 7129,
      "wifi": 7130,
      "xéc": 7131,
      "xd": 7132,
      "đao": 7133,
      "nhe": 7134,
      "cảng": 7135,
      "lỏng": 7136,
      "nâu": 7137,
      "đe": 7138,
      "khâu": 7139,
      "khánh": 7140,
      "^^": 7141,
      "zế": 7142,
      "##shop": 7143,
      "7tr": 7144,
      "vơ": 7145,
      "độn": 7146,
      "đúc": 7147,
      "##ni": 7148,
      "##mb": 7149,
      "##ans": 7150,
      "cạc": 7151,
      "hq": 7152,
      "ten": 7153,
      "##gon": 7154,
      "40k": 7155,
      "##amin": 7156,
      "7h": 7157,
      "250": 7158,
      "aura": 7159,
      "##oc": 7160,
      "##iti": 7161,
      "##pay": 7162,
      "ngẫm": 7163,
      "37": 7164,
      "ever": 7165,
      "vision": 7166,
      "##vn": 7167,
      "nhằng": 7168,
      "luân": 7169,
      "lầu": 7170,
      "lẩu": 7171,
      "mé": 7172,
      "vv": 7173,
      "lock": 7174,
      "tes": 7175,
      "phẫu": 7176,
      "sl": 7177,
      "khe": 7178,
      "##ini": 7179,
      "xỉu": 7180,
      "bùi": 7181,
      "tm": 7182,
      "##aw": 7183,
      "##ỳnh": 7184,
      "đoạt": 7185,
      "nghiêng": 7186,
      "bee": 7187,
      "combat": 7188,
      "iel": 7189,
      "nêu": 7190,
      "pô": 7191,
      "khát": 7192,
      "****": 7193,
      "lõ": 7194,
      "##tos": 7195,
      "mồi": 7196,
      "cos": 7197,
      "##ream": 7198,
      "qc": 7199,
      "remo": 7200,
      "vũng": 7201,
      "store": 7202,
      "dúi": 7203,
      "hoạ": 7204,
      "đờ": 7205,
      "##ed": 7206,
      "onl": 7207,
      "!!": 7208,
      "qq": 7209,
      "gs": 7210,
      "pub": 7211,
      "nhôm": 7212,
      "anime": 7213,
      "offer": 7214,
      "lấp": 7215,
      "pan": 7216,
      "##88": 7217,
      "bảy": 7218,
      "xoắn": 7219,
      "mv": 7220,
      "thạch": 7221,
      "siết": 7222,
      "tịt": 7223,
      "thưa": 7224,
      "phượng": 7225,
      "##bie": 7226,
      "fail": 7227,
      "phất": 7228,
      "##!!!!": 7229,
      "bối": 7230,
      "cùn": 7231,
      "##fli": 7232,
      "ielts": 7233,
      "nàng": 7234,
      "roài": 7235,
      "bhyt": 7236,
      "bmw": 7237,
      "h1": 7238,
      "##70": 7239,
      "trăng": 7240,
      "khoáng": 7241,
      "ipad": 7242,
      "##combank": 7243,
      "td": 7244,
      "búa": 7245,
      "lằng": 7246,
      "vít": 7247,
      "đơ": 7248,
      "##cer": 7249,
      "200tr": 7250,
      "cntt": 7251,
      "gạt": 7252,
      "ương": 7253,
      "see": 7254,
      "đầm": 7255,
      "##tb": 7256,
      "nhã": 7257,
      "phước": 7258,
      "chinh": 7259,
      "tool": 7260,
      "lord": 7261,
      "manga": 7262,
      "gato": 7263,
      "mộc": 7264,
      "dri": 7265,
      "sir": 7266,
      "prote": 7267,
      "2m": 7268,
      "ql": 7269,
      "đàm": 7270,
      "bong": 7271,
      "qh": 7272,
      "háng": 7273,
      "????": 7274,
      "gián": 7275,
      "15k": 7276,
      "9h": 7277,
      "ngưng": 7278,
      "quẩn": 7279,
      "điểu": 7280,
      "sam": 7281,
      "600k": 7282,
      "lù": 7283,
      "lìn": 7284,
      "click": 7285,
      "first": 7286,
      "mắng": 7287,
      "thóc": 7288,
      "shinh": 7289,
      "##dio": 7290,
      "h2": 7291,
      "tang": 7292,
      "##rt": 7293,
      "##ama": 7294,
      "bill": 7295,
      "lén": 7296,
      "cr7": 7297,
      "thắt": 7298,
      "bịp": 7299,
      "shinhan": 7300,
      "##22": 7301,
      "thúi": 7302,
      "star": 7303,
      "98": 7304,
      "mad": 7305,
      "##ửng": 7306,
      "f17": 7307,
      "bri": 7308,
      "dừa": 7309,
      "hk": 7310,
      "nấm": 7311,
      "##ji": 7312,
      "##ico": 7313,
      "03": 7314,
      "ge": 7315,
      "măng": 7316,
      "rót": 7317,
      "sấu": 7318,
      "##inho": 7319,
      "remote": 7320,
      "whe": 7321,
      "photo": 7322,
      "tag": 7323,
      "30t": 7324,
      "camry": 7325,
      "hẵng": 7326,
      "đồi": 7327,
      "chym": 7328,
      "accent": 7329,
      "sđt": 7330,
      "văng": 7331,
      "uhm": 7332,
      "pogba": 7333,
      "##lu": 7334,
      "09": 7335,
      "cước": 7336,
      "kd": 7337,
      "##19": 7338,
      "##óe": 7339,
      "jav": 7340,
      ".\"": 7341,
      "ua": 7342,
      "##for": 7343,
      "nguội": 7344,
      "sedan": 7345,
      "hag": 7346,
      "rát": 7347,
      "vỗ": 7348,
      "chép": 7349,
      "1m8": 7350,
      "túy": 7351,
      "hỏa": 7352,
      "##lop": 7353,
      "ford": 7354,
      "brand": 7355,
      "dem": 7356,
      "lè": 7357,
      "2011": 7358,
      "fifa": 7359,
      "##ach": 7360,
      "quầy": 7361,
      "musk": 7362,
      "u23": 7363,
      "val": 7364,
      "dream": 7365,
      "bịch": 7366,
      "tuệ": 7367,
      "stk": 7368,
      "hc": 7369,
      "##ua": 7370,
      "thuẫn": 7371,
      "mâu": 7372,
      "rs": 7373,
      "chèn": 7374,
      "thoả": 7375,
      "miết": 7376,
      "lêu": 7377,
      "mr": 7378,
      "##hh": 7379,
      "chéo": 7380,
      "giãy": 7381,
      "85": 7382,
      "huỳnh": 7383,
      "##oooo": 7384,
      "forum": 7385,
      "60k": 7386,
      "900": 7387,
      "gai": 7388,
      "mall": 7389,
      "##boy": 7390,
      "btc": 7391,
      "kẹp": 7392,
      "sụp": 7393,
      "##cal": 7394,
      "##flix": 7395,
      "##no": 7396,
      "##fc": 7397,
      "##ani": 7398,
      "muỗi": 7399,
      "thịnh": 7400,
      "mạc": 7401,
      "##pic": 7402,
      "ngây": 7403,
      "trẩu": 7404,
      "quỵ": 7405,
      "nón": 7406,
      "kiêng": 7407,
      "ht": 7408,
      "vươn": 7409,
      "đcm": 7410,
      "m3": 7411,
      "đũa": 7412,
      "dead": 7413,
      "dk": 7414,
      "mùng": 7415,
      "mọe": 7416,
      "nảy": 7417,
      "##ork": 7418,
      "bot": 7419,
      "plus": 7420,
      "die": 7421,
      "4g": 7422,
      "tẹt": 7423,
      "hốc": 7424,
      "--": 7425,
      "sấp": 7426,
      "close": 7427,
      "niềng": 7428,
      "##ếng": 7429,
      "tip": 7430,
      "ghen": 7431,
      "bấy": 7432,
      "cạch": 7433,
      "##ala": 7434,
      "spo": 7435,
      "senior": 7436,
      "massage": 7437,
      "3m": 7438,
      "uk": 7439,
      "##ley": 7440,
      "nhiu": 7441,
      "túm": 7442,
      "##34": 7443,
      "đổng": 7444,
      "vacc": 7445,
      "97": 7446,
      "cer": 7447,
      "##__": 7448,
      "vpbank": 7449,
      "tóp": 7450,
      "god": 7451,
      "táng": 7452,
      "nhẽo": 7453,
      "quát": 7454,
      "##zza": 7455,
      "thụy": 7456,
      "kk": 7457,
      "ói": 7458,
      "##du": 7459,
      "##lit": 7460,
      "dâng": 7461,
      "##ota": 7462,
      "15p": 7463,
      "42": 7464,
      "bít": 7465,
      "đính": 7466,
      "điêu": 7467,
      "tuc": 7468,
      "##bot": 7469,
      "bư": 7470,
      "sor": 7471,
      "##ori": 7472,
      "thủng": 7473,
      "juve": 7474,
      "yamaha": 7475,
      "nách": 7476,
      "rình": 7477,
      "sấy": 7478,
      "vina": 7479,
      "dĩa": 7480,
      "mk": 7481,
      "hoại": 7482,
      "tựa": 7483,
      "huhu": 7484,
      "vietnam": 7485,
      "tesla": 7486,
      "cộ": 7487,
      "4h": 7488,
      "nhè": 7489,
      "netflix": 7490,
      "dối": 7491,
      "eo": 7492,
      "kan": 7493,
      "beat": 7494,
      "bưu": 7495,
      "nại": 7496,
      "xâm": 7497,
      "aff": 7498,
      "chải": 7499,
      "tur": 7500,
      "##trol": 7501,
      "mả": 7502,
      "##vo": 7503,
      "##aaaa": 7504,
      "dãy": 7505,
      "##cb": 7506,
      "trật": 7507,
      "liễu": 7508,
      "civic": 7509,
      "blv": 7510,
      "cọ": 7511,
      "je": 7512,
      "oh": 7513,
      "vozfa": 7514,
      "hnay": 7515,
      "blah": 7516,
      "hòm": 7517,
      "dìm": 7518,
      "thây": 7519,
      "chan": 7520,
      "giếng": 7521,
      "cover": 7522,
      "nike": 7523,
      "follow": 7524,
      "ceo": 7525,
      "gắp": 7526,
      "q1": 7527,
      "##eu": 7528,
      "thọt": 7529,
      "giáng": 7530,
      "rod": 7531,
      "nhằm": 7532,
      "##ory": 7533,
      "ads": 7534,
      "##dia": 7535,
      "whey": 7536,
      "vozfapp": 7537,
      "?!": 7538,
      "5m": 7539,
      "##ler": 7540,
      "pot": 7541,
      "?\"": 7542,
      "dv": 7543,
      "qr": 7544,
      "tau": 7545,
      "câm": 7546,
      "nỉ": 7547,
      "tím": 7548,
      "sun": 7549,
      "bựa": 7550,
      "xk": 7551,
      "##mart": 7552,
      "##na": 7553,
      "##sta": 7554,
      "láng": 7555,
      "ván": 7556,
      "ủy": 7557,
      "chánh": 7558,
      "pizza": 7559,
      "gara": 7560,
      "kane": 7561,
      "đạc": 7562,
      "ớn": 7563,
      "49": 7564,
      "93": 7565,
      "mạo": 7566,
      "ue": 7567,
      "##za": 7568,
      "##lon": 7569,
      "rock": 7570,
      "bói": 7571,
      "seeder": 7572,
      "lân": 7573,
      "##zer": 7574,
      "mode": 7575,
      "premi": 7576,
      "cựu": 7577,
      "ui": 7578,
      "nhện": 7579,
      "single": 7580,
      "malay": 7581,
      "##ject": 7582,
      "sét": 7583,
      "chọt": 7584,
      "dời": 7585,
      "hước": 7586,
      "ẩu": 7587,
      "##eep": 7588,
      "800k": 7589,
      "part": 7590,
      "vốt": 7591,
      "tgdd": 7592,
      "gas": 7593,
      "kp": 7594,
      "lim": 7595,
      "khoang": 7596,
      "tiễn": 7597,
      "mie": 7598,
      "##riend": 7599,
      "fred": 7600,
      "bẫy": 7601,
      "hong": 7602,
      "##get": 7603,
      "ngắt": 7604,
      "vcđ": 7605,
      "##ccc": 7606,
      "xẻng": 7607,
      "hen": 7608,
      "tặc": 7609,
      "ya": 7610,
      "##enal": 7611,
      "hoành": 7612,
      "40tr": 7613,
      "fai": 7614,
      "hỗn": 7615,
      "bdbc": 7616,
      "desi": 7617,
      "asi": 7618,
      "hqua": 7619,
      "lố": 7620,
      "chày": 7621,
      "vê": 7622,
      "##press": 7623,
      "siêng": 7624,
      "##uuuu": 7625,
      "pas": 7626,
      "##ụy": 7627,
      "bùn": 7628,
      "ráo": 7629,
      "vớt": 7630,
      "loãng": 7631,
      "niêm": 7632,
      "sms": 7633,
      "qbv": 7634,
      "ròi": 7635,
      "nhúng": 7636,
      "##room": 7637,
      "##oom": 7638,
      "160": 7639,
      "fin": 7640,
      "ton": 7641,
      "##rom": 7642,
      "##ith": 7643,
      "teen": 7644,
      "credit": 7645,
      "doạ": 7646,
      "xl7": 7647,
      "khống": 7648,
      "quậy": 7649,
      "##tream": 7650,
      "nhẹt": 7651,
      "toyota": 7652,
      "aka": 7653,
      "mè": 7654,
      "oai": 7655,
      "##su": 7656,
      "2009": 7657,
      "fap": 7658,
      "offline": 7659,
      "ronal": 7660,
      "kẹc": 7661,
      "lanh": 7662,
      "trym": 7663,
      "boss": 7664,
      "300tr": 7665,
      "citi": 7666,
      "len": 7667,
      "por": 7668,
      "đì": 7669,
      "##zo": 7670,
      "##ei": 7671,
      "khuyết": 7672,
      "giọt": 7673,
      "chill": 7674,
      "hard": 7675,
      "rẫy": 7676,
      "##lđ": 7677,
      "thèn": 7678,
      "##ana": 7679,
      "##ica": 7680,
      "crv": 7681,
      "500tr": 7682,
      "mxh": 7683,
      "##tk": 7684,
      "thê": 7685,
      "cù": 7686,
      "dr": 7687,
      "gậy": 7688,
      "khuẩn": 7689,
      "olym": 7690,
      "bik": 7691,
      "bre": 7692,
      "robot": 7693,
      "39": 7694,
      "kép": 7695,
      "bầy": 7696,
      "hũ": 7697,
      "xổ": 7698,
      "hời": 7699,
      "ios": 7700,
      "xỏ": 7701,
      "##lin": 7702,
      "##cha": 7703,
      "tuyết": 7704,
      "lạng": 7705,
      "tẹo": 7706,
      "load": 7707,
      "camp": 7708,
      "rê": 7709,
      "tanh": 7710,
      "đl": 7711,
      "##==": 7712,
      "kpi": 7713,
      "ye": 7714,
      "##od": 7715,
      "trèo": 7716,
      "25k": 7717,
      "vitamin": 7718,
      "##car": 7719,
      "##ham": 7720,
      "##gan": 7721,
      "80k": 7722,
      "dkm": 7723,
      "lg": 7724,
      "##pool": 7725,
      "##ager": 7726,
      "##oney": 7727,
      "csgt": 7728,
      "hagl": 7729,
      "##bao": 7730,
      "-->": 7731,
      "diệu": 7732,
      "ghệ": 7733,
      "mid": 7734,
      "70k": 7735,
      "##16": 7736,
      "bịt": 7737,
      "diêm": 7738,
      "##yo": 7739,
      "ngục": 7740,
      "tràng": 7741,
      "core": 7742,
      "dcm": 7743,
      "cẩm": 7744,
      "klo": 7745,
      "nhàm": 7746,
      "showroom": 7747,
      "squ": 7748,
      "nhoé": 7749,
      "48": 7750,
      "china": 7751,
      "##tri": 7752,
      "cặn": 7753,
      "rắc": 7754,
      "sò": 7755,
      "##ướn": 7756,
      "tuý": 7757,
      "cậy": 7758,
      "kl": 7759,
      "sign": 7760,
      "11h": 7761,
      "92": 7762,
      "pccc": 7763,
      "ren": 7764,
      "##ỏm": 7765,
      "hold": 7766,
      "hăng": 7767,
      "pkl": 7768,
      "kiêm": 7769,
      "##aland": 7770,
      "bim": 7771,
      "sên": 7772,
      "xó": 7773,
      "đới": 7774,
      "nhông": 7775,
      "khè": 7776,
      "start": 7777,
      "##idas": 7778,
      "360": 7779,
      "dỗi": 7780,
      "út": 7781,
      "đíu": 7782,
      "##**": 7783,
      "phượt": 7784,
      "cvt": 7785,
      "cashback": 7786,
      "hl": 7787,
      "kẽ": 7788,
      "sặc": 7789,
      "vây": 7790,
      "##ami": 7791,
      "rip": 7792,
      ",....": 7793,
      "id": 7794,
      "rỉ": 7795,
      "chì": 7796,
      "suýt": 7797,
      "ngươi": 7798,
      "arsenal": 7799,
      "bón": 7800,
      "balo": 7801,
      "ná": 7802,
      "nề": 7803,
      "##port": 7804,
      "thun": 7805,
      "tuân": 7806,
      "twit": 7807,
      "otp": 7808,
      "fc": 7809,
      "wo": 7810,
      "##ds": 7811,
      "qui": 7812,
      "quật": 7813,
      "mot": 7814,
      "blue": 7815,
      "##jo": 7816,
      "reg": 7817,
      "))))))": 7818,
      "wibu": 7819,
      "vaccine": 7820,
      "##100": 7821,
      "khẩn": 7822,
      "trợn": 7823,
      "1tr5": 7824,
      "mân": 7825,
      "xò": 7826,
      "xao": 7827,
      "adidas": 7828,
      "%/": 7829,
      "72": 7830,
      "vèo": 7831,
      "màng": 7832,
      "88": 7833,
      "bb": 7834,
      "bọ": 7835,
      "trổ": 7836,
      "karao": 7837,
      "aw": 7838,
      "i10": 7839,
      "home": 7840,
      "khoác": 7841,
      "ken": 7842,
      "timo": 7843,
      "rập": 7844,
      "##qg": 7845,
      "trầy": 7846,
      "##ames": 7847,
      "hit": 7848,
      "moi": 7849,
      "nole": 7850,
      "gởi": 7851,
      "rải": 7852,
      "toả": 7853,
      "make": 7854,
      "cưỡng": 7855,
      "sưu": 7856,
      "cry": 7857,
      "đbrr": 7858,
      "ap": 7859,
      "bụ": 7860,
      "tạng": 7861,
      "##load": 7862,
      "cầy": 7863,
      "mba": 7864,
      "##lf": 7865,
      "thiền": 7866,
      "##iter": 7867,
      "cali": 7868,
      "friend": 7869,
      "##que": 7870,
      "##150": 7871,
      "fency": 7872,
      "##aru": 7873,
      "tele": 7874,
      "250k": 7875,
      "nvx": 7876,
      "ất": 7877,
      "##ymar": 7878,
      "ruồi": 7879,
      "iran": 7880,
      "from": 7881,
      "kind": 7882,
      "tđ": 7883,
      "manager": 7884,
      "ultra": 7885,
      ",..": 7886,
      "cg": 7887,
      "dz": 7888,
      "dark": 7889,
      "flop": 7890,
      "tank": 7891,
      "khét": 7892,
      "bonus": 7893,
      "seltos": 7894,
      "uae": 7895,
      "pau": 7896,
      "ub": 7897,
      "nhị": 7898,
      "nhăn": 7899,
      "##ont": 7900,
      "goat": 7901,
      "neymar": 7902,
      "dẻo": 7903,
      "lợm": 7904,
      "vía": 7905,
      "karaoke": 7906,
      "1t": 7907,
      "xị": 7908,
      "##lk": 7909,
      "cụm": 7910,
      "good": 7911,
      "cành": 7912,
      "cra": 7913,
      "gọng": 7914,
      "hòn": 7915,
      "xôm": 7916,
      "tròng": 7917,
      "model": 7918,
      "##ture": 7919,
      "mobile": 7920,
      "bàng": 7921,
      "lồ": 7922,
      "sá": 7923,
      "sẹo": 7924,
      "ấp": 7925,
      "pos": 7926,
      "speed": 7927,
      "giở": 7928,
      "##ati": 7929,
      "##site": 7930,
      "bợ": 7931,
      "gộp": 7932,
      "rán": 7933,
      "##úm": 7934,
      "lưỡng": 7935,
      "ronaldo": 7936,
      "700k": 7937,
      "bòi": 7938,
      "hột": 7939,
      "lv": 7940,
      "##ics": 7941,
      "bén": 7942,
      "kè": 7943,
      "sịp": 7944,
      "##don": 7945,
      "##ok": 7946,
      "##ềm": 7947,
      "2007": 7948,
      "track": 7949,
      "canada": 7950,
      "22t": 7951,
      "vf8": 7952,
      "evn": 7953,
      "94": 7954,
      "nhốt": 7955,
      "hiv": 7956,
      "thoi": 7957,
      "......": 7958,
      "liverpool": 7959,
      "##work": 7960,
      "trg": 7961,
      "##ster": 7962,
      "##dom": 7963,
      "art": 7964,
      "sony": 7965,
      "đạm": 7966,
      "sala": 7967,
      "khổng": 7968,
      "sexy": 7969,
      "20km": 7970,
      "##pppp": 7971,
      "xảo": 7972,
      "tép": 7973,
      "vle": 7974,
      "love": 7975,
      ".......": 7976,
      "mứt": 7977,
      "ní": 7978,
      "quèn": 7979,
      "##key": 7980,
      "power": 7981,
      "premium": 7982,
      "chư": 7983,
      "resort": 7984,
      "dal": 7985,
      "hv": 7986,
      "mầm": 7987,
      "mor": 7988,
      "vung": 7989,
      "kẻo": 7990,
      "help": 7991,
      "5p": 7992,
      "nịnh": 7993,
      "xx": 7994,
      "##14": 7995,
      "nhây": 7996,
      "khép": 7997,
      "nàn": 7998,
      "##chel": 7999,
      "tuột": 8000,
      "gold": 8001,
      "pcx": 8002,
      "xn": 8003,
      "##vin": 8004,
      "##ox": 8005,
      "##èng": 8006,
      "##coin": 8007,
      "nệ": 8008,
      "yết": 8009,
      "thò": 8010,
      "mom": 8011,
      "##--------": 8012,
      "hat": 8013,
      "sói": 8014,
      "đg": 8015,
      "10p": 8016,
      "180": 8017,
      "under": 8018,
      "bidv": 8019,
      "còng": 8020,
      "râm": 8021,
      "sỏi": 8022,
      "tị": 8023,
      "girl": 8024,
      "tiếu": 8025,
      "short": 8026,
      "suv": 8027,
      "2006": 8028,
      "lives": 8029,
      "seo": 8030,
      "##ựt": 8031,
      "chập": 8032,
      "freel": 8033,
      "##map": 8034,
      "twitter": 8035,
      "##hn": 8036,
      "##xic": 8037,
      "chước": 8038,
      "usb": 8039,
      "olympic": 8040,
      "bal": 8041,
      "máng": 8042,
      "nốc": 8043,
      "xpan": 8044,
      "##gr": 8045,
      "##21": 8046,
      "trù": 8047,
      "hok": 8048,
      "vnpt": 8049,
      "nếp": 8050,
      "um": 8051,
      "##light": 8052,
      "haizzz": 8053,
      "uefa": 8054,
      "cal": 8055,
      "lết": 8056,
      "pri": 8057,
      "##tf": 8058,
      "##des": 8059,
      "##ux": 8060,
      "quấn": 8061,
      "dog": 8062,
      "##ppa": 8063,
      "paste": 8064,
      "bứt": 8065,
      "kaka": 8066,
      "ngất": 8067,
      "nghiệt": 8068,
      "hah": 8069,
      "trap": 8070,
      "dẹo": 8071,
      "##ez": 8072,
      "##45": 8073,
      "chặng": 8074,
      "toxic": 8075,
      "roi": 8076,
      "cúi": 8077,
      "calo": 8078,
      "mép": 8079,
      "vế": 8080,
      "giơ": 8081,
      "tưng": 8082,
      "##eller": 8083,
      "genz": 8084,
      "member": 8085,
      "sin": 8086,
      "tpbank": 8087,
      "##file": 8088,
      "acb": 8089,
      "cỗ": 8090,
      "gm": 8091,
      "hớt": 8092,
      "mía": 8093,
      "qà": 8094,
      "sọ": 8095,
      "whi": 8096,
      "hóc": 8097,
      "om": 8098,
      "đkm": 8099,
      "thạc": 8100,
      "nhơn": 8101,
      "chảo": 8102,
      "bưởi": 8103,
      "nịt": 8104,
      "sòng": 8105,
      "##tc": 8106,
      "##den": 8107,
      "vách": 8108,
      "ngẫu": 8109,
      "vành": 8110,
      "##ere": 8111,
      "cưỡi": 8112,
      "##dow": 8113,
      "gàng": 8114,
      "điếm": 8115,
      "profile": 8116,
      "##oi18": 8117,
      "bench": 8118,
      "biếu": 8119,
      "vếu": 8120,
      "##val": 8121,
      "hoãn": 8122,
      "coca": 8123,
      "kindle": 8124,
      "01": 8125,
      "low": 8126,
      "cor": 8127,
      "hoạn": 8128,
      "vozers": 8129,
      "fed": 8130,
      "future": 8131,
      "lzd": 8132,
      "xy": 8133,
      "ang": 8134,
      "dra": 8135,
      "nin": 8136,
      "wal": 8137,
      "char": 8138,
      "suối": 8139,
      "name": 8140,
      "##lva": 8141,
      "merc": 8142,
      "dang": 8143,
      "dạt": 8144,
      "gật": 8145,
      "xoa": 8146,
      "alb": 8147,
      "02": 8148,
      "kèn": 8149,
      "nần": 8150,
      "##qs": 8151,
      "cũg": 8152,
      "thính": 8153,
      "##ers": 8154,
      "mag": 8155,
      "silva": 8156,
      "classic": 8157,
      "gt": 8158,
      "kén": 8159,
      "nem": 8160,
      "đong": 8161,
      "mm": 8162,
      "tã": 8163,
      "vãn": 8164,
      "cod": 8165,
      "ref": 8166,
      "rank": 8167,
      "##ship": 8168,
      "hẹo": 8169,
      "morn": 8170,
      "núp": 8171,
      "vọt": 8172,
      "tia": 8173,
      "##ctor": 8174,
      "modric": 8175,
      "xpander": 8176,
      "hh": 8177,
      "##tn": 8178,
      "##aro": 8179,
      "sida": 8180,
      "indog": 8181,
      "work": 8182,
      "43": 8183,
      "rv": 8184,
      "user": 8185,
      "xê": 8186,
      "khứa": 8187,
      "nghẻ": 8188,
      "soạn": 8189,
      "sure": 8190,
      "fresh": 8191,
      "gdp": 8192,
      "donate": 8193,
      "public": 8194,
      "##wa": 8195,
      "trade": 8196,
      "rapper": 8197,
      "buscu": 8198,
      "marvel": 8199,
      "mart": 8200,
      "##25": 8201,
      "project": 8202,
      "sancho": 8203,
      "b1": 8204,
      "odo": 8205,
      "rì": 8206,
      "##ford": 8207,
      "ngố": 8208,
      "##lly": 8209,
      "cav": 8210,
      "moẹ": 8211,
      "leak": 8212,
      "morning": 8213,
      "ic": 8214,
      "lee": 8215,
      "##cted": 8216,
      "chùi": 8217,
      "##cept": 8218,
      "110": 8219,
      "thỏ": 8220,
      "phì": 8221,
      "aeon": 8222,
      "kante": 8223,
      "er": 8224,
      "xs": 8225,
      "##brid": 8226,
      "##65": 8227,
      "chàng": 8228,
      "cow": 8229,
      "vnd": 8230,
      "15km": 8231,
      "adv": 8232,
      "lốc": 8233,
      "delay": 8234,
      "##soft": 8235,
      "nệm": 8236,
      "5x": 8237,
      "eco": 8238,
      "nỗ": 8239,
      "pỏn": 8240,
      "tồi": 8241,
      "tám": 8242,
      "##13": 8243,
      "##espa": 8244,
      "nguyệt": 8245,
      "hype": 8246,
      "reaction": 8247,
      "30km": 8248,
      "biếng": 8249,
      "jp": 8250,
      "điềm": 8251,
      "shoppe": 8252,
      "excel": 8253,
      "vac": 8254,
      "5km": 8255,
      "ji": 8256,
      "neo": 8257,
      "nôm": 8258,
      "sưng": 8259,
      "xơ": 8260,
      "ếu": 8261,
      "##ount": 8262,
      "debit": 8263,
      "gài": 8264,
      "đọ": 8265,
      "##eet": 8266,
      "nháo": 8267,
      "trans": 8268,
      "bướ": 8269,
      "lùng": 8270,
      "lặt": 8271,
      "năn": 8272,
      "ori": 8273,
      "rả": 8274,
      "xù": 8275,
      "tháp": 8276,
      "choét": 8277,
      "nghành": 8278,
      "toe": 8279,
      "liga": 8280,
      "nig": 8281,
      "turbo": 8282,
      "hmm": 8283,
      "pn": 8284,
      "##vit": 8285,
      "ssd": 8286,
      "micro": 8287,
      ":\"": 8288,
      "rầm": 8289,
      "xúi": 8290,
      "##ning": 8291,
      "chuoi18": 8292,
      "grap": 8293,
      "f0": 8294,
      "lx": 8295,
      "zing": 8296,
      "##atin": 8297,
      "##tom": 8298,
      "##tage": 8299,
      "hm": 8300,
      "hờ": 8301,
      "uốn": 8302,
      "##fh": 8303,
      "nhọ": 8304,
      "...........": 8305,
      "life": 8306,
      "12tr": 8307,
      "uniq": 8308,
      "album": 8309,
      "?.": 8310,
      "cọng": 8311,
      "fdi": 8312,
      "lửng": 8313,
      "oxy": 8314,
      "tành": 8315,
      "##ste": 8316,
      "giun": 8317,
      "khuất": 8318,
      "stu": 8319,
      "obz": 8320,
      "klopp": 8321,
      "cic": 8322,
      "lụt": 8323,
      "pd": 8324,
      "##300": 8325,
      "suz": 8326,
      "pace": 8327,
      "ret": 8328,
      "sr": 8329,
      "##ax": 8330,
      "chưng": 8331,
      "ngạc": 8332,
      "##tech": 8333,
      "##tive": 8334,
      "bỉm": 8335,
      "hù": 8336,
      "hùa": 8337,
      "két": 8338,
      "mí": 8339,
      "xen": 8340,
      "##cle": 8341,
      "nhủ": 8342,
      "hoan": 8343,
      "đun": 8344,
      "##ester": 8345,
      "hun": 8346,
      "react": 8347,
      "sorry": 8348,
      "design": 8349,
      "46": 8350,
      "bg": 8351,
      "hem": 8352,
      "tab": 8353,
      "##lli": 8354,
      "cửu": 8355,
      "leader": 8356,
      "jean": 8357,
      "salah": 8358,
      "cle": 8359,
      "seed": 8360,
      "đét": 8361,
      "##sad": 8362,
      "##ban": 8363,
      "phô": 8364,
      "đna": 8365,
      "69": 8366,
      "70km": 8367,
      "lụi": 8368,
      "oánh": 8369,
      "##vc": 8370,
      "##75": 8371,
      "đóm": 8372,
      "kit": 8373,
      "tor": 8374,
      "2024": 8375,
      "hé": 8376,
      "kiềm": 8377,
      "lép": 8378,
      "mướn": 8379,
      "tì": 8380,
      "vôi": 8381,
      "##_shop": 8382,
      "##ổng": 8383,
      "thản": 8384,
      "cóp": 8385,
      "chuoi18_shop": 8386,
      "5g": 8387,
      "rp": 8388,
      "##gen": 8389,
      "chọi": 8390,
      "vozlit": 8391,
      "croat": 8392,
      "00": 8393,
      "nad": 8394,
      "nhuộm": 8395,
      "neu": 8396,
      "livestream": 8397,
      "hùm": 8398,
      "icon": 8399,
      "qa": 8400,
      "60km": 8401,
      "vồ": 8402,
      "##ởn": 8403,
      "ngọng": 8404,
      "jd": 8405,
      "jun": 8406,
      "wtf": 8407,
      "x10": 8408,
      "thúy": 8409,
      "##nnnn": 8410,
      "mún": 8411,
      "nao": 8412,
      "tar": 8413,
      "save": 8414,
      "##ande": 8415,
      "conte": 8416,
      "##entina": 8417,
      "300km": 8418,
      "cno": 8419,
      "xỉn": 8420,
      "lụy": 8421,
      "white": 8422,
      "af": 8423,
      "ax": 8424,
      "bẩm": 8425,
      "james": 8426,
      "k3": 8427,
      "vat": 8428,
      "xóc": 8429,
      "##ep": 8430,
      "phin": 8431,
      "quế": 8432,
      "milan": 8433,
      "dek": 8434,
      "arc": 8435,
      "dịu": 8436,
      "sky": 8437,
      "deep": 8438,
      "pit": 8439,
      "sáp": 8440,
      "##word": 8441,
      "kaido": 8442,
      "rên": 8443,
      "sục": 8444,
      "sồn": 8445,
      "ter": 8446,
      "ww": 8447,
      "zo": 8448,
      "hoả": 8449,
      "10w": 8450,
      "##ason": 8451,
      "##lott": 8452,
      "##emon": 8453,
      "47": 8454,
      "mmo": 8455,
      "clg": 8456,
      "bitcoin": 8457,
      "41": 8458,
      "kts": 8459,
      "rộ": 8460,
      "##ten": 8461,
      "##iz": 8462,
      "##off": 8463,
      "##ât": 8464,
      "cocc": 8465,
      "vịn": 8466,
      "chói": 8467,
      "bớ": 8468,
      "lew": 8469,
      "nch": 8470,
      "pg": 8471,
      "vẫy": 8472,
      "vợt": 8473,
      "reco": 8474,
      "nigga": 8475,
      "9tr": 8476,
      "met": 8477,
      "##asa": 8478,
      "bổn": 8479,
      "vario": 8480,
      "bệ": 8481,
      "gp": 8482,
      "##sd": 8483,
      "##jt": 8484,
      "sei": 8485,
      "dbrr": 8486,
      "az": 8487,
      "hắc": 8488,
      "lgb": 8489,
      "tản": 8490,
      "vch": 8491,
      "thạnh": 8492,
      "ngài": 8493,
      "##ston": 8494,
      "##????": 8495,
      "potter": 8496,
      "44": 8497,
      "cad": 8498,
      "nạ": 8499,
      "oẳng": 8500,
      "tml": 8501,
      "##ven": 8502,
      "##chu": 8503,
      "...\"": 8504,
      "shell": 8505,
      "taobao": 8506,
      "lex": 8507,
      "fw": 8508,
      "lỏi": 8509,
      "rờ": 8510,
      "rít": 8511,
      "zid": 8512,
      "đò": 8513,
      "thám": 8514,
      "nhũng": 8515,
      "##tif": 8516,
      "spoil": 8517,
      "cat": 8518,
      "##sl": 8519,
      "##ir": 8520,
      "##lip": 8521,
      "window": 8522,
      "hyund": 8523,
      "hybrid": 8524,
      "website": 8525,
      "35k": 8526,
      "scam": 8527,
      "tokyo": 8528,
      "vleague": 8529,
      "uniqlo": 8530,
      "hyundai": 8531,
      "feed": 8532,
      "sch": 8533,
      "zô": 8534,
      "##nis": 8535,
      "thỉ": 8536,
      "cham": 8537,
      "##ari": 8538,
      "diss": 8539,
      "lyric": 8540,
      "##aku": 8541,
      "reply": 8542,
      "hello": 8543,
      "##ource": 8544,
      "sáu": 8545,
      "lgbt": 8546,
      "găng": 8547,
      "##cl": 8548,
      "##xin": 8549,
      "open": 8550,
      "phàm": 8551,
      "dằn": 8552,
      "hổng": 8553,
      "suzuki": 8554,
      "((": 8555,
      "cy": 8556,
      "get": 8557,
      "mỗ": 8558,
      "t2": 8559,
      "tẩu": 8560,
      "##bon": 8561,
      "ngú": 8562,
      "sanh": 8563,
      "##ppy": 8564,
      "titan": 8565,
      "91": 8566,
      "bel": 8567,
      "rú": 8568,
      "villa": 8569,
      "100m": 8570,
      "fact": 8571,
      "ướp": 8572,
      "flash": 8573,
      "cừ": 8574,
      "##boo": 8575,
      "ngọn": 8576,
      "trá": 8577,
      "##000": 8578,
      "stat": 8579,
      "##max": 8580,
      "56": 8581,
      "cạ": 8582,
      "m10": 8583,
      "sọt": 8584,
      "vâu": 8585,
      "vespa": 8586,
      "##cing": 8587,
      "toan": 8588,
      "mix": 8589,
      "##ated": 8590,
      "outs": 8591,
      ":/": 8592,
      "nắn": 8593,
      "vét": 8594,
      "##ya": 8595,
      "nhích": 8596,
      "event": 8597,
      "nắc": 8598,
      "vượng": 8599,
      "xêm": 8600,
      "##đi": 8601,
      "ngợi": 8602,
      "inox": 8603,
      "cdm": 8604,
      "green": 8605,
      "nadal": 8606,
      "rạch": 8607,
      "phèo": 8608,
      "mủ": 8609,
      "rêu": 8610,
      "seller": 8611,
      "##ron": 8612,
      "##ếc": 8613,
      "##lt": 8614,
      "##24": 8615,
      "##35": 8616,
      "tucson": 8617,
      "squat": 8618,
      "2t": 8619,
      "flow": 8620,
      "nhĩ": 8621,
      "kill": 8622,
      "sosad": 8623,
      "altis": 8624,
      "trắc": 8625,
      "trán": 8626,
      "quấy": 8627,
      "kíp": 8628,
      "join": 8629,
      "copa": 8630,
      "2vc": 8631,
      "bj": 8632,
      "hó": 8633,
      "porn": 8634,
      "àh": 8635,
      "ngỡ": 8636,
      "vietlott": 8637,
      "cosplay": 8638,
      "mbappe": 8639,
      "gun": 8640,
      "kỵ": 8641,
      "rong": 8642,
      "phọt": 8643,
      "cuộn": 8644,
      "tựu": 8645,
      "##vice": 8646,
      "##pha": 8647,
      "cerato": 8648,
      "zidane": 8649,
      "eli": 8650,
      "miêu": 8651,
      "##ting": 8652,
      "nhung": 8653,
      "giỡn": 8654,
      "plan": 8655,
      "nvqs": 8656,
      "santa": 8657,
      "##ney": 8658,
      "bye": 8659,
      "dalit": 8660,
      "##care": 8661,
      "ngừa": 8662,
      "##amil": 8663,
      "##log": 8664,
      "350k": 8665,
      "ace": 8666,
      "ara": 8667,
      "64": 8668,
      "bq": 8669,
      "dầm": 8670,
      "md": 8671,
      "##mon": 8672,
      "##zi": 8673,
      "##66": 8674,
      "sacom": 8675,
      "chỉa": 8676,
      "dota": 8677,
      "hợt": 8678,
      "haaland": 8679,
      "bsi": 8680,
      "mói": 8681,
      "nano": 8682,
      "zậy": 8683,
      "##ug": 8684,
      "intel": 8685,
      "band": 8686,
      "##vie": 8687,
      "nguyền": 8688,
      "ppw": 8689,
      "nta": 8690,
      "x5": 8691,
      "ấu": 8692,
      "##bl": 8693,
      "chốn": 8694,
      "toẹt": 8695,
      "shark": 8696,
      "xoang": 8697,
      "never": 8698,
      "wen": 8699,
      "##ary": 8700,
      "haki": 8701,
      "protected": 8702,
      "bốn": 8703,
      "ome": 8704,
      "pet": 8705,
      "wfh": 8706,
      "thiếm": 8707,
      "chầu": 8708,
      "##biz": 8709,
      "60tr": 8710,
      "ninja": 8711,
      "bõ": 8712,
      "kona": 8713,
      "nết": 8714,
      "q2": 8715,
      "sủi": 8716,
      "##mer": 8717,
      "thòi": 8718,
      "tráo": 8719,
      "kixx": 8720,
      "col": 8721,
      "băm": 8722,
      "fit": 8723,
      "wan": 8724,
      "nhang": 8725,
      "hoy": 8726,
      "lane": 8727,
      "khum": 8728,
      "##use": 8729,
      "dan": 8730,
      "dat": 8731,
      "lồi": 8732,
      "nhò": 8733,
      "lot": 8734,
      "##trage": 8735,
      "spe": 8736,
      "drive": 8737,
      "bas": 8738,
      "càn": 8739,
      "ray": 8740,
      "word": 8741,
      "##uong": 8742,
      "##89": 8743,
      "shaw": 8744,
      "##ahah": 8745,
      "qt": 8746,
      "rr": 8747,
      "ur": 8748,
      "u40": 8749,
      "torr": 8750,
      "ngoằng": 8751,
      "##ical": 8752,
      "##lish": 8753,
      "comp": 8754,
      "2k4": 8755,
      "##mom": 8756,
      "blu": 8757,
      "evo": 8758,
      "xyz": 8759,
      "89": 8760,
      "cấy": 8761,
      "dô": 8762,
      "rơm": 8763,
      "##mg": 8764,
      "##ix": 8765,
      "##gro": 8766,
      "1x": 8767,
      "==": 8768,
      "bập": 8769,
      "qá": 8770,
      "khang": 8771,
      "conver": 8772,
      "1kg": 8773,
      "##ware": 8774,
      "soft": 8775,
      "vụt": 8776,
      "bhnt": 8777,
      "##arez": 8778,
      "account": 8779,
      "hcv": 8780,
      "62": 8781,
      "fun": 8782,
      "money": 8783,
      "rúc": 8784,
      "đôn": 8785,
      "nhọc": 8786,
      "nhat": 8787,
      "trám": 8788,
      "phè": 8789,
      "luỹ": 8790,
      "ghiền": 8791,
      "land": 8792,
      "vpn": 8793,
      "omega": 8794,
      "68": 8795,
      "dải": 8796,
      "ngụy": 8797,
      "##ươm": 8798,
      "hix": 8799,
      "120k": 8800,
      "produ": 8801,
      "reddit": 8802,
      "fresher": 8803,
      "west": 8804,
      "ngốc": 8805,
      "chót": 8806,
      "seiko": 8807,
      "bích": 8808,
      "dong": 8809,
      "gán": 8810,
      "rh": 8811,
      "khan": 8812,
      "##tex": 8813,
      "##down": 8814,
      "manu": 8815,
      "thaco": 8816,
      "attrage": 8817,
      "beek": 8818,
      "7x": 8819,
      "cast": 8820,
      "lốt": 8821,
      "nặn": 8822,
      "watch": 8823,
      "chửa": 8824,
      "recomm": 8825,
      "67": 8826,
      "fer": 8827,
      "níu": 8828,
      "vắc": 8829,
      "##kt": 8830,
      "##ines": 8831,
      "bỏng": 8832,
      "##ked": 8833,
      "text": 8834,
      "range": 8835,
      "outsource": 8836,
      "mần": 8837,
      "oda": 8838,
      "ngừ": 8839,
      "##cher": 8840,
      "ngoáy": 8841,
      "2003": 8842,
      "vietlot": 8843,
      "cancel": 8844,
      "rủa": 8845,
      "office": 8846,
      ",,": 8847,
      "6x": 8848,
      "cđt": 8849,
      "gãi": 8850,
      "nện": 8851,
      "##ny": 8852,
      "xavi": 8853,
      "miss": 8854,
      "chớp": 8855,
      "cđv": 8856,
      "53": 8857,
      "bcs": 8858,
      "ce": 8859,
      "cõi": 8860,
      "nat": 8861,
      "rou": 8862,
      "át": 8863,
      "phao": 8864,
      "giỗ": 8865,
      "##ence": 8866,
      "kick": 8867,
      "argentina": 8868,
      "asian": 8869,
      "ds": 8870,
      "hand": 8871,
      "hụi": 8872,
      "##og": 8873,
      "##bin": 8874,
      "chồn": 8875,
      "cute": 8876,
      "buồng": 8877,
      "2005": 8878,
      "clm": 8879,
      "xoáy": 8880,
      "scb": 8881,
      "quỳnh": 8882,
      "tennis": 8883,
      "a2": 8884,
      "kề": 8885,
      "sáo": 8886,
      "##ốm": 8887,
      "##ẫng": 8888,
      "giẻ": 8889,
      "##ượm": 8890,
      "kid": 8891,
      "coun": 8892,
      "1500": 8893,
      "khía": 8894,
      "5000": 8895,
      "syn": 8896,
      "sụt": 8897,
      "##ther": 8898,
      "bait": 8899,
      "90k": 8900,
      "nong": 8901,
      "uổng": 8902,
      "##cus": 8903,
      "##wood": 8904,
      "thạo": 8905,
      "choai": 8906,
      "woke": 8907,
      "e34": 8908,
      "miến": 8909,
      "thiêu": 8910,
      "quách": 8911,
      "bud": 8912,
      "##imi": 8913,
      "seag": 8914,
      "bím": 8915,
      "grande": 8916,
      "protein": 8917,
      "studio": 8918,
      "cớt": 8919,
      "kìm": 8920,
      "lạp": 8921,
      "pé": 8922,
      "story": 8923,
      "##ury": 8924,
      "med": 8925,
      "agri": 8926,
      "54": 8927,
      "mq": 8928,
      "sta": 8929,
      "đọng": 8930,
      "”,": 8931,
      "##jc": 8932,
      "gót": 8933,
      "huề": 8934,
      "##tuber": 8935,
      "setup": 8936,
      "argen": 8937,
      "oán": 8938,
      "nhác": 8939,
      "nhóe": 8940,
      "luk": 8941,
      "now": 8942,
      "##gggg": 8943,
      "engine": 8944,
      "##................................................................": 8945,
      "dy": 8946,
      "gk": 8947,
      "réo": 8948,
      "rựa": 8949,
      "ắt": 8950,
      "##ợp": 8951,
      "##>>": 8952,
      "nhấc": 8953,
      "phàn": 8954,
      "giòn": 8955,
      "niss": 8956,
      "##uchia": 8957,
      "ei": 8958,
      "gục": 8959,
      "her": 8960,
      "sán": 8961,
      "yt": 8962,
      "##zen": 8963,
      "chro": 8964,
      "giặc": 8965,
      "##air": 8966,
      "site": 8967,
      "huệ": 8968,
      "đhs": 8969,
      "exc": 8970,
      "bển": 8971,
      "gặm": 8972,
      "lõm": 8973,
      "đệt": 8974,
      "##bel": 8975,
      "light": 8976,
      "##eeee": 8977,
      "sưởi": 8978,
      "25tr": 8979,
      "freego": 8980,
      "campuchia": 8981,
      "motor": 8982,
      "04": 8983,
      "450": 8984,
      "gao": 8985,
      "ysl": 8986,
      "##pro": 8987,
      "chèo": 8988,
      "nhô": 8989,
      "ngóng": 8990,
      "rate": 8991,
      "luỵ": 8992,
      "ling": 8993,
      "showbiz": 8994,
      "logist": 8995,
      "8k": 8996,
      "86": 8997,
      "mư": 8998,
      "##).": 8999,
      "phone": 9000,
      "mẹo": 9001,
      "sea": 9002,
      "bhx": 9003,
      "backup": 9004,
      "dl": 9005,
      "ft": 9006,
      "ger": 9007,
      "kara": 9008,
      "las": 9009,
      "ster": 9010,
      "tước": 9011,
      "vại": 9012,
      "nghía": 9013,
      "20p": 9014,
      "bug": 9015,
      "leg": 9016,
      "18t": 9017,
      "vietmap": 9018,
      "150tr": 9019,
      "news": 9020,
      "lẹt": 9021,
      "tụng": 9022,
      "##eng": 9023,
      "##kong": 9024,
      "nhún": 9025,
      "ngấm": 9026,
      "khôi": 9027,
      "loằng": 9028,
      "##emi": 9029,
      "##ago": 9030,
      "trịnh": 9031,
      "audi": 9032,
      "singap": 9033,
      "recommend": 9034,
      "căm": 9035,
      "lủi": 9036,
      "old": 9037,
      "rông": 9038,
      "with": 9039,
      "trãi": 9040,
      "##ooth": 9041,
      "inch": 9042,
      "bha": 9043,
      "dòm": 9044,
      "bướm": 9045,
      "=.": 9046,
      "gù": 9047,
      "hử": 9048,
      "##hc": 9049,
      "##bal": 9050,
      "##bct": 9051,
      "điếc": 9052,
      "task": 9053,
      "road": 9054,
      "golf": 9055,
      "3000": 9056,
      "media": 9057,
      "kevin": 9058,
      "serie": 9059,
      "cạp": 9060,
      "nôi": 9061,
      "vẹt": 9062,
      "zs": 9063,
      "ngạt": 9064,
      "củi": 9065,
      "24h": 9066,
      "5w": 9067,
      "77": 9068,
      "lác": 9069,
      "rò": 9070,
      "sto": 9071,
      "tọi": 9072,
      "xiền": 9073,
      "##500": 9074,
      "##ấng": 9075,
      "chôm": 9076,
      "bugi": 9077,
      "saigon": 9078,
      "vụn": 9079,
      "roy": 9080,
      "seal": 9081,
      "xỉa": 9082,
      "raize": 9083,
      "madrid": 9084,
      "etc": 9085,
      "gờ": 9086,
      "srm": 9087,
      "##vu": 9088,
      "##sen": 9089,
      "##az": 9090,
      "chững": 9091,
      "ngáy": 9092,
      "trơ": 9093,
      "phiến": 9094,
      "quẹo": 9095,
      "nghẹt": 9096,
      "luồn": 9097,
      "toát": 9098,
      "##eld": 9099,
      "30s": 9100,
      "xoài": 9101,
      "pepe": 9102,
      "130": 9103,
      "break": 9104,
      "pdf": 9105,
      "das": 9106,
      "ep": 9107,
      "sacombank": 9108,
      "racing": 9109,
      "##llll": 9110,
      "1m5": 9111,
      "##hip": 9112,
      "hẻo": 9113,
      "3t": 9114,
      "hắt": 9115,
      "meta": 9116,
      "u19": 9117,
      "xơi": 9118,
      "xốp": 9119,
      "##ip": 9120,
      "##gin": 9121,
      "##gram": 9122,
      "thắp": 9123,
      "##oro": 9124,
      "buffet": 9125,
      "##lander": 9126,
      "singapore": 9127,
      "cược": 9128,
      "lh": 9129,
      "oc": 9130,
      "pác": 9131,
      "sâm": 9132,
      "giục": 9133,
      "okie": 9134,
      "ball": 9135,
      "bìa": 9136,
      "dỡ": 9137,
      "hì": 9138,
      "hỉ": 9139,
      "léo": 9140,
      "lầy": 9141,
      "made": 9142,
      "xịch": 9143,
      "##td": 9144,
      "##ple": 9145,
      "khử": 9146,
      "##list": 9147,
      "noi": 9148,
      "dec": 9149,
      "58": 9150,
      "66": 9151,
      "bết": 9152,
      "dam": 9153,
      "q7": 9154,
      "vy": 9155,
      "xém": 9156,
      "ngáp": 9157,
      "phiêu": 9158,
      "##elo": 9159,
      "##ffe": 9160,
      "##bby": 9161,
      "=.=": 9162,
      "52": 9163,
      "bẩy": 9164,
      "gốm": 9165,
      "húng": 9166,
      "kq": 9167,
      "who": 9168,
      "chắt": 9169,
      "##ươc": 9170,
      "sol": 9171,
      "match": 9172,
      "##!!!!!!!!": 9173,
      "5kg": 9174,
      "78": 9175,
      "alv": 9176,
      "dé": 9177,
      "der": 9178,
      "hộc": 9179,
      "vest": 9180,
      "xèng": 9181,
      "phồng": 9182,
      "kong": 9183,
      "cave": 9184,
      "moon": 9185,
      "tỉa": 9186,
      "140": 9187,
      "iporn": 9188,
      "croatia": 9189,
      "chrome": 9190,
      "2nd": 9191,
      "51": 9192,
      "lùm": 9193,
      "lượm": 9194,
      "nới": 9195,
      "sì": 9196,
      "sco": 9197,
      "vè": 9198,
      "xừ": 9199,
      "##5k": 9200,
      "nhám": 9201,
      "giựt": 9202,
      "sou": 9203,
      "10m": 9204,
      "##tain": 9205,
      "demo": 9206,
      "junior": 9207,
      "08": 9208,
      "a1": 9209,
      "##ift": 9210,
      "quây": 9211,
      "control": 9212,
      "mane": 9213,
      "service": 9214,
      "just": 9215,
      "4m": 9216,
      "dỏm": 9217,
      "hơ": 9218,
      "kị": 9219,
      "leed": 9220,
      "nb": 9221,
      "oi": 9222,
      "pour": 9223,
      "rệt": 9224,
      "##page": 9225,
      "thon": 9226,
      "trừng": 9227,
      "##itar": 9228,
      "crui": 9229,
      "cpu": 9230,
      "macbook": 9231,
      "pors": 9232,
      "windows": 9233,
      "mqh": 9234,
      "cồng": 9235,
      "gôn": 9236,
      "lườm": 9237,
      "m7": 9238,
      "wr": 9239,
      "##gpt": 9240,
      "##way": 9241,
      "khui": 9242,
      "xoạc": 9243,
      "piano": 9244,
      "lụa": 9245,
      "elon": 9246,
      "bục": 9247,
      "fast": 9248,
      "nham": 9249,
      "trăn": 9250,
      "cool": 9251,
      "##esta": 9252,
      "sour": 9253,
      "sup": 9254,
      "bale": 9255,
      "2002": 9256,
      "ber": 9257,
      "múp": 9258,
      "sent": 9259,
      "##éc": 9260,
      "thục": 9261,
      "120km": 9262,
      "only": 9263,
      "xoăn": 9264,
      "##kia": 9265,
      "láp": 9266,
      "chổng": 9267,
      "ramos": 9268,
      "klq": 9269,
      "elite": 9270,
      "lukaku": 9271,
      "dặm": 9272,
      "mạ": 9273,
      "mọt": 9274,
      "tòi": 9275,
      "##17": 9276,
      "##pal": 9277,
      "##pto": 9278,
      "giầy": 9279,
      "khoảnh": 9280,
      "rom": 9281,
      "frees": 9282,
      "##bia": 9283,
      "chatgpt": 9284,
      "cúc": 9285,
      "qatar": 9286,
      "sọc": 9287,
      "stop": 9288,
      "tầu": 9289,
      "đặng": 9290,
      "tróc": 9291,
      "bitis": 9292,
      "16km": 9293,
      "##ttm": 9294,
      "scan": 9295,
      "tuýp": 9296,
      "liêu": 9297,
      "##yth": 9298,
      "coder": 9299,
      "chịt": 9300,
      "cmg": 9301,
      "2004": 9302,
      "alpha": 9303,
      "training": 9304,
      "bluet": 9305,
      "bở": 9306,
      "oppa": 9307,
      "tẩm": 9308,
      "tóe": 9309,
      "##iness": 9310,
      "bike": 9311,
      "cmm": 9312,
      "##pect": 9313,
      "serum": 9314,
      "bthg": 9315,
      "keyword": 9316,
      "ktx": 9317,
      "##ground": 9318,
      "?,": 9319,
      "bem": 9320,
      "bợm": 9321,
      "côm": 9322,
      "pọt": 9323,
      "đạch": 9324,
      "##ũi": 9325,
      "vol": 9326,
      "guitar": 9327,
      "võng": 9328,
      "gừng": 9329,
      "hót": 9330,
      "nơ": 9331,
      "nor": 9332,
      "vff": 9333,
      "đốn": 9334,
      "##dri": 9335,
      "##69": 9336,
      "chằng": 9337,
      "ngả": 9338,
      "ngách": 9339,
      "muội": 9340,
      "toét": 9341,
      "tưới": 9342,
      "##aker": 9343,
      "theard": 9344,
      "cloud": 9345,
      "gmail": 9346,
      "::": 9347,
      "vò": 9348,
      "xộn": 9349,
      "##fer": 9350,
      "##fone": 9351,
      "house": 9352,
      "bur": 9353,
      "##eme": 9354,
      "pop": 9355,
      "deb": 9356,
      "boi": 9357,
      "random": 9358,
      "download": 9359,
      "hahaha": 9360,
      "7k": 9361,
      "cell": 9362,
      "hằn": 9363,
      "tơi": 9364,
      "##ial": 9365,
      "thìa": 9366,
      "toa": 9367,
      "doub": 9368,
      "##ital": 9369,
      "come": 9370,
      "600tr": 9371,
      "##____": 9372,
      "nissan": 9373,
      "bluetooth": 9374,
      "1v": 9375,
      ":'": 9376,
      "hal": 9377,
      "lali": 9378,
      "mễ": 9379,
      "nã": 9380,
      "nếm": 9381,
      "thâu": 9382,
      "##viet": 9383,
      "hrv": 9384,
      "vênh": 9385,
      "6k": 9386,
      "are": 9387,
      "fel": 9388,
      "gỏi": 9389,
      "gel": 9390,
      "iv": 9391,
      "móm": 9392,
      "mướt": 9393,
      "pat": 9394,
      "rỗ": 9395,
      "sd": 9396,
      "zero": 9397,
      "ặc": 9398,
      "##pping": 9399,
      "dizz": 9400,
      "in4": 9401,
      "##uma": 9402,
      "198": 9403,
      "##125": 9404,
      "kpop": 9405,
      "bủ": 9406,
      "kon": 9407,
      "lỳ": 9408,
      "lôm": 9409,
      "nhen": 9410,
      "cuv": 9411,
      "nhỉnh": 9412,
      "##truong": 9413,
      "rolex": 9414,
      "auth": 9415,
      "##shit": 9416,
      "##die": 9417,
      "deadline": 9418,
      "crypto": 9419,
      "nín": 9420,
      "!?": 9421,
      "---": 9422,
      "jong": 9423,
      "mẫn": 9424,
      "u50": 9425,
      "thắn": 9426,
      "trau": 9427,
      "loằn": 9428,
      "dood": 9429,
      "##ris": 9430,
      "accept": 9431,
      "vacxin": 9432,
      "5s": 9433,
      "alex": 9434,
      "bộc": 9435,
      "hị": 9436,
      "nỡ": 9437,
      "khao": 9438,
      "##ouse": 9439,
      "outlander": 9440,
      "70tr": 9441,
      "xìu": 9442,
      "varane": 9443,
      "aub": 9444,
      "kô": 9445,
      "ló": 9446,
      "lịt": 9447,
      "m1": 9448,
      "miệt": 9449,
      "vó": 9450,
      "##tle": 9451,
      "##fit": 9452,
      "chẩn": 9453,
      "ngạch": 9454,
      "ngóc": 9455,
      "trâm": 9456,
      "giàn": 9457,
      "xuan": 9458,
      "vietin": 9459,
      "toilet": 9460,
      "xklđ": 9461,
      "05": 9462,
      "ava": 9463,
      "dặt": 9464,
      "elan": 9465,
      "ig": 9466,
      "nx": 9467,
      "oxi": 9468,
      "tịnh": 9469,
      "vù": 9470,
      "ịt": 9471,
      "nhăng": 9472,
      "phai": 9473,
      "quàng": 9474,
      "ting": 9475,
      "ghtk": 9476,
      "inst": 9477,
      "fanpage": 9478,
      "fuck": 9479,
      "john": 9480,
      "wiki": 9481,
      "##city": 9482,
      "##iiiiiiii": 9483,
      "\"?": 9484,
      "den": 9485,
      "lánh": 9486,
      "ẻo": 9487,
      "khít": 9488,
      "lab": 9489,
      "##share": 9490,
      "active": 9491,
      "400tr": 9492,
      "##tul": 9493,
      "mịe": 9494,
      "##cial": 9495,
      "porsche": 9496,
      "laliga": 9497,
      "59": 9498,
      "ctr": 9499,
      "cẳng": 9500,
      "lb": 9501,
      "pq": 9502,
      "xình": 9503,
      "trad": 9504,
      "gìn": 9505,
      "đóa": 9506,
      "luồng": 9507,
      "...,": 9508,
      "moto": 9509,
      "vini": 9510,
      "cún": 9511,
      "##tttt": 9512,
      "everton": 9513,
      "dragon": 9514,
      "target": 9515,
      "lexus": 9516,
      "exciter": 9517,
      "bồng": 9518,
      "lở": 9519,
      "m6": 9520,
      "nêm": 9521,
      "ổi": 9522,
      "local": 9523,
      "##ela": 9524,
      "banking": 9525,
      "gross": 9526,
      "carbon": 9527,
      "ctay": 9528,
      "spoiler": 9529,
      "double": 9530,
      "650": 9531,
      "87": 9532,
      "zom": 9533,
      "zoom": 9534,
      "##bg": 9535,
      "gif": 9536,
      "##iner": 9537,
      "sgk": 9538,
      "foden": 9539,
      ")))))": 9540,
      "xkld": 9541,
      "nhatk": 9542,
      "buy": 9543,
      "ganh": 9544,
      "hục": 9545,
      "kềnh": 9546,
      "mao": 9547,
      "mỉa": 9548,
      "nến": 9549,
      "v1": 9550,
      "vơi": 9551,
      "vát": 9552,
      "ẹc": 9553,
      "##wh": 9554,
      "chạp": 9555,
      "choi": 9556,
      "loét": 9557,
      "cut": 9558,
      "motul": 9559,
      "point": 9560,
      "skincare": 9561,
      "cavani": 9562,
      "1km": 9563,
      "dấm": 9564,
      "food": 9565,
      "mách": 9566,
      "uỷ": 9567,
      "chink": 9568,
      "phây": 9569,
      "quai": 9570,
      "##ens": 9571,
      "khiêm": 9572,
      "chuồn": 9573,
      "##ado": 9574,
      "trailer": 9575,
      "##ita": 9576,
      "90p": 9577,
      "network": 9578,
      "2tr5": 9579,
      "##sole": 9580,
      "toeic": 9581,
      "thỉu": 9582,
      "900k": 9583,
      "cbi": 9584,
      "gượng": 9585,
      "gps": 9586,
      "lường": 9587,
      "liếc": 9588,
      "ping": 9589,
      "za": 9590,
      "##ihi": 9591,
      "##êt": 9592,
      "thét": 9593,
      "nhào": 9594,
      "quyên": 9595,
      "shock": 9596,
      "##ffy": 9597,
      "pix": 9598,
      "napo": 9599,
      "mkt": 9600,
      "lewan": 9601,
      "ff": 9602,
      "lút": 9603,
      "nương": 9604,
      "t6": 9605,
      "xát": 9606,
      "##tun": 9607,
      "##king": 9608,
      "trash": 9609,
      "muỗng": 9610,
      "##lem": 9611,
      "fren": 9612,
      "what": 9613,
      "clear": 9614,
      "mươi": 9615,
      "1p": 9616,
      "lẫy": 9617,
      "m8": 9618,
      "núm": 9619,
      "viền": 9620,
      "úng": 9621,
      "##sub": 9622,
      "##ece": 9623,
      "##link": 9624,
      "##95": 9625,
      "phỉnh": 9626,
      "giỏ": 9627,
      "lích": 9628,
      "siri": 9629,
      "pick": 9630,
      "##desk": 9631,
      "elantra": 9632,
      "rầu": 9633,
      "xiếc": 9634,
      "ytb": 9635,
      "chẽ": 9636,
      "sapa": 9637,
      "choáng": 9638,
      "mus": 9639,
      "tuốt": 9640,
      "##ature": 9641,
      "polo": 9642,
      "fuho": 9643,
      "25t": 9644,
      "mòe": 9645,
      "matic": 9646,
      "batman": 9647,
      "5l": 9648,
      "63": 9649,
      "bp": 9650,
      "lâng": 9651,
      "rợ": 9652,
      "thpt": 9653,
      "##ones": 9654,
      "##ages": 9655,
      "canxi": 9656,
      "1tr2": 9657,
      "hsg": 9658,
      "quỵt": 9659,
      "2km": 9660,
      "57": 9661,
      "hám": 9662,
      "hẵn": 9663,
      "lđ": 9664,
      "sả": 9665,
      "đắm": 9666,
      "##mt": 9667,
      "kol": 9668,
      "but": 9669,
      "ahihi": 9670,
      "freelance": 9671,
      "cừu": 9672,
      "basic": 9673,
      "dào": 9674,
      "pate": 9675,
      "zị": 9676,
      "ỉn": 9677,
      "##ves": 9678,
      "khoanh": 9679,
      "##etua": 9680,
      "##lol": 9681,
      "inb": 9682,
      "##eek": 9683,
      "creta": 9684,
      "acid": 9685,
      "##====": 9686,
      "startup": 9687,
      "xuantruong": 9688,
      "):": 9689,
      "cq": 9690,
      "font": 9691,
      "hơm": 9692,
      "miếu": 9693,
      "pts": 9694,
      "sô": 9695,
      "xệ": 9696,
      "quạ": 9697,
      "kor": 9698,
      "##bull": 9699,
      "##yyyy": 9700,
      "champ": 9701,
      "budget": 9702,
      ":'(": 9703,
      "gri": 9704,
      "meo": 9705,
      "nạc": 9706,
      "nma": 9707,
      "qn": 9708,
      "tẻ": 9709,
      "##fu": 9710,
      "##long": 9711,
      "##bay": 9712,
      "##63": 9713,
      "chột": 9714,
      "kiêu": 9715,
      "how": 9716,
      "cuống": 9717,
      "khoét": 9718,
      "##itch": 9719,
      "##thi": 9720,
      "fire": 9721,
      "##gio": 9722,
      "business": 9723,
      "scoo": 9724,
      "$,": 9725,
      "bkh": 9726,
      "ecu": 9727,
      "foo": 9728,
      "mến": 9729,
      "nấc": 9730,
      "uể": 9731,
      "##ac": 9732,
      "tran": 9733,
      "##ond": 9734,
      "dort": 9735,
      "tiger": 9736,
      "buýt": 9737,
      "vna": 9738,
      "##stan": 9739,
      "12k": 9740,
      "##vil": 9741,
      "uyên": 9742,
      "benz": 9743,
      "enter": 9744,
      "dhs": 9745,
      "rodri": 9746,
      "hunter": 9747,
      "mầy": 9748,
      "##core": 9749,
      "##lad": 9750,
      "console": 9751,
      "ghẹ": 9752,
      "##ree": 9753,
      "rich": 9754,
      "haz": 9755,
      "spr": 9756,
      "prime": 9757,
      "big4": 9758,
      "crack": 9759,
      "##atinum": 9760,
      "rè": 9761,
      "##dro": 9762,
      "##wi": 9763,
      "ngưu": 9764,
      "quẻ": 9765,
      "muống": 9766,
      "20m": 9767,
      "##cky": 9768,
      "1200": 9769,
      "youtuber": 9770,
      "80tr": 9771,
      "java": 9772,
      "focus": 9773,
      "disc": 9774,
      "highland": 9775,
      "singlemom": 9776,
      "santafe": 9777,
      "07": 9778,
      "2p": 9779,
      "búp": 9780,
      "kro": 9781,
      "pal": 9782,
      "##card": 9783,
      "##bre": 9784,
      "chao": 9785,
      "nhản": 9786,
      "mãnh": 9787,
      "xog": 9788,
      "vinmart": 9789,
      "login": 9790,
      "carplay": 9791,
      "luxury": 9792,
      "sterling": 9793,
      "4r": 9794,
      "gũi": 9795,
      "tiệt": 9796,
      "ẳng": 9797,
      "##mund": 9798,
      "##tin": 9799,
      "##ik": 9800,
      "ngặt": 9801,
      "##ancer": 9802,
      "stand": 9803,
      "platinum": 9804,
      "##qui": 9805,
      "700tr": 9806,
      "350tr": 9807,
      "paris": 9808,
      "smartphone": 9809,
      "-.": 9810,
      "81": 9811,
      "cắc": 9812,
      "diều": 9813,
      "fshare": 9814,
      "lải": 9815,
      "mận": 9816,
      "ncc": 9817,
      "rơ": 9818,
      "##pm": 9819,
      "nhột": 9820,
      "nhằn": 9821,
      "##ene": 9822,
      "tap": 9823,
      "vlog": 9824,
      "clgt": 9825,
      "cỏn": 9826,
      "hanoi": 9827,
      "perez": 9828,
      "##form": 9829,
      "api": 9830,
      "dế": 9831,
      "lắt": 9832,
      "rb": 9833,
      "##mai": 9834,
      "##day": 9835,
      "thong": 9836,
      "chụy": 9837,
      "ngụ": 9838,
      "emo": 9839,
      "host": 9840,
      "coop": 9841,
      "xua": 9842,
      "roma": 9843,
      "phili": 9844,
      "cskh": 9845,
      "marti": 9846,
      "mount": 9847,
      "dna": 9848,
      "source": 9849,
      ".,": 9850,
      "hẫng": 9851,
      "nhọn": 9852,
      "phả": 9853,
      "saka": 9854,
      "luffy": 9855,
      "bảnh": 9856,
      "trẻo": 9857,
      "chóa": 9858,
      "lego": 9859,
      "filter": 9860,
      "english": 9861,
      "glc": 9862,
      "pixel": 9863,
      "750": 9864,
      "hớ": 9865,
      "uất": 9866,
      "vali": 9867,
      "nhải": 9868,
      "khọ": 9869,
      "##led": 9870,
      "##eti": 9871,
      "chóp": 9872,
      "nokia": 9873,
      "víu": 9874,
      "vietcombank": 9875,
      "metro": 9876,
      "nex": 9877,
      "tủy": 9878,
      "auba": 9879,
      "lat": 9880,
      "nầy": 9881,
      "tel": 9882,
      "tâng": 9883,
      "vh": 9884,
      "##xd": 9885,
      "nhê": 9886,
      "nhâm": 9887,
      "hotel": 9888,
      "thuỵ": 9889,
      "co2": 9890,
      "coach": 9891,
      "anim": 9892,
      "maifen": 9893,
      "155": 9894,
      "manc": 9895,
      "delux": 9896,
      "lảm": 9897,
      "overr": 9898,
      "a7": 9899,
      "dầy": 9900,
      "nar": 9901,
      "opt": 9902,
      "rắm": 9903,
      "v2": 9904,
      "##zy": 9905,
      "##gas": 9906,
      "lày": 9907,
      "choke": 9908,
      "unlock": 9909,
      "4000": 9910,
      "##ieu": 9911,
      "battle": 9912,
      "gea": 9913,
      "7km": 9914,
      "ira": 9915,
      "đẹt": 9916,
      "ộp": 9917,
      "##vy": 9918,
      "khư": 9919,
      "kotex": 9920,
      "saudi": 9921,
      "happy": 9922,
      "##ndai": 9923,
      "raider": 9924,
      "##tify": 9925,
      "done": 9926,
      "ebook": 9927,
      "fm": 9928,
      "vọc": 9929,
      "##bs": 9930,
      "##ểng": 9931,
      "##õng": 9932,
      "phôi": 9933,
      "nghê": 9934,
      "cold": 9935,
      "dig": 9936,
      "cac": 9937,
      "pod": 9938,
      "quýt": 9939,
      "sonet": 9940,
      "=]]]": 9941,
      "800tr": 9942,
      "truồng": 9943,
      "lmao": 9944,
      "cọp": 9945,
      "freelancer": 9946,
      "dortmund": 9947,
      "hễ": 9948,
      "nah": 9949,
      "plot": 9950,
      "đấng": 9951,
      "##ock": 9952,
      "true": 9953,
      "luc": 9954,
      "thiển": 9955,
      "##ema": 9956,
      "ark": 9957,
      ",...)": 9958,
      "total": 9959,
      "layoff": 9960,
      "khọm": 9961,
      "1l": 9962,
      "3g": 9963,
      "bụp": 9964,
      "f3": 9965,
      "ry": 9966,
      "##sch": 9967,
      "cót": 9968,
      "hayuki": 9969,
      "##ima": 9970,
      "huaw": 9971,
      "forex": 9972,
      "amd": 9973,
      "amer": 9974,
      "!!!!": 9975,
      "##express": 9976,
      "astra": 9977,
      "beef": 9978,
      "torrent": 9979,
      "freeship": 9980,
      "zombie": 9981,
      "gal": 9982,
      "mịt": 9983,
      "ow": 9984,
      "##củ": 9985,
      "chùm": 9986,
      "ngấy": 9987,
      "tuchel": 9988,
      "fuk": 9989,
      "beck": 9990,
      "stt": 9991,
      "btw": 9992,
      "2k2": 9993,
      "great": 9994,
      "yoga": 9995,
      "year": 9996,
      "helpdesk": 9997,
      "-.-": 9998,
      "79": 9999,
      "ase": 10000,
      "aqua": 10001,
      "famil": 10002,
      "gpt": 10003,
      "hiên": 10004,
      "lị": 10005,
      "mếu": 10006,
      "nang": 10007,
      "qg": 10008,
      "táp": 10009,
      "##quy": 10010,
      "chổi": 10011,
      "khanh": 10012,
      "town": 10013,
      "tick": 10014,
      "hàu": 10015,
      "side": 10016,
      "huyndai": 10017,
      "hud": 10018,
      "vincom": 10019,
      "2k5": 10020,
      "orc": 10021,
      "newbie": 10022,
      "tncn": 10023,
      "self": 10024,
      "obg": 10025,
      "mg5": 10026,
      "ngừoi": 10027,
      "73": 10028,
      "fim": 10029,
      "mỉ": 10030,
      "pla": 10031,
      "xéo": 10032,
      "##men": 10033,
      "##ẽn": 10034,
      "thiến": 10035,
      "chẻ": 10036,
      "nhăm": 10037,
      "##try": 10038,
      "chuộc": 10039,
      "buốt": 10040,
      "##alth": 10041,
      "hãn": 10042,
      "40t": 10043,
      "tester": 10044,
      "vđv": 10045,
      "games": 10046,
      "##****": 10047,
      "charge": 10048,
      "huawei": 10049,
      "++": 10050,
      "bừng": 10051,
      "bka": 10052,
      "f12": 10053,
      "naru": 10054,
      "rặn": 10055,
      "wall": 10056,
      "##made": 10057,
      "##oy": 10058,
      "##200": 10059,
      "chít": 10060,
      "nhẩy": 10061,
      "khẩy": 10062,
      "##life": 10063,
      "dep": 10064,
      "365": 10065,
      "ranger": 10066,
      "paypal": 10067,
      "harry": 10068,
      "photoshop": 10069,
      "sirius": 10070,
      "hazard": 10071,
      "%)": 10072,
      "gọt": 10073,
      "sào": 10074,
      "water": 10075,
      "ùi": 10076,
      "đag": 10077,
      "ắc": 10078,
      "##nk": 10079,
      "##uan": 10080,
      "khờ": 10081,
      "cóng": 10082,
      "##ento": 10083,
      "trick": 10084,
      "##sia": 10085,
      "mec": 10086,
      "respect": 10087,
      "japan": 10088,
      "đệch": 10089,
      "lòe": 10090,
      "$/": 10091,
      ")...": 10092,
      "eq": 10093,
      "hero": 10094,
      "nực": 10095,
      "q9": 10096,
      "xổi": 10097,
      "##hd": 10098,
      "##67": 10099,
      "phách": 10100,
      "rash": 10101,
      "cus": 10102,
      "quyến": 10103,
      "vnđ": 10104,
      "impl": 10105,
      "hacker": 10106,
      "everest": 10107,
      "kdb": 10108,
      "xsr": 10109,
      "product": 10110,
      "uet": 10111,
      "##cast": 10112,
      "##lor": 10113,
      "hoắc": 10114,
      "ngoi": 10115,
      "1000km": 10116,
      "bac": 10117,
      "##come": 10118,
      "500km": 10119,
      "jota": 10120,
      "container": 10121,
      "boxing": 10122,
      "syste": 10123,
      "microsoft": 10124,
      "champion": 10125,
      "asean": 10126,
      "84": 10127,
      "bửa": 10128,
      "mama": 10129,
      "rôi": 10130,
      "sùi": 10131,
      "##sc": 10132,
      "##iu": 10133,
      "##ye": 10134,
      "##lhc": 10135,
      "##0000": 10136,
      "take": 10137,
      "##ller": 10138,
      "##oun": 10139,
      "bd3": 10140,
      "will": 10141,
      "binz": 10142,
      "alien": 10143,
      "lotte": 10144,
      "76": 10145,
      "jan": 10146,
      "mống": 10147,
      "mend": 10148,
      "ner": 10149,
      "room": 10150,
      "sjc": 10151,
      "x4": 10152,
      "##gue": 10153,
      "ngãi": 10154,
      "fab": 10155,
      "goal": 10156,
      "adn": 10157,
      "disney": 10158,
      "gear": 10159,
      "82": 10160,
      "bam": 10161,
      "lăm": 10162,
      "lốn": 10163,
      "rọ": 10164,
      "vel": 10165,
      "##ving": 10166,
      "##sp": 10167,
      "gio": 10168,
      "cụp": 10169,
      "season": 10170,
      "đtqg": 10171,
      "avt": 10172,
      "lún": 10173,
      "redmi": 10174,
      "casio": 10175,
      "wenbie": 10176,
      "băn": 10177,
      "cằm": 10178,
      "cent": 10179,
      "dơi": 10180,
      "lé": 10181,
      "mọ": 10182,
      "riêu": 10183,
      "đúp": 10184,
      "##mn": 10185,
      "##mas": 10186,
      "sar": 10187,
      "ini": 10188,
      "200km": 10189,
      "##rist": 10190,
      "mex": 10191,
      "pres": 10192,
      "cnc": 10193,
      "signature": 10194,
      "engineer": 10195,
      "alvarez": 10196,
      ".​": 10197,
      "5đ": 10198,
      "pages": 10199,
      "vằn": 10200,
      "ze": 10201,
      "zồi": 10202,
      "##kai": 10203,
      "##ăc": 10204,
      "nhứt": 10205,
      "hiu": 10206,
      "##aly": 10207,
      "thoy": 10208,
      "thoai": 10209,
      "diam": 10210,
      "30m": 10211,
      "michel": 10212,
      "medi": 10213,
      "flag": 10214,
      "express": 10215,
      "spotify": 10216,
      "naruto": 10217,
      ",.": 10218,
      "g7": 10219,
      "kfc": 10220,
      "mh": 10221,
      "mó": 10222,
      "nẻ": 10223,
      "vde": 10224,
      "##nm": 10225,
      "nhõi": 10226,
      "ngoặc": 10227,
      "she": 10228,
      "200m": 10229,
      "spor": 10230,
      "##code": 10231,
      "##old": 10232,
      "170": 10233,
      "grand": 10234,
      "smartkey": 10235,
      "player": 10236,
      "seagame": 10237,
      "martial": 10238,
      "family": 10239,
      "system": 10240,
      "3s": 10241,
      "=)": 10242,
      "ams": 10243,
      "bor": 10244,
      "lk": 10245,
      "pic": 10246,
      "rứa": 10247,
      "xèo": 10248,
      "zơ": 10249,
      "zập": 10250,
      "ừm": 10251,
      "##ken": 10252,
      "##õa": 10253,
      "chội": 10254,
      "trồi": 10255,
      "nghen": 10256,
      "##00km": 10257,
      "vnvc": 10258,
      "thiago": 10259,
      "kít": 10260,
      "roman": 10261,
      "background": 10262,
      "##hope": 10263,
      "bkav": 10264,
      ":-": 10265,
      "bnh": 10266,
      "dãn": 10267,
      "f2": 10268,
      "gã": 10269,
      "mlem": 10270,
      "won": 10271,
      "##ness": 10272,
      "##base": 10273,
      "thày": 10274,
      "nhma": 10275,
      "##uyen": 10276,
      "##ena": 10277,
      "khiêu": 10278,
      "##eline": 10279,
      "night": 10280,
      "blđ": 10281,
      "hdd": 10282,
      "feng": 10283,
      "nsx": 10284,
      "lyrics": 10285,
      "stock": 10286,
      "iraq": 10287,
      "06": 10288,
      "bêu": 10289,
      "cữ": 10290,
      "dj": 10291,
      "dsk": 10292,
      "gươm": 10293,
      "mích": 10294,
      "nail": 10295,
      "sến": 10296,
      "tút": 10297,
      "xít": 10298,
      "đé": 10299,
      "##taro": 10300,
      "##zu": 10301,
      "trỏ": 10302,
      "phd": 10303,
      "gieo": 10304,
      "quơ": 10305,
      "nài": 10306,
      "chiêm": 10307,
      "volv": 10308,
      "##ashi": 10309,
      "líp": 10310,
      "1m2": 10311,
[...]
