{
  "version": "1.0",
  "truncation": {
    "direction": "Right",
    "max_length": 160,
    "strategy": "LongestFirst",
    "stride": 0
  },
  "padding": {
    "strategy": {
      "Fixed": 160
    },
    "direction": "Right",
    "pad_to_multiple_of": null,
    "pad_id": 0,
    "pad_type_id": 0,
    "pad_token": "[PAD]"
  },
  "added_tokens": [
    {
      "id": 0,
      "content": "[PAD]",
      "single_word": false,
      "lstrip": false,
      "rstrip": false,
      "normalized": false,
      "special": true
    },
    {
      "id": 1,
      "content": "[UNK]",
      "single_word": false,
      "lstrip": false,
      "rstrip": false,
      "normalized": false,
      "special": true
    },
    {
      "id": 2,
      "content": "[CLS]",
      "single_word": false,
      "lstrip": false,
      "rstrip": false,
      "normalized": false,
      "special": true
    },
    {
      "id": 3,
      "content": "[SEP]",
      "single_word": false,
      "lstrip": false,
      "rstrip": false,
      "normalized": false,
      "special": true
    },
    {
      "id": 4,
      "content": "[MASK]",
      "single_word": false,
      "lstrip": false,
      "rstrip": false,
      "normalized": false,
      "special": true
    }
  ],
  "normalizer": {
    "type": "Sequence",
    "normalizers": [
      {
        "type": "NFKC"
      },
      {
        "type": "Lowercase"
      }
    ]
  },
  "pre_tokenizer": {
    "type": "Whitespace"
  },
  "post_processor": {
    "type": "TemplateProcessing",
    "single": [
      {
        "SpecialToken": {
          "id": "[CLS]",
          "type_id": 0
        }
      },
      {
        "Sequence": {
          "id": "A",
          "type_id": 0
        }
      },
      {
        "SpecialToken": {
          "id": "[SEP]",
          "type_id": 0
        }
      }
    ],
    "pair": [
      {
        "SpecialToken": {
          "id": "[CLS]",
          "type_id": 0
        }
      },
      {
        "Sequence": {
          "id": "A",
          "type_id": 0
        }
      },
      {
        "SpecialToken": {
          "id": "[SEP]",
          "type_id": 0
        }
      },
      {
        "Sequence": {
          "id": "B",
          "type_id": 1
        }
      },
      {
        "SpecialToken": {
          "id": "[SEP]",
          "type_id": 1
        }
      }
    ],
    "special_tokens": {
      "[CLS]": {
        "id": "[CLS]",
        "ids": [
          2
        ],
        "tokens": [
          "[CLS]"
        ]
      },
      "[SEP]": {
        "id": "[SEP]",
        "ids": [
          3
        ],
        "tokens": [
          "[SEP]"
        ]
      }
    }
  },
  "decoder": null,
  "model": {
    "type": "WordPiece",
    "unk_token": "[UNK]",
    "continuing_subword_prefix": "##",
    "max_input_chars_per_word": 100,
    "vocab": {
      "[PAD]": 0,
      "[UNK]": 1,
      "[CLS]": 2,
      "[SEP]": 3,
      "[MASK]": 4,
      "!": 5,
      "\"": 6,
      "#": 7,
      "$": 8,
      "%": 9,
      "&": 10,
      "'": 11,
      "(": 12,
      ")": 13,
      "*": 14,
      "+": 15,
      ",": 16,
      "-": 17,
      ".": 18,
      "/": 19,
      "0": 20,
      "1": 21,
      "2": 22,
      "3": 23,
      "4": 24,
      "5": 25,
      "6": 26,
      "7": 27,
      "8": 28,
      "9": 29,
      ":": 30,
      ";": 31,
      "<": 32,
      "=": 33,
      ">": 34,
      "?": 35,
      "@": 36,
      "[": 37,
      "\\": 38,
      "]": 39,
      "^": 40,
      "_": 41,
      "`": 42,
      "a": 43,
      "b": 44,
      "c": 45,
      "d": 46,
      "e": 47,
      "f": 48,
      "g": 49,
      "h": 50,
      "i": 51,
      "j": 52,
      "k": 53,
      "l": 54,
      "m": 55,
      "n": 56,
      "o": 57,
      "p": 58,
      "q": 59,
      "r": 60,
      "s": 61,
      "t": 62,
      "u": 63,
      "v": 64,
      "w": 65,
      "x": 66,
      "y": 67,
      "z": 68,
      "{": 69,
      "|": 70,
      "}": 71,
      "~": 72,
      "¢": 73,
      "£": 74,
      "¥": 75,
      "©": 76,
      "¬": 77,
      "®": 78,
      "°": 79,
      "·": 80,
      "¿": 81,
      "×": 82,
      "ß": 83,
      "à": 84,
      "á": 85,
      "â": 86,
      "ã": 87,
      "ä": 88,
      "æ": 89,
      "ç": 90,
      "è": 91,
      "é": 92,
      "ê": 93,
      "ì": 94,
      "í": 95,
      "ð": 96,
      "ñ": 97,
      "ò": 98,
      "ó": 99,
      "ô": 100,
      "õ": 101,
      "ö": 102,
      "÷": 103,
      "ø": 104,
      "ù": 105,
      "ú": 106,
      "ü": 107,
      "ý": 108,
      "ă": 109,
      "ć": 110,
      "č": 111,
      "đ": 112,
      "ĩ": 113,
      "ō": 114,
      "š": 115,
      "ũ": 116,
      "ơ": 117,
      "ƪ": 118,
      "ư": 119,
      "ǹ": 120,
      "ʃ": 121,
      "̀": 122,
      "́": 123,
      "̃": 124,
      "̄": 125,
      "̆": 126,
      "̊": 127,
      "α": 128,
      "λ": 129,
      "μ": 130,
      "π": 131,
      "ς": 132,
      "σ": 133,
      "τ": 134,
      "ψ": 135,
      "ω": 136,
      "а": 137,
      "д": 138,
      "е": 139,
      "и": 140,
      "к": 141,
      "л": 142,
      "м": 143,
      "н": 144,
      "о": 145,
      "р": 146,
      "с": 147,
      "т": 148,
      "у": 149,
      "ч": 150,
      "ш": 151,
      "ы": 152,
      "ь": 153,
      "э": 154,
      "أ": 155,
      "ا": 156,
      "ب": 157,
      "ة": 158,
      "ت": 159,
      "ج": 160,
      "د": 161,
      "ذ": 162,
      "ع": 163,
      "غ": 164,
      "ق": 165,
      "ك": 166,
      "ل": 167,
      "م": 168,
      "ن": 169,
      "ه": 170,
      "ي": 171,
      "ಠ": 172,
      "ก": 173,
      "ง": 174,
      "ด": 175,
      "ต": 176,
      "น": 177,
      "บ": 178,
      "ม": 179,
      "ย": 180,
      "ว": 181,
      "ส": 182,
      "ห": 183,
      "ั": 184,
      "า": 185,
      "ี": 186,
      "ุ": 187,
      "เ": 188,
      "ไ": 189,
      "้": 190,
      "༼": 191,
      "༽": 192,
      "ᅠ": 193,
      "឴": 194,
      "ạ": 195,
      "ả": 196,
      "ấ": 197,
      "ầ": 198,
      "ẩ": 199,
      "ẫ": 200,
      "ậ": 201,
      "ắ": 202,
      "ằ": 203,
      "ẳ": 204,
      "ẵ": 205,
      "ặ": 206,
      "ẹ": 207,
      "ẻ": 208,
      "ẽ": 209,
      "ế": 210,
      "ề": 211,
      "ể": 212,
      "ễ": 213,
      "ệ": 214,
      "ỉ": 215,
      "ị": 216,
      "ọ": 217,
      "ỏ": 218,
      "ố": 219,
      "ồ": 220,
      "ổ": 221,
      "ỗ": 222,
      "ộ": 223,
      "ớ": 224,
      "ờ": 225,
      "ở": 226,
      "ỡ": 227,
      "ợ": 228,
      "ụ": 229,
      "ủ": 230,
      "ứ": 231,
      "ừ": 232,
      "ử": 233,
      "ữ": 234,
      "ự": 235,
      "ỳ": 236,
      "ỵ": 237,
      "ỷ": 238,
      "ỹ": 239,
      "​": 240,
      "‌": 241,
      "‐": 242,
      "–": 243,
      "—": 244,
      "‘": 245,
      "’": 246,
      "“": 247,
      "”": 248,
      "•": 249,
      "‬": 250,
      "‭": 251,
      "⁠": 252,
      "₫": 253,
      "€": 254,
      "→": 255,
      "⇒": 256,
      "∀": 257,
      "∆": 258,
      "√": 259,
      "∞": 260,
      "≠": 261,
      "≤": 262,
      "≥": 263,
      "⊙": 264,
      "━": 265,
      "┻": 266,
      "╯": 267,
      "□": 268,
      "►": 269,
      "◕": 270,
      "☄": 271,
      "☪": 272,
      "☹": 273,
      "☺": 274,
      "☼": 275,
      "♠": 276,
      "♡": 277,
      "♣": 278,
      "♥": 279,
      "♦": 280,
      "♧": 281,
      "♪": 282,
      "♬": 283,
      "⛹": 284,
      "✈": 285,
      "✌": 286,
      "✍": 287,
      "✿": 288,
      "❝": 289,
      "❞": 290,
      "❤": 291,
      "➡": 292,
      "、": 293,
      "。": 294,
      "〈": 295,
      "〉": 296,
      "《": 297,
      "》": 298,
      "「": 299,
      "」": 300,
      "【": 301,
      "】": 302,
      "〰": 303,
      "あ": 304,
      "い": 305,
      "う": 306,
      "え": 307,
      "お": 308,
      "か": 309,
      "が": 310,
      "き": 311,
      "く": 312,
      "ぐ": 313,
      "こ": 314,
      "ご": 315,
      "さ": 316,
      "ざ": 317,
      "し": 318,
      "す": 319,
      "た": 320,
      "だ": 321,
      "っ": 322,
      "つ": 323,
      "て": 324,
      "と": 325,
      "の": 326,
      "は": 327,
      "ぶ": 328,
      "ま": 329,
      "み": 330,
      "よ": 331,
      "り": 332,
      "わ": 333,
      "を": 334,
      "ん": 335,
      "イ": 336,
      "ゥ": 337,
      "オ": 338,
      "カ": 339,
      "キ": 340,
      "ジ": 341,
      "ス": 342,
      "タ": 343,
      "ッ": 344,
      "ツ": 345,
      "テ": 346,
      "ト": 347,
      "ド": 348,
      "ナ": 349,
      "ネ": 350,
      "ノ": 351,
      "プ": 352,
      "ベ": 353,
      "ペ": 354,
      "ホ": 355,
      "マ": 356,
      "ム": 357,
      "メ": 358,
      "ャ": 359,
      "ラ": 360,
      "リ": 361,
      "ル": 362,
      "レ": 363,
      "ン": 364,
      "・": 365,
      "ー": 366,
      "一": 367,
      "七": 368,
      "万": 369,
      "三": 370,
      "上": 371,
      "下": 372,
      "不": 373,
      "与": 374,
      "且": 375,
      "世": 376,
      "东": 377,
      "个": 378,
      "中": 379,
      "为": 380,
      "主": 381,
      "举": 382,
      "么": 383,
      "之": 384,
      "九": 385,
      "也": 386,
      "乡": 387,
      "书": 388,
      "了": 389,
      "争": 390,
      "二": 391,
      "于": 392,
      "亏": 393,
      "云": 394,
      "五": 395,
      "亚": 396,
      "亡": 397,
      "交": 398,
      "亦": 399,
      "产": 400,
      "京": 401,
      "亮": 402,
      "人": 403,
      "什": 404,
      "仆": 405,
      "从": 406,
      "代": 407,
      "以": 408,
      "仪": 409,
      "伐": 410,
      "众": 411,
      "会": 412,
      "传": 413,
      "伯": 414,
      "住": 415,
      "佐": 416,
      "何": 417,
      "佗": 418,
      "余": 419,
      "你": 420,
      "使": 421,
      "來": 422,
      "供": 423,
      "依": 424,
      "侠": 425,
      "侯": 426,
      "侵": 427,
      "俗": 428,
      "傅": 429,
      "傳": 430,
      "光": 431,
      "入": 432,
      "全": 433,
      "八": 434,
      "六": 435,
      "兮": 436,
      "兵": 437,
      "其": 438,
      "内": 439,
      "再": 440,
      "军": 441,
      "农": 442,
      "冲": 443,
      "凡": 444,
      "出": 445,
      "击": 446,
      "函": 447,
      "凿": 448,
      "分": 449,
      "列": 450,
      "则": 451,
      "初": 452,
      "別": 453,
      "利": 454,
      "前": 455,
      "剑": 456,
      "副": 457,
      "力": 458,
      "務": 459,
      "勾": 460,
      "化": 461,
      "北": 462,
      "区": 463,
      "十": 464,
      "千": 465,
      "华": 466,
      "卑": 467,
      "卒": 468,
      "南": 469,
      "卷": 470,
      "历": 471,
      "厚": 472,
      "原": 473,
      "厷": 474,
      "去": 475,
      "县": 476,
      "又": 477,
      "及": 478,
      "双": 479,
      "収": 480,
      "发": 481,
      "取": 482,
      "口": 483,
      "古": 484,
      "句": 485,
      "可": 486,
      "史": 487,
      "叶": 488,
      "号": 489,
      "司": 490,
      "吁": 491,
      "吃": 492,
      "各": 493,
      "吊": 494,
      "同": 495,
      "名": 496,
      "后": 497,
      "吕": 498,
      "君": 499,
      "吧": 500,
      "吳": 501,
      "吴": 502,
      "吻": 503,
      "呈": 504,
      "呕": 505,
      "周": 506,
      "味": 507,
      "命": 508,
      "和": 509,
      "咖": 510,
      "品": 511,
      "唐": 512,
      "唤": 513,
      "售": 514,
      "商": 515,
      "啡": 516,
      "單": 517,
      "嘉": 518,
      "噐": 519,
      "因": 520,
      "国": 521,
      "國": 522,
      "土": 523,
      "在": 524,
      "地": 525,
      "场": 526,
      "垦": 527,
      "城": 528,
      "域": 529,
      "報": 530,
      "場": 531,
      "墅": 532,
      "墨": 533,
      "壶": 534,
      "夏": 535,
      "外": 536,
      "多": 537,
      "大": 538,
      "天": 539,
      "太": 540,
      "夫": 541,
      "夷": 542,
      "奄": 543,
      "奈": 544,
      "奔": 545,
      "女": 546,
      "好": 547,
      "如": 548,
      "妹": 549,
      "始": 550,
      "姓": 551,
      "姜": 552,
      "姿": 553,
      "子": 554,
      "字": 555,
      "孝": 556,
      "宁": 557,
      "宇": 558,
      "安": 559,
      "宋": 560,
      "宙": 561,
      "定": 562,
      "实": 563,
      "客": 564,
      "害": 565,
      "家": 566,
      "容": 567,
      "寿": 568,
      "封": 569,
      "将": 570,
      "尉": 571,
      "尝": 572,
      "尤": 573,
      "就": 574,
      "居": 575,
      "屈": 576,
      "展": 577,
      "山": 578,
      "岭": 579,
      "岱": 580,
      "峨": 581,
      "崛": 582,
      "嶓": 583,
      "嶺": 584,
      "州": 585,
      "巴": 586,
      "帝": 587,
      "带": 588,
      "常": 589,
      "平": 590,
      "年": 591,
      "幻": 592,
      "幽": 593,
      "庄": 594,
      "庞": 595,
      "度": 596,
      "庫": 597,
      "庸": 598,
      "庾": 599,
      "开": 600,
      "异": 601,
      "引": 602,
      "张": 603,
      "弩": 604,
      "彩": 605,
      "影": 606,
      "得": 607,
      "御": 608,
      "徴": 609,
      "志": 610,
      "怪": 611,
      "悅": 612,
      "情": 613,
      "意": 614,
      "慎": 615,
      "戎": 616,
      "成": 617,
      "我": 618,
      "或": 619,
      "战": 620,
      "截": 621,
      "所": 622,
      "手": 623,
      "技": 624,
      "投": 625,
      "折": 626,
      "拉": 627,
      "拒": 628,
      "拔": 629,
      "招": 630,
      "择": 631,
      "挫": 632,
      "损": 633,
      "接": 634,
      "控": 635,
      "摇": 636,
      "摧": 637,
      "摩": 638,
      "摭": 639,
      "撮": 640,
      "攻": 641,
      "政": 642,
      "救": 643,
      "敗": 644,
      "教": 645,
      "数": 646,
      "文": 647,
      "方": 648,
      "族": 649,
      "日": 650,
      "旧": 651,
      "时": 652,
      "明": 653,
      "昔": 654,
      "星": 655,
      "春": 656,
      "是": 657,
      "時": 658,
      "晚": 659,
      "曰": 660,
      "書": 661,
      "最": 662,
      "月": 663,
      "有": 664,
      "服": 665,
      "朕": 666,
      "朝": 667,
      "未": 668,
      "末": 669,
      "本": 670,
      "术": 671,
      "朴": 672,
      "机": 673,
      "朽": 674,
      "杀": 675,
      "杏": 676,
      "来": 677,
      "格": 678,
      "桂": 679,
      "梅": 680,
      "梧": 681,
      "楚": 682,
      "業": 683,
      "楷": 684,
      "榆": 685,
      "権": 686,
      "武": 687,
      "歳": 688,
      "歸": 689,
      "死": 690,
      "殺": 691,
      "氏": 692,
      "民": 693,
      "氣": 694,
      "水": 695,
      "永": 696,
      "汉": 697,
      "汝": 698,
      "沃": 699,
      "没": 700,
      "河": 701,
      "治": 702,
      "泉": 703,
      "泌": 704,
      "注": 705,
      "泮": 706,
      "泰": 707,
      "测": 708,
      "浮": 709,
      "海": 710,
      "淮": 711,
      "深": 712,
      "淳": 713,
      "渚": 714,
      "渠": 715,
      "温": 716,
      "湿": 717,
      "源": 718,
      "漢": 719,
      "潮": 720,
      "瀏": 721,
      "灭": 722,
      "灵": 723,
      "炎": 724,
      "焉": 725,
      "無": 726,
      "然": 727,
      "煉": 728,
      "熊": 729,
      "版": 730,
      "牛": 731,
      "犯": 732,
      "狄": 733,
      "猫": 734,
      "獄": 735,
      "王": 736,
      "珠": 737,
      "理": 738,
      "璩": 739,
      "瓯": 740,
      "生": 741,
      "用": 742,
      "田": 743,
      "男": 744,
      "甸": 745,
      "留": 746,
      "略": 747,
      "癸": 748,
      "發": 749,
      "白": 750,
      "百": 751,
      "的": 752,
      "皆": 753,
      "皇": 754,
      "皋": 755,
      "皑": 756,
      "盜": 757,
      "目": 758,
      "相": 759,
      "眉": 760,
      "看": 761,
      "県": 762,
      "真": 763,
      "知": 764,
      "石": 765,
      "碓": 766,
      "確": 767,
      "示": 768,
      "社": 769,
      "神": 770,
      "票": 771,
      "离": 772,
      "禽": 773,
      "秋": 774,
      "秦": 775,
      "称": 776,
      "移": 777,
      "稀": 778,
      "種": 779,
      "稽": 780,
      "空": 781,
      "竄": 782,
      "竟": 783,
      "端": 784,
      "竹": 785,
      "笋": 786,
      "等": 787,
      "筑": 788,
      "篆": 789,
      "篇": 790,
      "粤": 791,
      "粮": 792,
      "粵": 793,
      "精": 794,
      "红": 795,
      "纣": 796,
      "约": 797,
      "纳": 798,
      "纽": 799,
      "细": 800,
      "终": 801,
      "绎": 802,
      "经": 803,
      "结": 804,
      "给": 805,
      "统": 806,
      "绩": 807,
      "绳": 808,
      "缘": 809,
      "缪": 810,
      "罗": 811,
      "罪": 812,
      "置": 813,
      "羊": 814,
      "美": 815,
      "考": 816,
      "者": 817,
      "而": 818,
      "能": 819,
      "腴": 820,
      "膏": 821,
      "自": 822,
      "至": 823,
      "與": 824,
      "舞": 825,
      "苍": 826,
      "苗": 827,
      "若": 828,
      "茨": 829,
      "菌": 830,
      "菲": 831,
      "萌": 832,
      "萬": 833,
      "落": 834,
      "葭": 835,
      "蓋": 836,
      "虛": 837,
      "虜": 838,
      "虞": 839,
      "蚩": 840,
      "蛮": 841,
      "蜀": 842,
      "蝴": 843,
      "蝶": 844,
      "融": 845,
      "血": 846,
      "行": 847,
      "術": 848,
      "裔": 849,
      "裳": 850,
      "裸": 851,
      "西": 852,
      "覽": 853,
      "觀": 854,
      "见": 855,
      "览": 856,
      "解": 857,
      "記": 858,
      "証": 859,
      "認": 860,
      "識": 861,
      "讨": 862,
      "训": 863,
      "记": 864,
      "设": 865,
      "译": 866,
      "话": 867,
      "语": 868,
      "诱": 869,
      "说": 870,
      "诸": 871,
      "谓": 872,
      "谕": 873,
      "谢": 874,
      "谥": 875,
      "谱": 876,
      "貌": 877,
      "資": 878,
      "賵": 879,
      "败": 880,
      "质": 881,
      "走": 882,
      "赵": 883,
      "起": 884,
      "越": 885,
      "趾": 886,
      "路": 887,
      "践": 888,
      "轩": 889,
      "转": 890,
      "载": 891,
      "辅": 892,
      "辈": 893,
      "辕": 894,
      "过": 895,
      "还": 896,
      "这": 897,
      "进": 898,
      "退": 899,
      "逆": 900,
      "选": 901,
      "逐": 902,
      "通": 903,
      "逝": 904,
      "逢": 905,
      "逼": 906,
      "遁": 907,
      "遂": 908,
      "遇": 909,
      "過": 910,
      "道": 911,
      "遣": 912,
      "遷": 913,
      "郎": 914,
      "郡": 915,
      "部": 916,
      "都": 917,
      "配": 918,
      "酒": 919,
      "醉": 920,
      "里": 921,
      "金": 922,
      "鋸": 923,
      "鏈": 924,
      "钱": 925,
      "铁": 926,
      "锋": 927,
      "错": 928,
      "長": 929,
      "长": 930,
      "門": 931,
      "関": 932,
      "间": 933,
      "闽": 934,
      "阳": 935,
      "陈": 936,
      "降": 937,
      "限": 938,
      "陽": 939,
      "際": 940,
      "隶": 941,
      "隹": 942,
      "难": 943,
      "雄": 944,
      "集": 945,
      "雒": 946,
      "雨": 947,
      "雩": 948,
      "雪": 949,
      "電": 950,
      "霍": 951,
      "靈": 952,
      "非": 953,
      "韩": 954,
      "音": 955,
      "頂": 956,
      "预": 957,
      "風": 958,
      "食": 959,
      "馬": 960,
      "騅": 961,
      "马": 962,
      "骆": 963,
      "骑": 964,
      "骚": 965,
      "高": 966,
      "鱼": 967,
      "鹿": 968,
      "麗": 969,
      "黄": 970,
      "黎": 971,
      "點": 972,
      "가": 973,
      "감": 974,
      "권": 975,
      "그": 976,
      "기": 977,
      "김": 978,
      "날": 979,
      "남": 980,
      "다": 981,
      "당": 982,
      "도": 983,
      "돈": 984,
      "두": 985,
      "들": 986,
      "듯": 987,
      "딘": 988,
      "떠": 989,
      "라": 990,
      "를": 991,
      "리": 992,
      "면": 993,
      "못": 994,
      "문": 995,
      "박": 996,
      "배": 997,
      "베": 998,
      "복": 999,
      "본": 1000,
      "상": 1001,
      "서": 1002,
      "수": 1003,
      "어": 1004,
      "억": 1005,
      "없": 1006,
      "영": 1007,
      "올": 1008,
      "우": 1009,
      "운": 1010,
      "은": 1011,
      "을": 1012,
      "의": 1013,
      "이": 1014,
      "자": 1015,
      "작": 1016,
      "제": 1017,
      "줘": 1018,
      "짤": 1019,
      "첨": 1020,
      "툰": 1021,
      "트": 1022,
      "한": 1023,
      "할": 1024,
      "화": 1025,
      "": 1026,
      "": 1027,
      "": 1028,
      "️": 1029,
      "￼": 1030,
      "�": 1031,
      "🌡": 1032,
      "🌧": 1033,
      "🌶": 1034,
      "🎙": 1035,
      "🐘": 1036,
      "🕰": 1037,
      "🕵": 1038,
      "🕶": 1039,
      "🗓": 1040,
      "🗡": 1041,
      "🗺": 1042,
      "😎": 1043,
      "🛋": 1044,
      "🛍": 1045,
      "🫨": 1046,
      "##5": 1047,
      "##0": 1048,
      "##đ": 1049,
      "##o": 1050,
      "##v": 1051,
      "##i": 1052,
      "##c": 1053,
      "##h": 1054,
      "##a": 1055,
      "##7": 1056,
      "##1": 1057,
      "##m": 1058,
      "##e": 1059,
      "##d": 1060,
      "##s": 1061,
      "##n": 1062,
      "##g": 1063,
      "##u": 1064,
      "##k": 1065,
      "##t": 1066,
      "##q": 1067,
      "##l": 1068,
      "##ữ": 1069,
      "##ạ": 1070,
      "##2": 1071,
      "##r": 1072,
      "##4": 1073,
      "##6": 1074,
      "##z": 1075,
      "##ó": 1076,
      "##x": 1077,
      "##b": 1078,
      "##ầ": 1079,
      "##y": 1080,
      "##f": 1081,
      "##ờ": 1082,
      "##p": 1083,
      "##3": 1084,
      "##ấ": 1085,
      "##é": 1086,
      "##w": 1087,
      "##ỉ": 1088,
      "##j": 1089,
      "##^": 1090,
      "##ị": 1091,
      "##9": 1092,
      "##ư": 1093,
      "##ỡ": 1094,
      "##ô": 1095,
      "##á": 1096,
      "##ả": 1097,
      "##í": 1098,
      "##ỵ": 1099,
      "##ủ": 1100,
      "##ợ": 1101,
      "##à": 1102,
      "##ệ": 1103,
      "##ũ": 1104,
      "##ễ": 1105,
      "##ồ": 1106,
      "##8": 1107,
      "##ẹ": 1108,
      "##ơ": 1109,
      "##ắ": 1110,
      "##ổ": 1111,
      "##ậ": 1112,
      "##ò": 1113,
      "##ử": 1114,
      "##ă": 1115,
      "##ê": 1116,
      "##ằ": 1117,
      "##ặ": 1118,
      "##子": 1119,
      "##マ": 1120,
      "##ネ": 1121,
      "##ー": 1122,
      "##ẫ": 1123,
      "##ã": 1124,
      "##,": 1125,
      "##~": 1126,
      "##!": 1127,
      "##ọ": 1128,
      "##ì": 1129,
      "##ừ": 1130,
      "##ứ": 1131,
      "##ớ": 1132,
      "##.": 1133,
      "##ế": 1134,
      "##ẩ": 1135,
      "##ú": 1136,
      "##ộ": 1137,
      "##于": 1138,
      "##白": 1139,
      "##鹿": 1140,
      "##山": 1141,
      "##ở": 1142,
      "##ù": 1143,
      "##遁": 1144,
      "##走": 1145,
      "##ề": 1146,
      "##ố": 1147,
      "##ẽ": 1148,
      "##ẻ": 1149,
      "##â": 1150,
      "##/": 1151,
      "##ụ": 1152,
      "##ỷ": 1153,
      "##]": 1154,
      "##ể": 1155,
      "##?": 1156,
      "##ỗ": 1157,
      "##*": 1158,
      "##ự": 1159,
      "##经": 1160,
      "##_": 1161,
      "##ĩ": 1162,
      "##越": 1163,
      "##列": 1164,
      "##传": 1165,
      "##王": 1166,
      "##蜀": 1167,
      "##十": 1168,
      "##二": 1169,
      "##世": 1170,
      "##\"": 1171,
      "##ẳ": 1172,
      "##'": 1173,
      "##)": 1174,
      "##​": 1175,
      "##ä": 1176,
      "##ỏ": 1177,
      "##è": 1178,
      "##=": 1179,
      "##>": 1180,
      "##-": 1181,
      "##为": 1182,
      "##什": 1183,
      "##么": 1184,
      "##历": 1185,
      "##了": 1186,
      "##一": 1187,
      "##千": 1188,
      "##多": 1189,
      "##年": 1190,
      "##的": 1191,
      "##统": 1192,
      "##治": 1193,
      "##阳": 1194,
      "##有": 1195,
      "##神": 1196,
      "##人": 1197,
      "##皋": 1198,
      "##通": 1199,
      "##ý": 1200,
      "##õ": 1201,
      "##西": 1202,
      "##瓯": 1203,
      "##骆": 1204,
      "##裸": 1205,
      "##国": 1206,
      "##亦": 1207,
      "##称": 1208,
      "##碓": 1209,
      "##“": 1210,
      "##у": 1211,
      "##ỳ": 1212,
      "##、": 1213,
      "##月": 1214,
      "##み": 1215,
      "##こ": 1216,
      "##:": 1217,
      "##<": 1218,
      "##夫": 1219,
      "##ỹ": 1220,
      "##\\": 1221,
      "##}": 1222,
      "##注": 1223,
      "##引": 1224,
      "##生": 1225,
      "##$": 1226,
      "##温": 1227,
      "##手": 1228,
      "##冲": 1229,
      "##壶": 1230,
      "##ć": 1231,
      "##辅": 1232,
      "##佐": 1233,
      "##狄": 1234,
      "##之": 1235,
      "##美": 1236,
      "##者": 1237,
      "##撮": 1238,
      "##影": 1239,
      "##会": 1240,
      "##@": 1241,
      "##岱": 1242,
      "##依": 1243,
      "##우": 1244,
      "##면": 1245,
      "##与": 1246,
      "##焉": 1247,
      "##(": 1248,
      "##〈": 1249,
      "##以": 1250,
      "##幻": 1251,
      "##术": 1252,
      "##服": 1253,
      "##诸": 1254,
      "##部": 1255,
      "##落": 1256,
      "##”": 1257,
      "##地": 1258,
      "##雒": 1259,
      "##田": 1260,
      "##古": 1261,
      "##來": 1262,
      "##稀": 1263,
      "##趾": 1264,
      "##昔": 1265,
      "##未": 1266,
      "##郡": 1267,
      "##县": 1268,
      "##时": 1269,
      "##何": 1270,
      "##难": 1271,
      "##同": 1272,
      "##化": 1273,
      "##ว": 1274,
      "##ั": 1275,
      "##ส": 1276,
      "##ด": 1277,
      "##ี": 1278,
      "##+": 1279,
      "##售": 1280,
      "##东": 1281,
      "##闽": 1282,
      "##众": 1283,
      "##号": 1284,
      "##ü": 1285,
      "##場": 1286,
      "##出": 1287,
      "##其": 1288,
      "##非": 1289,
      "##意": 1290,
      "##[": 1291,
      "##឴": 1292,
      "##ẵ": 1293,
      "##里": 1294,
      "##大": 1295,
      "##张": 1296,
      "##仪": 1297,
      "##イ": 1298,
      "##キ": 1299,
      "##ジ": 1300,
      "##ャ": 1301,
      "##ス": 1302,
      "##ト": 1303,
      "##ド": 1304,
      "##ゥ": 1305,
      "##ッ": 1306,
      "##击": 1307,
      "##鏈": 1308,
      "##梧": 1309,
      "##甸": 1310,
      "##幽": 1311,
      "##靈": 1312,
      "##集": 1313,
      "##;": 1314,
      "##‘": 1315,
      "##相": 1316,
      "##安": 1317,
      "##等": 1318,
      "##行": 1319,
      "##看": 1320,
      "##取": 1321,
      "##敗": 1322,
      "##虛": 1323,
      "##本": 1324,
      "##吴": 1325,
      "##ب": 1326,
      "##ي": 1327,
      "##發": 1328,
      "##萬": 1329,
      "##死": 1330,
      "##₫": 1331,
      "##딘": 1332,
      "##가": 1333,
      "##은": 1334,
      "##а": 1335,
      "##ς": 1336,
      "##♪": 1337,
      "##어": 1338,
      "##서": 1339,
      "##战": 1340,
      "##ん": 1341,
      "##す": 1342,
      "##う": 1343,
      "##た": 1344,
      "##し": 1345,
      "##黎": 1346,
      "##族": 1347,
      "##始": 1348,
      "##终": 1349,
      "##不": 1350,
      "##能": 1351,
      "##南": 1352,
      "##|": 1353,
      "##拉": 1354,
      "##熊": 1355,
      "##绎": 1356,
      "##楚": 1357,
      "##蛮": 1358,
      "##¬": 1359,
      "###": 1360,
      "##红": 1361,
      "##彩": 1362,
      "##家": 1363,
      "##門": 1364,
      "##谓": 1365,
      "##百": 1366,
      "##æ": 1367,
      "##리": 1368,
      "##자": 1369,
      "##文": 1370,
      "##郎": 1371,
      "##夷": 1372,
      "##プ": 1373,
      "##ラ": 1374,
      "##ム": 1375,
      "##罪": 1376,
      "##书": 1377,
      "##š": 1378,
      "##朝": 1379,
      "##君": 1380,
      "##长": 1381,
      "##曰": 1382,
      "##雄": 1383,
      "##民": 1384,
      "##姓": 1385,
      "##庾": 1386,
      "##尤": 1387,
      "##去": 1388,
      "##л": 1389,
      "##ь": 1390,
      "##志": 1391,
      "##名": 1392,
      "##诱": 1393,
      "##社": 1394,
      "##長": 1395,
      "##兮": 1396,
      "##虞": 1397,
      "##奈": 1398,
      "##若": 1399,
      "##逝": 1400,
      "##可": 1401,
      "##置": 1402,
      "##这": 1403,
      "##话": 1404,
      "##高": 1405,
      "##苗": 1406,
      "##裔": 1407,
      "##は": 1408,
      "##よ": 1409,
      "##ご": 1410,
      "##ざ": 1411,
      "##い": 1412,
      "##ま": 1413,
      "##戎": 1414,
      "##将": 1415,
      "##膏": 1416,
      "##腴": 1417,
      "##雪": 1418,
      "##ナ": 1419,
      "##の": 1420,
      "##ン": 1421,
      "##タ": 1422,
      "##メ": 1423,
      "##̀": 1424,
      "##入": 1425,
      "##命": 1426,
      "##拒": 1427,
      "##`": 1428,
      "##馬": 1429,
      "##遷": 1430,
      "##歸": 1431,
      "##報": 1432,
      "##佗": 1433,
      "##ذ": 1434,
      "##ه": 1435,
      "##还": 1436,
      "##考": 1437,
      "##过": 1438,
      "##外": 1439,
      "##利": 1440,
      "##騅": 1441,
      "##風": 1442,
      "##辈": 1443,
      "##定": 1444,
      "##遇": 1445,
      "##见": 1446,
      "##你": 1447,
      "##平": 1448,
      "##御": 1449,
      "##览": 1450,
      "##垦": 1451,
      "##食": 1452,
      "##ñ": 1453,
      "##客": 1454,
      "##別": 1455,
      "##墅": 1456,
      "##н": 1457,
      "##и": 1458,
      "##т": 1459,
      "##к": 1460,
      "##—": 1461,
      "##을": 1462,
      "##慎": 1463,
      "##五": 1464,
      "##秋": 1465,
      "##知": 1466,
      "##識": 1467,
      "##%": 1468,
      "##&": 1469,
      "##氏": 1470,
      "##渠": 1471,
      "##е": 1472,
      "##м": 1473,
      "##带": 1474,
      "##粵": 1475,
      "##ƪ": 1476,
      "##트": 1477,
      "##남": 1478,
      "##尉": 1479,
      "##墨": 1480,
      "##从": 1481,
      "##石": 1482,
      "##牛": 1483,
      "##道": 1484,
      "##伐": 1485,
      "##운": 1486,
      "##다": 1487,
      "##帝": 1488,
      "##ل": 1489,
      "##ج": 1490,
      "##م": 1491,
      "##ة": 1492,
      "##理": 1493,
      "##記": 1494,
      "##末": 1495,
      "##泮": 1496,
      "##所": 1497,
      "##逐": 1498,
      "##而": 1499,
      "##代": 1500,
      "##도": 1501,
      "##確": 1502,
      "##認": 1503,
      "##也": 1504,
      "##中": 1505,
      "##谥": 1506,
      "##ุ": 1507,
      "##้": 1508,
      "##ง": 1509,
      "##เ": 1510,
      "##ต": 1511,
      "##น": 1512,
      "##金": 1513,
      "##控": 1514,
      "##纣": 1515,
      "##句": 1516,
      "##☹": 1517,
      "##记": 1518,
      "##朽": 1519,
      "##剑": 1520,
      "##空": 1521,
      "##精": 1522,
      "##灵": 1523,
      "##崛": 1524,
      "##起": 1525,
      "##날": 1526,
      "##두": 1527,
      "##摩": 1528,
      "##榆": 1529,
      "##水": 1530,
      "##自": 1531,
      "##葭": 1532,
      "##萌": 1533,
      "##侯": 1534,
      "##数": 1535,
      "##岭": 1536,
      "##상": 1537,
      "##할": 1538,
      "##’": 1539,
      "##ن": 1540,
      "##ك": 1541,
      "##个": 1542,
      "##没": 1543,
      "##救": 1544,
      "##主": 1545,
      "##霍": 1546,
      "##格": 1547,
      "##沃": 1548,
      "##茨": 1549,
      "##{": 1550,
      "##ᅠ": 1551,
      "##菌": 1552,
      "##六": 1553,
      "##九": 1554,
      "##海": 1555,
      "##梅": 1556,
      "##奔": 1557,
      "##竄": 1558,
      "##권": 1559,
      "##ö": 1560,
      "##味": 1561,
      "##篇": 1562,
      "##雩": 1563,
      "##教": 1564,
      "##え": 1565,
      "##て": 1566,
      "##頂": 1567,
      "##き": 1568,
      "##区": 1569,
      "##殺": 1570,
      "##三": 1571,
      "##绩": 1572,
      "##光": 1573,
      "##菲": 1574,
      "##陽": 1575,
      "##툰": 1576,
      "##無": 1577,
      "##星": 1578,
      "##晚": 1579,
      "##载": 1580,
      "##摇": 1581,
      "##桂": 1582,
      "##♬": 1583,
      "##皇": 1584,
      "##裳": 1585,
      "##逆": 1586,
      "##虜": 1587,
      "##侵": 1588,
      "##犯": 1589,
      "##╯": 1590,
      "##°": 1591,
      "##马": 1592,
      "##错": 1593,
      "##接": 1594,
      "##朴": 1595,
      "##姜": 1596,
      "##￼": 1597,
      "##亏": 1598,
      "##吳": 1599,
      "##八": 1600,
      "##示": 1601,
      "##あ": 1602,
      "##り": 1603,
      "##が": 1604,
      "##と": 1605,
      "##화": 1606,
      "##를": 1607,
      "##━": 1608,
      "##┻": 1609,
      "##癸": 1610,
      "##ル": 1611,
      "##カ": 1612,
      "##リ": 1613,
      "##农": 1614,
      "##제": 1615,
      "##妹": 1616,
      "##初": 1617,
      "##成": 1618,
      "##ホ": 1619,
      "##テ": 1620,
      "##唐": 1621,
      "##夏": 1622,
      "##解": 1623,
      "##字": 1624,
      "##摭": 1625,
      "##怪": 1626,
      "##间": 1627,
      "##寿": 1628,
      "##。": 1629,
      "##巴": 1630,
      "##用": 1631,
      "##细": 1632,
      "##口": 1633,
      "##咖": 1634,
      "##啡": 1635,
      "##上": 1636,
      "##呈": 1637,
      "##汉": 1638,
      "##武": 1639,
      "##秦": 1640,
      "##军": 1641,
      "##害": 1642,
      "##得": 1643,
      "##太": 1644,
      "##逼": 1645,
      "##真": 1646,
      "##️": 1647,
      "##春": 1648,
      "##绳": 1649,
      "##政": 1650,
      "##첨": 1651,
      "##京": 1652,
      "##侠": 1653,
      "##情": 1654,
      "##缘": 1655,
      "##伯": 1656,
      "##庸": 1657,
      "##《": 1658,
      "##内": 1659,
      "##测": 1660,
      "##版": 1661,
      "##分": 1662,
      "##皑": 1663,
      "##前": 1664,
      "##给": 1665,
      "##我": 1666,
      "##∀": 1667,
      "##谱": 1668,
      "##移": 1669,
      "##至": 1670,
      "##机": 1671,
      "##天": 1672,
      "##猫": 1673,
      "##周": 1674,
      "##余": 1675,
      "##들": 1676,
      "##의": 1677,
      "##兵": 1678,
      "##万": 1679,
      "##讨": 1680,
      "##歳": 1681,
      "##♦": 1682,
      "##♠": 1683,
      "##♥": 1684,
      "##麗": 1685,
      "##單": 1686,
      "##舞": 1687,
      "##深": 1688,
      "##降": 1689,
      "##女": 1690,
      "##眉": 1691,
      "##珠": 1692,
      "##悅": 1693,
      "##貌": 1694,
      "##ع": 1695,
      "##ت": 1696,
      "##ق": 1697,
      "##د": 1698,
      "##退": 1699,
      "##史": 1700,
      "##略": 1701,
      "##然": 1702,
      "##在": 1703,
      "##書": 1704,
      "##ç": 1705,
      "##❤": 1706,
      "##醉": 1707,
      "##蝴": 1708,
      "##蝶": 1709,
      "##奄": 1710,
      "##峨": 1711,
      "##嶓": 1712,
      "##璩": 1713,
      "##勾": 1714,
      "##践": 1715,
      "##尝": 1716,
      "##遣": 1717,
      "##使": 1718,
      "##来": 1719,
      "##谕": 1720,
      "##配": 1721,
      "##っ": 1722,
      "##く": 1723,
      "##だ": 1724,
      "##さ": 1725,
      "##宙": 1726,
      "##渚": 1727,
      "##×": 1728,
      "##∆": 1729,
      "##©": 1730,
      "##®": 1731,
      "##品": 1732,
      "##р": 1733,
      "##弩": 1734,
      "##折": 1735,
      "##挫": 1736,
      "##实": 1737,
      "##度": 1738,
      "##": 1739,
      "##": 1740,
      "##": 1741,
      "##潮": 1742,
      "##吧": 1743,
      "##ペ": 1744,
      "##レ": 1745,
      "##拔": 1746,
      "##氣": 1747,
      "##蓋": 1748,
      "##卒": 1749,
      "##凿": 1750,
      "##粮": 1751,
      "##̃": 1752,
      "##钱": 1753,
      "##就": 1754,
      "##是": 1755,
      "##场": 1756,
      "##術": 1757,
      "##č": 1758,
      "##方": 1759,
      "##卑": 1760,
      "##湿": 1761,
      "##泉": 1762,
      "##徴": 1763,
      "##収": 1764,
      "##票": 1765,
      "##宋": 1766,
      "##州": 1767,
      "##域": 1768,
      "##¥": 1769,
      "##争": 1770,
      "##锋": 1771,
      "##住": 1772,
      "##権": 1773,
      "##选": 1774,
      "##择": 1775,
      "##瀏": 1776,
      "##□": 1777,
      "##全": 1778,
      "##한": 1779,
      "##올": 1780,
      "##라": 1781,
      "##展": 1782,
      "##语": 1783,
      "##種": 1784,
      "##証": 1785,
      "##明": 1786,
      "##发": 1787,
      "##杀": 1788,
      "##好": 1789,
      "##억": 1790,
      "##이": 1791,
      "##¿": 1792,
      "##ಠ": 1793,
      "##庞": 1794,
      "##呕": 1795,
      "##译": 1796,
      "##吁": 1797,
      "##姿": 1798,
      "##容": 1799,
      "##端": 1800,
      "##【": 1801,
      "##庄": 1802,
      "##嘉": 1803,
      "##宁": 1804,
      "##异": 1805,
      "##音": 1806,
      "##双": 1807,
      "##纳": 1808,
      "##泌": 1809,
      "##骚": 1810,
      "##본": 1811,
      "##因": 1812,
      "##笋": 1813,
      "##及": 1814,
      "##逢": 1815,
      "##乡": 1816,
      "##บ": 1817,
      "##า": 1818,
      "##ย": 1819,
      "##ไ": 1820,
      "##ห": 1821,
      "##ม": 1822,
      "##國": 1823,
      "##河": 1824,
      "##居": 1825,
      "##獄": 1826,
      "##交": 1827,
      "##训": 1828,
      "##與": 1829,
      "##庫": 1830,
      "##盜": 1831,
      "##鋸": 1832,
      "##截": 1833,
      "##傳": 1834,
      "##辕": 1835,
      "##淳": 1836,
      "##质": 1837,
      "##俗": 1838,
      "##遂": 1839,
      "##亡": 1840,
      "##亚": 1841,
      "##男": 1842,
      "##举": 1843,
      "##攻": 1844,
      "##‌": 1845,
      "##際": 1846,
      "##業": 1847,
      "##務": 1848,
      "##留": 1849,
      "##資": 1850,
      "##约": 1851,
      "##铁": 1852,
      "##ш": 1853,
      "##ß": 1854,
      "##城": 1855,
      "##£": 1856,
      "##¢": 1857,
      "##€": 1858,
      "##•": 1859,
      "##√": 1860,
      "##屈": 1861,
      "##原": 1862,
      "##筑": 1863,
      "##ы": 1864,
      "##ぐ": 1865,
      "##∞": 1866,
      "##ng": 1867,
      "th": 1868,
      "ch": 1869,
      "nh": 1870,
      "##nh": 1871,
      "ng": 1872,
      "là": 1873,
      "kh": 1874,
      "tr": 1875,
      "có": 1876,
      "thì": 1877,
      "##ên": 1878,
      "ph": 1879,
      "gi": 1880,
      "qu": 1881,
      "##ông": 1882,
      "##ác": 1883,
      "nó": 1884,
      "##ấy": 1885,
      "mà": 1886,
      "##ôi": 1887,
      "nà": 1888,
      "##ới": 1889,
      "đi": 1890,
      "##ình": 1891,
      "##iế": 1892,
      "##ái": 1893,
      "như": 1894,
      "cũ": 1895,
      "##ay": 1896,
      "##ồi": 1897,
      "##ại": 1898,
      "##ời": 1899,
      "cũng": 1900,
      "không": 1901,
      "##iệ": 1902,
      "và": 1903,
      "đư": 1904,
      "##on": 1905,
      "sa": 1906,
      "##iề": 1907,
      "rồi": 1908,
      "làm": 1909,
      "##uy": 1910,
      "ko": 1911,
      "này": 1912,
      "##ải": 1913,
      "mình": 1914,
      "cho": 1915,
      "cái": 1916,
      "##ần": 1917,
      "##ất": 1918,
      "##ợc": 1919,
      "##en": 1920,
      "ra": 1921,
      "được": 1922,
      "ngh": 1923,
      "gì": 1924,
      "##òn": 1925,
      "lại": 1926,
      "củ": 1927,
      "##ong": 1928,
      "còn": 1929,
      "##âu": 1930,
      "##an": 1931,
      "##ằng": 1932,
      "con": 1933,
      "tôi": 1934,
      "##ười": 1935,
      "##ân": 1936,
      "##ch": 1937,
      "##iết": 1938,
      "cả": 1939,
      "thôi": 1940,
      "của": 1941,
      "phải": 1942,
      "đó": 1943,
      "nào": 1944,
      "người": 1945,
      "mu": 1946,
      "mấy": 1947,
      "em": 1948,
      "với": 1949,
      "##ật": 1950,
      "##ết": 1951,
      "chứ": 1952,
      "##ọc": 1953,
      "##ướ": 1954,
      "thí": 1955,
      "##in": 1956,
      "xe": 1957,
      "các": 1958,
      "##ơn": 1959,
      "##ao": 1960,
      "về": 1961,
      "##ài": 1962,
      "để": 1963,
      "##ang": 1964,
      "thấy": 1965,
      "ki": 1966,
      "##iều": 1967,
      "nhưng": 1968,
      "thằng": 1969,
      "mới": 1970,
      "thế": 1971,
      "nên": 1972,
      "##ăm": 1973,
      "##ôn": 1974,
      "bác": 1975,
      "##ầu": 1976,
      "anh": 1977,
      "##àn": 1978,
      "##ạn": 1979,
      "##ện": 1980,
      "##ống": 1981,
      "##..": 1982,
      "##ây": 1983,
      "vào": 1984,
      "##ưa": 1985,
      "nhiều": 1986,
      "quá": 1987,
      "##ước": 1988,
      "##ờng": 1989,
      "hơn": 1990,
      "giờ": 1991,
      "##ận": 1992,
      "nói": 1993,
      "lu": 1994,
      "nhà": 1995,
      "to": 1996,
      "chỉ": 1997,
      "##ắc": 1998,
      "##ữa": 1999,
      "##iên": 2000,
      "##úc": 2001,
      "##iền": 2002,
      "##êu": 2003,
      "ho": 2004,
      "chuy": 2005,
      "fen": 2006,
      "hay": 2007,
      "bả": 2008,
      "năm": 2009,
      "bị": 2010,
      "##ẫn": 2011,
      "trong": 2012,
      "##án": 2013,
      "thím": 2014,
      "##ai": 2015,
      "##àng": 2016,
      "##ơi": 2017,
      "đâu": 2018,
      "từ": 2019,
      "đá": 2020,
      "##ính": 2021,
      "lên": 2022,
      "##ối": 2023,
      "ăn": 2024,
      "biết": 2025,
      "##ơng": 2026,
      "##ểu": 2027,
      "##ậy": 2028,
      "##ùng": 2029,
      "thu": 2030,
      "##úng": 2031,
      "##anh": 2032,
      "##ương": 2033,
      "tiền": 2034,
      "mua": 2035,
      "sao": 2036,
      "##ến": 2037,
      "##ốn": 2038,
      "công": 2039,
      "##er": 2040,
      "chưa": 2041,
      "đầu": 2042,
      "##ắm": 2043,
      "ông": 2044,
      "khi": 2045,
      "vậy": 2046,
      "độ": 2047,
      "khác": 2048,
      "đã": 2049,
      "sau": 2050,
      "luôn": 2051,
      "học": 2052,
      "vẫn": 2053,
      "##inh": 2054,
      "nữa": 2055,
      "##ung": 2056,
      "bạn": 2057,
      "đến": 2058,
      "##ắn": 2059,
      "##am": 2060,
      "##ành": 2061,
      "##ắt": 2062,
      "##ổi": 2063,
      "việ": 2064,
      "##ày": 2065,
      "##ường": 2066,
      "cứ": 2067,
      "##áng": 2068,
      "lo": 2069,
      "##ếu": 2070,
      "##ăng": 2071,
      "đang": 2072,
      "tiế": 2073,
      "tu": 2074,
      "##ồng": 2075,
      "ai": 2076,
      "chuyện": 2077,
      "chắc": 2078,
      "thật": 2079,
      "cu": 2080,
      "##00": 2081,
      "##ọn": 2082,
      "##ốt": 2083,
      "##au": 2084,
      "hết": 2085,
      "##âm": 2086,
      "##eo": 2087,
      "gái": 2088,
      "##ập": 2089,
      "##ỏi": 2090,
      "##át": 2091,
      "##ột": 2092,
      "vì": 2093,
      "đc": 2094,
      "##ực": 2095,
      "giá": 2096,
      "##ừa": 2097,
      "##êm": 2098,
      "lắm": 2099,
      "đúng": 2100,
      "ngày": 2101,
      "##ức": 2102,
      "đị": 2103,
      "lúc": 2104,
      "##ớt": 2105,
      "...": 2106,
      "đấy": 2107,
      "##ục": 2108,
      "##ầm": 2109,
      "sẽ": 2110,
      "##ỗi": 2111,
      "##iện": 2112,
      "##ặt": 2113,
      "thể": 2114,
      "trước": 2115,
      "qua": 2116,
      "##ững": 2117,
      "##ạy": 2118,
      "nhé": 2119,
      "##ấp": 2120,
      "tư": 2121,
      "những": 2122,
      "##ội": 2123,
      "ngo": 2124,
      "xem": 2125,
      "tự": 2126,
      "nếu": 2127,
      "bảo": 2128,
      "hàng": 2129,
      "trên": 2130,
      "một": 2131,
      "việc": 2132,
      "đây": 2133,
      "hi": 2134,
      "do": 2135,
      "xong": 2136,
      "muốn": 2137,
      "lấy": 2138,
      "chơi": 2139,
      "##ốc": 2140,
      "đọc": 2141,
      "đề": 2142,
      "vợ": 2143,
      "toàn": 2144,
      "cảm": 2145,
      "lần": 2146,
      "##ặc": 2147,
      "##iệm": 2148,
      "định": 2149,
      "nhất": 2150,
      "##éo": 2151,
      "chả": 2152,
      "##ar": 2153,
      "nhau": 2154,
      "kiểu": 2155,
      "##ển": 2156,
      "cơ": 2157,
      "co": 2158,
      "nghĩ": 2159,
      "viết": 2160,
      "bên": 2161,
      "##ìn": 2162,
      "##áo": 2163,
      "bọn": 2164,
      "mẹ": 2165,
      "##òng": 2166,
      "quan": 2167,
      "thớt": 2168,
      "má": 2169,
      "tâm": 2170,
      "yêu": 2171,
      "nhìn": 2172,
      "chi": 2173,
      "##ọi": 2174,
      "theo": 2175,
      "chạy": 2176,
      "kho": 2177,
      "số": 2178,
      "nước": 2179,
      "bán": 2180,
      "ấy": 2181,
      "##ản": 2182,
      "cao": 2183,
      "thích": 2184,
      "##ểm": 2185,
      "vo": 2186,
      "đứ": 2187,
      "##ãi": 2188,
      "cần": 2189,
      "##út": 2190,
      "hắn": 2191,
      "lư": 2192,
      "ti": 2193,
      "tính": 2194,
      "vừa": 2195,
      "thời": 2196,
      "bản": 2197,
      "chính": 2198,
      "nhỉ": 2199,
      "##ấu": 2200,
      "##ấn": 2201,
      "bao": 2202,
      "khó": 2203,
      "thêm": 2204,
      "thành": 2205,
      "##ăn": 2206,
      "tháng": 2207,
      "dùng": 2208,
      "tình": 2209,
      "nghe": 2210,
      "sự": 2211,
      "tí": 2212,
      "xu": 2213,
      "##ởng": 2214,
      "ta": 2215,
      "##tr": 2216,
      "20": 2217,
      "tới": 2218,
      "##ửa": 2219,
      "##ạo": 2220,
      "tin": 2221,
      "kiế": 2222,
      "##ịch": 2223,
      "##ộc": 2224,
      "nhận": 2225,
      "##le": 2226,
      "##ừng": 2227,
      "gh": 2228,
      "lý": 2229,
      "tay": 2230,
      "đồng": 2231,
      "hỏi": 2232,
      "cách": 2233,
      "hiểu": 2234,
      "bằng": 2235,
      "voz": 2236,
      "##ạnh": 2237,
      "đời": 2238,
      "nhân": 2239,
      "bỏ": 2240,
      "hình": 2241,
      "##ẹp": 2242,
      "đường": 2243,
      "chỗ": 2244,
      "mất": 2245,
      "chị": 2246,
      "kia": 2247,
      "##ánh": 2248,
      "hợ": 2249,
      "ngoài": 2250,
      "##ck": 2251,
      "mặt": 2252,
      "hợp": 2253,
      "sống": 2254,
      "##óng": 2255,
      "##ẳng": 2256,
      "##ửi": 2257,
      "tốt": 2258,
      "##ôm": 2259,
      "chủ": 2260,
      "##es": 2261,
      "thường": 2262,
      "##ọng": 2263,
      "##ặp": 2264,
      "chu": 2265,
      "quy": 2266,
      "vi": 2267,
      "tầm": 2268,
      "máy": 2269,
      "##at": 2270,
      "mỗi": 2271,
      "cùng": 2272,
      "xin": 2273,
      "bu": 2274,
      "##im": 2275,
      "trường": 2276,
      "##ưới": 2277,
      "##iệu": 2278,
      "đẹp": 2279,
      "##ền": 2280,
      "so": 2281,
      "họ": 2282,
      "dc": 2283,
      "nhật": 2284,
      "vô": 2285,
      "lớ": 2286,
      "vn": 2287,
      "##ạc": 2288,
      "ít": 2289,
      "rất": 2290,
      "chung": 2291,
      "đủ": 2292,
      "##ìm": 2293,
      "nhớ": 2294,
      "nay": 2295,
      "10": 2296,
      "ngu": 2297,
      "tiếp": 2298,
      "bình": 2299,
      "sinh": 2300,
      "ngon": 2301,
      "##al": 2302,
      "đứa": 2303,
      "kinh": 2304,
      "dân": 2305,
      "lâu": 2306,
      "##ồn": 2307,
      "##ạt": 2308,
      "gia": 2309,
      "gần": 2310,
      "hôm": 2311,
      "sang": 2312,
      "sai": 2313,
      "bài": 2314,
      "sh": 2315,
      "thân": 2316,
      "tìm": 2317,
      "động": 2318,
      "gặp": 2319,
      "##ạng": 2320,
      "##or": 2321,
      "hoặc": 2322,
      "bắt": 2323,
      "dự": 2324,
      "##ám": 2325,
      "##iệp": 2326,
      "dễ": 2327,
      "##ẩn": 2328,
      "##ầy": 2329,
      "điểm": 2330,
      "cuối": 2331,
      "tho": 2332,
      "##ách": 2333,
      "##ắng": 2334,
      "câu": 2335,
      "##ét": 2336,
      "##ợt": 2337,
      "##ợng": 2338,
      "##ụng": 2339,
      "##ảng": 2340,
      "gọi": 2341,
      "##iệt": 2342,
      "thứ": 2343,
      "vụ": 2344,
      "đéo": 2345,
      "bà": 2346,
      "vl": 2347,
      "quen": 2348,
      "phát": 2349,
      "##ạch": 2350,
      "thay": 2351,
      "##ều": 2352,
      "đo": 2353,
      "vấn": 2354,
      "già": 2355,
      "##el": 2356,
      "báo": 2357,
      "tuổi": 2358,
      "bi": 2359,
      "bộ": 2360,
      "giả": 2361,
      "tại": 2362,
      "hơi": 2363,
      "##ắp": 2364,
      "su": 2365,
      "vài": 2366,
      "hồi": 2367,
      "##ty": 2368,
      "truy": 2369,
      "lương": 2370,
      "100": 2371,
      "##ro": 2372,
      "##èo": 2373,
      "quên": 2374,
      "hiện": 2375,
      "tiếng": 2376,
      "ngồi": 2377,
      "##uyên": 2378,
      "kể": 2379,
      "kiếm": 2380,
      "thông": 2381,
      "trả": 2382,
      "ơi": 2383,
      "điện": 2384,
      "đánh": 2385,
      "##as": 2386,
      "chịu": 2387,
      "an": 2388,
      "chết": 2389,
      "phí": 2390,
      "##iêu": 2391,
      "sợ": 2392,
      "##ướng": 2393,
      "##ấm": 2394,
      "tài": 2395,
      "nghiệp": 2396,
      "loại": 2397,
      "thủ": 2398,
      "tập": 2399,
      "vu": 2400,
      "đều": 2401,
      "phần": 2402,
      "##et": 2403,
      "tuần": 2404,
      "điều": 2405,
      "cấp": 2406,
      "đất": 2407,
      "thực": 2408,
      "ngay": 2409,
      "mù": 2410,
      "##ảnh": 2411,
      "uống": 2412,
      "##ợi": 2413,
      "##ặng": 2414,
      "giải": 2415,
      "càng": 2416,
      "giống": 2417,
      "##ce": 2418,
      "đổi": 2419,
      "nghiệm": 2420,
      "chồng": 2421,
      "trung": 2422,
      "đồ": 2423,
      "cầu": 2424,
      "ty": 2425,
      "##iếu": 2426,
      "##óc": 2427,
      "thi": 2428,
      "##ậu": 2429,
      "##lo": 2430,
      "##òi": 2431,
      "đừng": 2432,
      "năng": 2433,
      "##iến": 2434,
      "đối": 2435,
      "gian": 2436,
      "bố": 2437,
      "cm": 2438,
      "chửi": 2439,
      "liên": 2440,
      "quả": 2441,
      "nội": 2442,
      "re": 2443,
      "ảnh": 2444,
      "đại": 2445,
      "lớn": 2446,
      "cố": 2447,
      "sáng": 2448,
      "thử": 2449,
      "##ào": 2450,
      "##ad": 2451,
      "mày": 2452,
      "##ưởng": 2453,
      "cưới": 2454,
      "tên": 2455,
      "trẻ": 2456,
      "khá": 2457,
      "viên": 2458,
      "trọng": 2459,
      "tưởng": 2460,
      "nhỏ": 2461,
      "chuyển": 2462,
      "ổn": 2463,
      "nhanh": 2464,
      "##te": 2465,
      "cty": 2466,
      "nhiên": 2467,
      "chân": 2468,
      "##re": 2469,
      "##ép": 2470,
      "hành": 2471,
      "phim": 2472,
      "trai": 2473,
      "rảnh": 2474,
      "chẳng": 2475,
      "##ạm": 2476,
      "éo": 2477,
      "cá": 2478,
      "coi": 2479,
      "vị": 2480,
      "dịch": 2481,
      "tuy": 2482,
      "xưa": 2483,
      "văn": 2484,
      "thị": 2485,
      "##ệnh": 2486,
      "đội": 2487,
      "tụ": 2488,
      "thức": 2489,
      "##oo": 2490,
      "hội": 2491,
      "đáng": 2492,
      "nam": 2493,
      "##ệt": 2494,
      "mắt": 2495,
      "cảnh": 2496,
      "dụng": 2497,
      "hoàn": 2498,
      "##pp": 2499,
      "di": 2500,
      "mở": 2501,
      "phá": 2502,
      "kí": 2503,
      "phòng": 2504,
      "chán": 2505,
      "kết": 2506,
      "dù": 2507,
      "yếu": 2508,
      "ok": 2509,
      "in": 2510,
      "chó": 2511,
      "##ic": 2512,
      "chia": 2513,
      "vui": 2514,
      "truyện": 2515,
      "##ớm": 2516,
      "##ít": 2517,
      "mạnh": 2518,
      "nổi": 2519,
      "tế": 2520,
      "##st": 2521,
      "mọi": 2522,
      "đơn": 2523,
      "chúng": 2524,
      "xuống": 2525,
      "bóng": 2526,
      "hộ": 2527,
      "##em": 2528,
      "##ém": 2529,
      "##óa": 2530,
      "xa": 2531,
      "ma": 2532,
      "đưa": 2533,
      "li": 2534,
      "việt": 2535,
      "##úp": 2536,
      "##ưng": 2537,
      "##ễn": 2538,
      "##ỉnh": 2539,
      "nghỉ": 2540,
      "chuẩn": 2541,
      "tiêu": 2542,
      "##to": 2543,
      "trận": 2544,
      "đình": 2545,
      "##0k": 2546,
      "tối": 2547,
      "xúc": 2548,
      "nha": 2549,
      "thanh": 2550,
      "tiên": 2551,
      "##ll": 2552,
      "chục": 2553,
      "khách": 2554,
      "##ão": 2555,
      "hả": 2556,
      "chất": 2557,
      "bé": 2558,
      "ca": 2559,
      "tổ": 2560,
      "chá": 2561,
      "##ếp": 2562,
      "xấu": 2563,
      "lời": 2564,
      "niệm": 2565,
      "vs": 2566,
      "vc": 2567,
      "##ing": 2568,
      "thương": 2569,
      "chọn": 2570,
      "bàn": 2571,
      "bệnh": 2572,
      "rẻ": 2573,
      "nu": 2574,
      "xác": 2575,
      "##ộng": 2576,
      "trình": 2577,
      "xài": 2578,
      "hệ": 2579,
      "tụi": 2580,
      "nhiêu": 2581,
      "hã": 2582,
      "##it": 2583,
      "ngủ": 2584,
      "lan": 2585,
      "ri": 2586,
      "lưu": 2587,
      "thua": 2588,
      "giảm": 2589,
      "sho": 2590,
      "lực": 2591,
      "tà": 2592,
      "lừa": 2593,
      "##êng": 2594,
      "tao": 2595,
      "ba": 2596,
      "cl": 2597,
      "đặt": 2598,
      "đợt": 2599,
      "cô": 2600,
      "nhập": 2601,
      "đóng": 2602,
      "sức": 2603,
      "đòi": 2604,
      "thuộc": 2605,
      "##ứng": 2606,
      "mai": 2607,
      "##ra": 2608,
      "30": 2609,
      "##ou": 2610,
      "cuộc": 2611,
      "dẫn": 2612,
      "kêu": 2613,
      "giao": 2614,
      "đàn": 2615,
      "giới": 2616,
      "thẻ": 2617,
      "đỡ": 2618,
      "chứng": 2619,
      "vãi": 2620,
      "bây": 2621,
      "201": 2622,
      "rõ": 2623,
      "từng": 2624,
      "tăng": 2625,
      "sớm": 2626,
      "mang": 2627,
      "ban": 2628,
      "phụ": 2629,
      "cmn": 2630,
      "may": 2631,
      "lỗi": 2632,
      "##ậm": 2633,
      "tiếc": 2634,
      "khổ": 2635,
      "vẻ": 2636,
      "đông": 2637,
      "quay": 2638,
      "tù": 2639,
      "bay": 2640,
      "##óm": 2641,
      "cụ": 2642,
      "chương": 2643,
      "chí": 2644,
      "lượng": 2645,
      "giác": 2646,
      "##ta": 2647,
      "dài": 2648,
      "tác": 2649,
      "thuê": 2650,
      "12": 2651,
      "vozer": 2652,
      "cực": 2653,
      "đu": 2654,
      "sản": 2655,
      "nữ": 2656,
      "dám": 2657,
      "nguyên": 2658,
      "kiến": 2659,
      "thần": 2660,
      "cha": 2661,
      "tất": 2662,
      "tui": 2663,
      "dưới": 2664,
      "##ẳn": 2665,
      "tàu": 2666,
      "vật": 2667,
      "tạo": 2668,
      "kỉ": 2669,
      "thái": 2670,
      "cửa": 2671,
      "gửi": 2672,
      "hn": 2673,
      "hẳn": 2674,
      "trang": 2675,
      "phép": 2676,
      "15": 2677,
      "tinh": 2678,
      "mặc": 2679,
      "bất": 2680,
      "chút": 2681,
      "mo": 2682,
      "quyết": 2683,
      "cháu": 2684,
      "khu": 2685,
      "##èn": 2686,
      "quốc": 2687,
      "ae": 2688,
      "khả": 2689,
      "ngoại": 2690,
      "thuốc": 2691,
      "dư": 2692,
      "riêng": 2693,
      "hai": 2694,
      "nhẹ": 2695,
      "##ke": 2696,
      "giàu": 2697,
      "##ẩm": 2698,
      "##ằm": 2699,
      "mùa": 2700,
      "hà": 2701,
      "chê": 2702,
      "##ent": 2703,
      "đám": 2704,
      "lợi": 2705,
      "phân": 2706,
      "nghĩa": 2707,
      "##ag": 2708,
      "trời": 2709,
      "mỹ": 2710,
      "toán": 2711,
      "quê": 2712,
      "chiều": 2713,
      "##id": 2714,
      "thiếu": 2715,
      "##ồm": 2716,
      "dạy": 2717,
      "##ee": 2718,
      "đau": 2719,
      "kì": 2720,
      "##ạp": 2721,
      "minh": 2722,
      "phương": 2723,
      "tử": 2724,
      "chờ": 2725,
      "trí": 2726,
      "đa": 2727,
      "giỏi": 2728,
      "đầy": 2729,
      "mức": 2730,
      "hồ": 2731,
      "tỷ": 2732,
      "tranh": 2733,
      "##....": 2734,
      "trừ": 2735,
      "200": 2736,
      "đăng": 2737,
      "buồn": 2738,
      "##ợn": 2739,
      "hạn": 2740,
      "cổ": 2741,
      "ha": 2742,
      "ny": 2743,
      "no": 2744,
      "##úi": 2745,
      "xuất": 2746,
      "kiện": 2747,
      "hóa": 2748,
      "thấp": 2749,
      "po": 2750,
      "tặng": 2751,
      "##ip": 2752,
      "rư": 2753,
      "nhờ": 2754,
      "giúp": 2755,
      "mãi": 2756,
      "duy": 2757,
      "sg": 2758,
      "lớp": 2759,
      "đổ": 2760,
      "nợ": 2761,
      "tiết": 2762,
      "quyền": 2763,
      "chấp": 2764,
      "##ảy": 2765,
      "sách": 2766,
      "mạng": 2767,
      "quán": 2768,
      "du": 2769,
      "##èm": 2770,
      "gó": 2771,
      "nuôi": 2772,
      "chú": 2773,
      "tương": 2774,
      "tích": 2775,
      "biệt": 2776,
      "bánh": 2777,
      "trị": 2778,
      "lập": 2779,
      "triệu": 2780,
      "đoạn": 2781,
      "cây": 2782,
      "đạo": 2783,
      "top": 2784,
      "đen": 2785,
      "lạ": 2786,
      "mi": 2787,
      "khỏi": 2788,
      "##ame": 2789,
      "tội": 2790,
      "tây": 2791,
      "xã": 2792,
      "thiết": 2793,
      "bận": 2794,
      "chế": 2795,
      "xây": 2796,
      "trải": 2797,
      "giữ": 2798,
      "##ọt": 2799,
      "ly": 2800,
      "đôi": 2801,
      "lí": 2802,
      "cắt": 2803,
      "huy": 2804,
      "##ine": 2805,
      "đêm": 2806,
      "hiệu": 2807,
      "lịch": 2808,
      "giữa": 2809,
      "giấy": 2810,
      "cư": 2811,
      "môn": 2812,
      "##ti": 2813,
      "##ón": 2814,
      "fb": 2815,
      "kế": 2816,
      "luật": 2817,
      "tri": 2818,
      "đứng": 2819,
      "sắp": 2820,
      "cuốn": 2821,
      "vệ": 2822,
      "gà": 2823,
      "nằm": 2824,
      "vay": 2825,
      "chuyên": 2826,
      "##la": 2827,
      "khoảng": 2828,
      "ghi": 2829,
      "suy": 2830,
      "##ẩu": 2831,
      "thầy": 2832,
      "pháp": 2833,
      "de": 2834,
      "##cc": 2835,
      "sân": 2836,
      "##ặn": 2837,
      "mồm": 2838,
      "..": 2839,
      "ni": 2840,
      "##ẩy": 2841,
      "nặng": 2842,
      "mệt": 2843,
      "lòng": 2844,
      "app": 2845,
      "sửa": 2846,
      "lái": 2847,
      "bo": 2848,
      ".....": 2849,
      "hu": 2850,
      "sếp": 2851,
      "sử": 2852,
      "bữa": 2853,
      "vàng": 2854,
      "da": 2855,
      "fence": 2856,
      "đón": 2857,
      "##ink": 2858,
      "doanh": 2859,
      "mã": 2860,
      "sĩ": 2861,
      "##ùi": 2862,
      "sale": 2863,
      "cầm": 2864,
      "si": 2865,
      "up": 2866,
      "lol": 2867,
      "tốn": 2868,
      "lẽ": 2869,
      "##ựa": 2870,
      "##est": 2871,
      "thẳng": 2872,
      "đức": 2873,
      "ghê": 2874,
      "te": 2875,
      "shop": 2876,
      "50": 2877,
      "biến": 2878,
      "đả": 2879,
      "giáo": 2880,
      "##ởi": 2881,
      "đẻ": 2882,
      "cười": 2883,
      "hoa": 2884,
      "))": 2885,
      "ví": 2886,
      "ơn": 2887,
      "áo": 2888,
      "ngân": 2889,
      "hưởng": 2890,
      "áp": 2891,
      "ro": 2892,
      "quanh": 2893,
      "che": 2894,
      "trái": 2895,
      "tổng": 2896,
      "la": 2897,
      ").": 2898,
      "le": 2899,
      "địa": 2900,
      "##ộn": 2901,
      "##us": 2902,
      "linh": 2903,
      "##ụp": 2904,
      "kém": 2905,
      "##th": 2906,
      "màu": 2907,
      "tiện": 2908,
      "##ứt": 2909,
      "diễn": 2910,
      "hãng": 2911,
      "%.": 2912,
      "vcl": 2913,
      "thuy": 2914,
      "xưng": 2915,
      "##ate": 2916,
      "gra": 2917,
      "hàn": 2918,
      "hướng": 2919,
      "tục": 2920,
      "##ỏng": 2921,
      "tận": 2922,
      "tham": 2923,
      "cứu": 2924,
      "hóng": 2925,
      "rỗi": 2926,
      "lão": 2927,
      "cam": 2928,
      "##km": 2929,
      "liệu": 2930,
      "ký": 2931,
      "cơm": 2932,
      "nhắn": 2933,
      "mắc": 2934,
      "tượng": 2935,
      "##ew": 2936,
      "đem": 2937,
      "tra": 2938,
      "nghề": 2939,
      "tỉnh": 2940,
      "phục": 2941,
      "sp": 2942,
      "ngành": 2943,
      "##un": 2944,
      "máu": 2945,
      "ngư": 2946,
      "dòng": 2947,
      "##der": 2948,
      "dụ": 2949,
      "đỏ": 2950,
      "##do": 2951,
      "nơi": 2952,
      "link": 2953,
      "hoàng": 2954,
      "on": 2955,
      "##ùa": 2956,
      "com": 2957,
      "nguy": 2958,
      "xử": 2959,
      "bạc": 2960,
      "##vi": 2961,
      "kiểm": 2962,
      "##ve": 2963,
      "xinh": 2964,
      "biển": 2965,
      "game": 2966,
      "âm": 2967,
      "đặc": 2968,
      "thất": 2969,
      "##lock": 2970,
      "vòng": 2971,
      "nhu": 2972,
      "lệ": 2973,
      "méo": 2974,
      "##ơm": 2975,
      "châu": 2976,
      "sướng": 2977,
      "##ượt": 2978,
      "niên": 2979,
      "##âng": 2980,
      "##ẹn": 2981,
      "nửa": 2982,
      "tín": 2983,
      "##òa": 2984,
      "##ank": 2985,
      "khoản": 2986,
      "mùi": 2987,
      "nghèo": 2988,
      "nhạc": 2989,
      "grab": 2990,
      "kê": 2991,
      "kéo": 2992,
      "202": 2993,
      "##one": 2994,
      "you": 2995,
      "món": 2996,
      "khí": 2997,
      "thắng": 2998,
      "dây": 2999,
      "thoại": 3000,
      "fan": 3001,
      "thiên": 3002,
      "kỹ": 3003,
      "chữ": 3004,
      "##ịn": 3005,
      "hạ": 3006,
      "vk": 3007,
      "##ff": 3008,
      "fa": 3009,
      "se": 3010,
      "##li": 3011,
      "ngang": 3012,
      "tùy": 3013,
      "##ub": 3014,
      "tết": 3015,
      "lãi": 3016,
      "gió": 3017,
      "??": 3018,
      "nóng": 3019,
      "án": 3020,
      "hiểm": 3021,
      "tai": 3022,
      "thả": 3023,
      "phố": 3024,
      "phong": 3025,
      "lạnh": 3026,
      "dính": 3027,
      "tốc": 3028,
      "chở": 3029,
      "lao": 3030,
      "##ess": 3031,
      "chụp": 3032,
      "##me": 3033,
      "sư": 3034,
      "nt": 3035,
      "mái": 3036,
      "11": 3037,
      "block": 3038,
      "cục": 3039,
      "##ĩnh": 3040,
      "kỳ": 3041,
      "dạng": 3042,
      "khám": 3043,
      "thuyết": 3044,
      "bật": 3045,
      "##ịp": 3046,
      "ứng": 3047,
      "danh": 3048,
      "sát": 3049,
      "sim": 3050,
      "giản": 3051,
      "lạc": 3052,
      "thống": 3053,
      "mong": 3054,
      "trắng": 3055,
      "fu": 3056,
      "thuật": 3057,
      "suốt": 3058,
      "hứng": 3059,
      "thịt": 3060,
      "),": 3061,
      "căn": 3062,
      "##bo": 3063,
      "yên": 3064,
      "##de": 3065,
      "hôn": 3066,
      "rút": 3067,
      "##ri": 3068,
      "thư": 3069,
      "triển": 3070,
      "mũ": 3071,
      "tỉ": 3072,
      "##ẵn": 3073,
      "phản": 3074,
      "sơ": 3075,
      "nghi": 3076,
      "##il": 3077,
      "##ph": 3078,
      "tuyển": 3079,
      "ah": 3080,
      "tiến": 3081,
      "xo": 3082,
      "hậu": 3083,
      "viện": 3084,
      "##00k": 3085,
      "vốn": 3086,
      "##iếm": 3087,
      "lũ": 3088,
      "....": 3089,
      "cờ": 3090,
      "nọ": 3091,
      "nhảy": 3092,
      "đợi": 3093,
      "quân": 3094,
      "cạnh": 3095,
      "dạo": 3096,
      "vọng": 3097,
      "##ter": 3098,
      "răng": 3099,
      "sạch": 3100,
      "siêu": 3101,
      "##én": 3102,
      "hút": 3103,
      "vin": 3104,
      "quần": 3105,
      "pha": 3106,
      "cay": 3107,
      "khoa": 3108,
      "trò": 3109,
      "bò": 3110,
      "chiến": 3111,
      "quản": 3112,
      "tờ": 3113,
      "trở": 3114,
      "kèo": 3115,
      "đấu": 3116,
      "làng": 3117,
      "nghệ": 3118,
      "xí": 3119,
      "##iềm": 3120,
      "bớt": 3121,
      "lai": 3122,
      "##ỡng": 3123,
      "luận": 3124,
      "đâm": 3125,
      "xăng": 3126,
      "phi": 3127,
      "##um": 3128,
      "truyền": 3129,
      "##ver": 3130,
      "trợ": 3131,
      "trăm": 3132,
      "cân": 3133,
      "lành": 3134,
      "sẵn": 3135,
      "khỏ": 3136,
      "##ẹt": 3137,
      "chai": 3138,
      "mối": 3139,
      "bú": 3140,
      "phết": 3141,
      "đh": 3142,
      "##ứa": 3143,
      "mời": 3144,
      "ấn": 3145,
      "ảo": 3146,
      "thoải": 3147,
      "ghét": 3148,
      "##0km": 3149,
      "trc": 3150,
      "mê": 3151,
      "##ss": 3152,
      "khỏe": 3153,
      "fre": 3154,
      "thèm": 3155,
      "đm": 3156,
      "mưa": 3157,
      "kìa": 3158,
      "vũ": 3159,
      "cấm": 3160,
      "thuế": 3161,
      "hẹn": 3162,
      "##co": 3163,
      "##áy": 3164,
      "##ẽo": 3165,
      "cỡ": 3166,
      "##ard": 3167,
      "gấp": 3168,
      "dần": 3169,
      "said": 3170,
      "##ót": 3171,
      "phúc": 3172,
      "##ym": 3173,
      "##up": 3174,
      "chăm": 3175,
      "não": 3176,
      "25": 3177,
      "tức": 3178,
      "quảng": 3179,
      "cc": 3180,
      "vận": 3181,
      "##da": 3182,
      "##ẫu": 3183,
      "ngược": 3184,
      "xanh": 3185,
      "gây": 3186,
      "pro": 3187,
      "tán": 3188,
      "ức": 3189,
      "bh": 3190,
      "hoạt": 3191,
      "kích": 3192,
      "cộng": 3193,
      "it": 3194,
      "hài": 3195,
      "đít": 3196,
      "be": 3197,
      "cáo": 3198,
      "##line": 3199,
      "thú": 3200,
      "phê": 3201,
      "đắt": 3202,
      "trưởng": 3203,
      "nick": 3204,
      "##ùn": 3205,
      "dầu": 3206,
      "check": 3207,
      "nhắc": 3208,
      "nhầm": 3209,
      "khai": 3210,
      "##se": 3211,
      "xét": 3212,
      "##ủi": 3213,
      "dục": 3214,
      "nhậu": 3215,
      "we": 3216,
      "góp": 3217,
      "phạm": 3218,
      "chức": 3219,
      "trực": 3220,
      "##ướt": 3221,
      "man": 3222,
      "win": 3223,
      "40": 3224,
      "trách": 3225,
      "hạng": 3226,
      "phen": 3227,
      "vid": 3228,
      "bê": 3229,
      "ôm": 3230,
      "ổng": 3231,
      "sánh": 3232,
      "bắc": 3233,
      "sơn": 3234,
      "##ủng": 3235,
      "diện": 3236,
      "sở": 3237,
      "nè": 3238,
      "tạm": 3239,
      "au": 3240,
      "sẻ": 3241,
      "độc": 3242,
      "đấm": 3243,
      "buổi": 3244,
      "tô": 3245,
      "gốc": 3246,
      "mục": 3247,
      "##cm": 3248,
      "phẩm": 3249,
      "dựng": 3250,
      "chắn": 3251,
      "##ak": 3252,
      "18": 3253,
      "kệ": 3254,
      "st": 3255,
      "post": 3256,
      "đỉnh": 3257,
      "ck": 3258,
      "ngại": 3259,
      "bè": 3260,
      "trúng": 3261,
      "hoá": 3262,
      "mư": 3263,
      "dậy": 3264,
      "cmnr": 3265,
      "##ẹo": 3266,
      "đà": 3267,
      "đoán": 3268,
      "rác": 3269,
      "tỏ": 3270,
      "##ợu": 3271,
      "cr": 3272,
      "tránh": 3273,
      "rượu": 3274,
      "go": 3275,
      "bt": 3276,
      "nhóm": 3277,
      "mề": 3278,
      "he": 3279,
      "hòa": 3280,
      "đèn": 3281,
      "bank": 3282,
      "thừa": 3283,
      "video": 3284,
      "đẩy": 3285,
      "suất": 3286,
      "##ct": 3287,
      "chém": 3288,
      "mũi": 3289,
      "for": 3290,
      "lắp": 3291,
      "nhiệt": 3292,
      "dâm": 3293,
      "tắt": 3294,
      "simp": 3295,
      "lỗ": 3296,
      "sm": 3297,
      "êm": 3298,
      "##fe": 3299,
      "đế": 3300,
      "ntn": 3301,
      "xóa": 3302,
      "trông": 3303,
      "nguồn": 3304,
      "ga": 3305,
      "dở": 3306,
      "khẩu": 3307,
      "hy": 3308,
      "##ụt": 3309,
      "ru": 3310,
      "bó": 3311,
      "nổ": 3312,
      "cãi": 3313,
      "hải": 3314,
      "kĩ": 3315,
      "team": 3316,
      "ủng": 3317,
      "##ut": 3318,
      "lướt": 3319,
      "hại": 3320,
      "miền": 3321,
      "nát": 3322,
      "ưu": 3323,
      "chiếu": 3324,
      "##ah": 3325,
      "##ii": 3326,
      "cà": 3327,
      "dắt": 3328,
      "loạn": 3329,
      "chúc": 3330,
      "chống": 3331,
      "##ích": 3332,
      "##ook": 3333,
      "hát": 3334,
      "khôn": 3335,
      "cú": 3336,
      "???": 3337,
      "mạch": 3338,
      "nâng": 3339,
      "vkl": 3340,
      "im": 3341,
      "tôn": 3342,
      "nạn": 3343,
      "đạp": 3344,
      "rộng": 3345,
      "dưỡng": 3346,
      "cận": 3347,
      "thậm": 3348,
      "tỏi": 3349,
      "##ki": 3350,
      "ham": 3351,
      "thợ": 3352,
      "đào": 3353,
      "sổ": 3354,
      "khuyên": 3355,
      "lộ": 3356,
      "##ầng": 3357,
      "viet": 3358,
      "cày": 3359,
      "bổ": 3360,
      "chảy": 3361,
      "nhớt": 3362,
      "shopee": 3363,
      "tiệm": 3364,
      "##iếc": 3365,
      "chap": 3366,
      "bốc": 3367,
      "sâu": 3368,
      "hư": 3369,
      "fi": 3370,
      "full": 3371,
      "##lv": 3372,
      "phạt": 3373,
      "âu": 3374,
      "bước": 3375,
      "rằng": 3376,
      "##ass": 3377,
      "2k": 3378,
      "tầng": 3379,
      "##ỡi": 3380,
      "pin": 3381,
      "môi": 3382,
      "##ịt": 3383,
      "đảo": 3384,
      "tải": 3385,
      "chậm": 3386,
      "vé": 3387,
      "dung": 3388,
      "##sh": 3389,
      "đập": 3390,
      "giọng": 3391,
      "đeo": 3392,
      "liền": 3393,
      "ngta": 3394,
      "online": 3395,
      "##ộm": 3396,
      "trốn": 3397,
      "gắng": 3398,
      "phút": 3399,
      "sút": 3400,
      "##pe": 3401,
      "vùng": 3402,
      "lông": 3403,
      "can": 3404,
      "vượt": 3405,
      "cmt": 3406,
      "tóc": 3407,
      "đô": 3408,
      "mẫu": 3409,
      "##ment": 3410,
      "đống": 3411,
      "ad": 3412,
      "##are": 3413,
      "tq": 3414,
      "màn": 3415,
      "ab": 3416,
      "rửa": 3417,
      "mẽo": 3418,
      "tố": 3419,
      "trọ": 3420,
      "##ner": 3421,
      "##........": 3422,
      "thank": 3423,
      "@@": 3424,
      "lã": 3425,
      "clip": 3426,
      "long": 3427,
      "căng": 3428,
      "hạnh": 3429,
      "đt": 3430,
      "trâu": 3431,
      "khăn": 3432,
      "##ail": 3433,
      "gói": 3434,
      "nhi": 3435,
      "thao": 3436,
      "cứng": 3437,
      "dành": 3438,
      "nấu": 3439,
      "dm": 3440,
      "nốt": 3441,
      "khóc": 3442,
      "khứ": 3443,
      "óc": 3444,
      "##ort": 3445,
      "##ịa": 3446,
      "khoe": 3447,
      "hộp": 3448,
      "kịp": 3449,
      "acc": 3450,
      "nộ": 3451,
      "thiện": 3452,
      "phía": 3453,
      "##ãn": 3454,
      "hồng": 3455,
      "##))": 3456,
      "kính": 3457,
      "mơ": 3458,
      "##age": 3459,
      "##ãy": 3460,
      "cắm": 3461,
      "ràng": 3462,
      "lười": 3463,
      "or": 3464,
      "vịt": 3465,
      "bù": 3466,
      "##bi": 3467,
      "##ur": 3468,
      "cánh": 3469,
      "kỷ": 3470,
      "##ark": 3471,
      "hỗ": 3472,
      "chữa": 3473,
      "dị": 3474,
      "tý": 3475,
      "trụ": 3476,
      "ar": 3477,
      "500": 3478,
      "thiệt": 3479,
      "**": 3480,
      "##ser": 3481,
      "16": 3482,
      "mát": 3483,
      "ép": 3484,
      "nhiệm": 3485,
      "quà": 3486,
      "sữa": 3487,
      "##õi": 3488,
      "free": 3489,
      "ex": 3490,
      "khen": 3491,
      "quý": 3492,
      "lưng": 3493,
      "300": 3494,
      "bia": 3495,
      "dương": 3496,
      "mò": 3497,
      "chỉnh": 3498,
      "##iếng": 3499,
      "19": 3500,
      "vẽ": 3501,
      "km": 3502,
      "biên": 3503,
      "lỡ": 3504,
      "lôi": 3505,
      "cs": 3506,
      "##ol": 3507,
      "##ói": 3508,
      "thoát": 3509,
      "xịn": 3510,
      "##ma": 3511,
      "pe": 3512,
      "web": 3513,
      "dữ": 3514,
      "kiệm": 3515,
      "ghế": 3516,
      "nc": 3517,
      "phù": 3518,
      "mừng": 3519,
      "##tub": 3520,
      "lá": 3521,
      "rau": 3522,
      "bắn": 3523,
      "luy": 3524,
      "lẫn": 3525,
      "##úa": 3526,
      "đương": 3527,
      "đĩ": 3528,
      "##mo": 3529,
      "14": 3530,
      "##50": 3531,
      "bảng": 3532,
      "test": 3533,
      "##tt": 3534,
      "gỡ": 3535,
      "niềm": 3536,
      "vực": 3537,
      "mượn": 3538,
      "##cn": 3539,
      "sài": 3540,
      "phận": 3541,
      "code": 3542,
      "chặt": 3543,
      "trộm": 3544,
      "ích": 3545,
      "tắm": 3546,
      "đảm": 3547,
      "trạng": 3548,
      "dựa": 3549,
      "tk": 3550,
      "xếp": 3551,
      "ngọt": 3552,
      "mì": 3553,
      "tp": 3554,
      "đài": 3555,
      "ầm": 3556,
      "chốt": 3557,
      "13": 3558,
      "real": 3559,
      "sắc": 3560,
      "tệ": 3561,
      "##ia": 3562,
      "##!!": 3563,
      "thơm": 3564,
      "cafe": 3565,
      "ưng": 3566,
      "hãy": 3567,
      "thà": 3568,
      "nghiện": 3569,
      "goo": 3570,
      "đạt": 3571,
      "xung": 3572,
      "ngờ": 3573,
      "vác": 3574,
      "góc": 3575,
      "hỏng": 3576,
      "xóm": 3577,
      "đê": 3578,
      "##ấc": 3579,
      "gõ": 3580,
      "nông": 3581,
      "xà": 3582,
      "chợ": 3583,
      "trầm": 3584,
      "nhàng": 3585,
      "##ase": 3586,
      "đẳng": 3587,
      "dấu": 3588,
      "tả": 3589,
      "đích": 3590,
      "đoàn": 3591,
      "cont": 3592,
      "dừng": 3593,
      "chiếc": 3594,
      "luyện": 3595,
      "##art": 3596,
      "##ga": 3597,
      "##pt": 3598,
      "mềm": 3599,
      "nền": 3600,
      "me": 3601,
      "phổ": 3602,
      "kim": 3603,
      "sóc": 3604,
      "bẩn": 3605,
      "nắm": 3606,
      "auto": 3607,
      "đứt": 3608,
      "##alo": 3609,
      "##dt": 3610,
      "tiêm": 3611,
      "lọc": 3612,
      "xứ": 3613,
      "địch": 3614,
      "cắn": 3615,
      "gạch": 3616,
      "##ba": 3617,
      "90": 3618,
      "xui": 3619,
      "##tube": 3620,
      "the": 3621,
      "nắng": 3622,
      "##and": 3623,
      "log": 3624,
      "bụng": 3625,
      "miếng": 3626,
      "nhục": 3627,
      "đuổi": 3628,
      "##view": 3629,
      "bởi": 3630,
      "##zz": 3631,
      "thoảng": 3632,
      "cử": 3633,
      "hầu": 3634,
      "tiểu": 3635,
      "cung": 3636,
      "phú": 3637,
      "##ùm": 3638,
      "ngôn": 3639,
      "tóm": 3640,
      "trôi": 3641,
      "miên": 3642,
      "mèo": 3643,
      "hấp": 3644,
      "hồn": 3645,
      "va": 3646,
      "ngữ": 3647,
      "miễn": 3648,
      "gu": 3649,
      "lễ": 3650,
      "đàng": 3651,
      "bát": 3652,
      "điên": 3653,
      "60": 3654,
      "##õm": 3655,
      "kèm": 3656,
      "xíu": 3657,
      "cò": 3658,
      "túc": 3659,
      "nhả": 3660,
      "mít": 3661,
      "##fi": 3662,
      "tuyệt": 3663,
      "1m": 3664,
      "rủ": 3665,
      "tha": 3666,
      "trà": 3667,
      "tim": 3668,
      "sk": 3669,
      "thận": 3670,
      "điệ": 3671,
      "##...": 3672,
      "ốm": 3673,
      "đột": 3674,
      "c1": 3675,
      "khuy": 3676,
      "tuỳ": 3677,
      "bro": 3678,
      "ci": 3679,
      "khủng": 3680,
      "trưa": 3681,
      "hè": 3682,
      "youtube": 3683,
      "muộn": 3684,
      "ser": 3685,
      "mod": 3686,
      "mc": 3687,
      "##si": 3688,
      "giật": 3689,
      "lượt": 3690,
      "phán": 3691,
      "ủa": 3692,
      "##ữu": 3693,
      "show": 3694,
      "chào": 3695,
      "review": 3696,
      "##gle": 3697,
      "biểu": 3698,
      "cháy": 3699,
      "hữu": 3700,
      "ne": 3701,
      "túi": 3702,
      "khoẻ": 3703,
      "súc": 3704,
      "giết": 3705,
      "comment": 3706,
      "thanks": 3707,
      "out": 3708,
      "##vid": 3709,
      "##all": 3710,
      "google": 3711,
      "##iếp": 3712,
      "cứt": 3713,
      "nyc": 3714,
      "trì": 3715,
      "vote": 3716,
      "kín": 3717,
      "bla": 3718,
      "##pl": 3719,
      "chấm": 3720,
      "tinder": 3721,
      "##ca": 3722,
      "gọn": 3723,
      "đậu": 3724,
      "sạc": 3725,
      "khóa": 3726,
      "ấm": 3727,
      "##iệng": 3728,
      "->": 3729,
      "đù": 3730,
      "ngáo": 3731,
      "80": 3732,
      "my": 3733,
      "tắc": 3734,
      "vớ": 3735,
      "##ld": 3736,
      "##end": 3737,
      "miệng": 3738,
      "lựa": 3739,
      "chạm": 3740,
      "ngắn": 3741,
      "cải": 3742,
      "##gh": 3743,
      "thù": 3744,
      "chim": 3745,
      "ship": 3746,
      "##ell": 3747,
      "ác": 3748,
      "##--": 3749,
      "nộp": 3750,
      "17": 3751,
      "thượng": 3752,
      "vỡ": 3753,
      "hôi": 3754,
      "chừng": 3755,
      "ngoái": 3756,
      "##tv": 3757,
      "loser": 3758,
      "##os": 3759,
      "thở": 3760,
      "tung": 3761,
      "tròn": 3762,
      "bại": 3763,
      "khéo": 3764,
      "wc": 3765,
      "than": 3766,
      "ngã": 3767,
      "bồ": 3768,
      "##ẫm": 3769,
      "cặp": 3770,
      "lùn": 3771,
      "khô": 3772,
      "khúc": 3773,
      "hlv": 3774,
      "đùa": 3775,
      "70": 3776,
      "mõm": 3777,
      "lợn": 3778,
      "24": 3779,
      "mắn": 3780,
      "##phone": 3781,
      "pl": 3782,
      "tướng": 3783,
      "is": 3784,
      "cám": 3785,
      "bar": 3786,
      "đói": 3787,
      "thưởng": 3788,
      "chóng": 3789,
      "gớm": 3790,
      "giai": 3791,
      "quận": 3792,
      "lẻ": 3793,
      "uy": 3794,
      "hủ": 3795,
      "nét": 3796,
      "##ue": 3797,
      "trồng": 3798,
      "xứng": 3799,
      "ẻm": 3800,
      "bóp": 3801,
      "gắn": 3802,
      "múi": 3803,
      "covid": 3804,
      "bd": 3805,
      "bô": 3806,
      "pr": 3807,
      "like": 3808,
      "and": 3809,
      "dĩ": 3810,
      "hào": 3811,
      "jo": 3812,
      "chuyền": 3813,
      "##ụi": 3814,
      "trùng": 3815,
      "##ủa": 3816,
      "giày": 3817,
      "lô": 3818,
      "##is": 3819,
      "bày": 3820,
      "##op": 3821,
      "##ms": 3822,
      "mess": 3823,
      "vứt": 3824,
      "tg": 3825,
      "##ore": 3826,
      "dáng": 3827,
      "khảo": 3828,
      "gấu": 3829,
      "##he": 3830,
      "1tr": 3831,
      "gay": 3832,
      "gánh": 3833,
      "lăn": 3834,
      "chặn": 3835,
      "kcn": 3836,
      "đỗ": 3837,
      "canh": 3838,
      "láo": 3839,
      "##10": 3840,
      "tít": 3841,
      "đua": 3842,
      "ỉa": 3843,
      "nỗi": 3844,
      "nv": 3845,
      "trứng": 3846,
      "chui": 3847,
      "kênh": 3848,
      "hoạch": 3849,
      "ninh": 3850,
      "tủ": 3851,
      "nồi": 3852,
      "max": 3853,
      "hùng": 3854,
      "hiếm": 3855,
      "##ướp": 3856,
      "khiến": 3857,
      "face": 3858,
      "mật": 3859,
      "sales": 3860,
      "ôi": 3861,
      "##tion": 3862,
      "hiền": 3863,
      "thúc": 3864,
      "lãnh": 3865,
      "cập": 3866,
      "thăm": 3867,
      "topic": 3868,
      "tấn": 3869,
      "xi": 3870,
      "mô": 3871,
      "vả": 3872,
      "vai": 3873,
      "treo": 3874,
      "off": 3875,
      "rời": 3876,
      "dứt": 3877,
      "lòi": 3878,
      "mảnh": 3879,
      "xả": 3880,
      "đam": 3881,
      "oto": 3882,
      "trần": 3883,
      "35": 3884,
      "bơm": 3885,
      "gen": 3886,
      "tịch": 3887,
      "##mi": 3888,
      "thiệu": 3889,
      "nghiên": 3890,
      "##rop": 3891,
      "móc": 3892,
      "##ờn": 3893,
      "##30": 3894,
      "tường": 3895,
      "##di": 3896,
      "heo": 3897,
      "tân": 3898,
      "toang": 3899,
      "thổi": 3900,
      "soát": 3901,
      "bầu": 3902,
      "buôn": 3903,
      "card": 3904,
      "cướp": 3905,
      "pi": 3906,
      "đần": 3907,
      "hoài": 3908,
      "vua": 3909,
      ",...": 3910,
      "cỏ": 3911,
      "cài": 3912,
      "nhan": 3913,
      "dán": 3914,
      "sv": 3915,
      "thắc": 3916,
      "bền": 3917,
      "lều": 3918,
      "pen": 3919,
      "xảy": 3920,
      "bá": 3921,
      "béo": 3922,
      "hương": 3923,
      "khinh": 3924,
      "cua": 3925,
      "tộc": 3926,
      "dày": 3927,
      "##ka": 3928,
      "hoà": 3929,
      "lào": 3930,
      "khắc": 3931,
      "ráng": 3932,
      "xuyên": 3933,
      "content": 3934,
      "ướ": 3935,
      "phủ": 3936,
      "##read": 3937,
      "xàm": 3938,
      "cọc": 3939,
      "gđ": 3940,
      "hề": 3941,
      "iphone": 3942,
      "email": 3943,
      "non": 3944,
      "22": 3945,
      "##ha": 3946,
      "vần": 3947,
      "##tel": 3948,
      "giám": 3949,
      "xuân": 3950,
      "điệp": 3951,
      "eu": 3952,
      "mụ": 3953,
      "na": 3954,
      "sàn": 3955,
      "nho": 3956,
      "us": 3957,
      "quái": 3958,
      "võ": 3959,
      "viêm": 3960,
      "đệ": 3961,
      "##ly": 3962,
      "##ze": 3963,
      "##ởm": 3964,
      "rep": 3965,
      "dõi": 3966,
      "##gn": 3967,
      "res": 3968,
      "##ốp": 3969,
      "at": 3970,
      "xịt": 3971,
      "sml": 3972,
      "lối": 3973,
      "hở": 3974,
      "tươi": 3975,
      "bấm": 3976,
      "gạo": 3977,
      "yah": 3978,
      "gym": 3979,
      "bờ": 3980,
      "gỗ": 3981,
      "str": 3982,
      "thuận": 3983,
      "dao": 3984,
      "chấn": 3985,
      "đốt": 3986,
      "gòn": 3987,
      "mờ": 3988,
      "tĩnh": 3989,
      "buộc": 3990,
      "dàng": 3991,
      "hcm": 3992,
      "***": 3993,
      "say": 3994,
      "yahoo": 3995,
      "##dy": 3996,
      "tạ": 3997,
      "thread": 3998,
      "nghiêm": 3999,
      "gro": 4000,
      "un": 4001,
      "##ỗng": 4002,
      "chè": 4003,
      "cv": 4004,
      "tấm": 4005,
      "cop": 4006,
      "hên": 4007,
      "=>": 4008,
      "chén": 4009,
      "phường": 4010,
      "gợi": 4011,
      "##ẵng": 4012,
      "hs": 4013,
      "hiệp": 4014,
      "sốt": 4015,
      "##qu": 4016,
      "bơi": 4017,
      "dàn": 4018,
      "##book": 4019,
      "phóng": 4020,
      "dí": 4021,
      "vân": 4022,
      "21": 4023,
      "bãi": 4024,
      "ps": 4025,
      "##sa": 4026,
      "##nd": 4027,
      "kẻ": 4028,
      "xì": 4029,
      "toy": 4030,
      "dạ": 4031,
      "rơi": 4032,
      "té": 4033,
      "vư": 4034,
      "ngoan": 4035,
      "dưng": 4036,
      "##bb": 4037,
      "bôi": 4038,
      "br": 4039,
      "ip": 4040,
      "đái": 4041,
      "thụ": 4042,
      "mập": 4043,
      "tik": 4044,
      "date": 4045,
      "khối": 4046,
      "mịa": 4047,
      "bí": 4048,
      "húp": 4049,
      "ái": 4050,
      "cmnl": 4051,
      "ke": 4052,
      "mỏi": 4053,
      "wi": 4054,
      "phanh": 4055,
      "hốt": 4056,
      "mảng": 4057,
      "##ễm": 4058,
      "cn": 4059,
      "bus": 4060,
      "mông": 4061,
      "giang": 4062,
      "lệch": 4063,
      "lê": 4064,
      "lục": 4065,
      "\".": 4066,
      "les": 4067,
      "ước": 4068,
      "nhịn": 4069,
      "họp": 4070,
      "fake": 4071,
      "500k": 4072,
      "##áp": 4073,
      "##ãng": 4074,
      "chớ": 4075,
      "clb": 4076,
      "nhảm": 4077,
      "al": 4078,
      "dẹp": 4079,
      "đền": 4080,
      "##hi": 4081,
      "tuyến": 4082,
      "##thu": 4083,
      "hon": 4084,
      "sung": 4085,
      "##kg": 4086,
      "đụng": 4087,
      "##fa": 4088,
      "chối": 4089,
      "nụ": 4090,
      "##ỏa": 4091,
      "mỡ": 4092,
      "thẩm": 4093,
      "huynh": 4094,
      "nguyễn": 4095,
      "99": 4096,
      "rã": 4097,
      "##ush": 4098,
      "##ry": 4099,
      "rưỡi": 4100,
      "ném": 4101,
      "phế": 4102,
      "bv": 4103,
      "lộn": 4104,
      "pass": 4105,
      "vp": 4106,
      "đằng": 4107,
      "chat": 4108,
      "thủy": 4109,
      "mổ": 4110,
      "xương": 4111,
      "##mm": 4112,
      "cau": 4113,
      "tan": 4114,
      "ngàn": 4115,
      "ja": 4116,
      "gg": 4117,
      "né": 4118,
      "nhét": 4119,
      "book": 4120,
      "sc": 4121,
      "##ts": 4122,
      "sub": 4123,
      "net": 4124,
      "khung": 4125,
      "##tok": 4126,
      "bám": 4127,
      "hò": 4128,
      "trống": 4129,
      "lách": 4130,
      "oke": 4131,
      "vd": 4132,
      "ac": 4133,
      "phiên": 4134,
      "dơ": 4135,
      "núi": 4136,
      "##xi": 4137,
      "thăng": 4138,
      "khắp": 4139,
      "group": 4140,
      "cx": 4141,
      "sn": 4142,
      "zalo": 4143,
      "ruột": 4144,
      "cẩn": 4145,
      "soi": 4146,
      "mar": 4147,
      "ole": 4148,
      "huống": 4149,
      "mãn": 4150,
      "2015": 4151,
      "ola": 4152,
      "chiếm": 4153,
      "bơ": 4154,
      "thải": 4155,
      "thỉnh": 4156,
      "your": 4157,
      "băng": 4158,
      "cán": 4159,
      "phiền": 4160,
      "khiển": 4161,
      "100k": 4162,
      "nhiễm": 4163,
      "cậu": 4164,
      "trư": 4165,
      "##bank": 4166,
      "iq": 4167,
      "lây": 4168,
      "côn": 4169,
      "hổ": 4170,
      "set": 4171,
      "##box": 4172,
      "tủi": 4173,
      "##]]": 4174,
      "kg": 4175,
      "phở": 4176,
      "city": 4177,
      "ku": 4178,
      "tôm": 4179,
      "san": 4180,
      "hít": 4181,
      "lọ": 4182,
      "page": 4183,
      "tv": 4184,
      "tồn": 4185,
      "##arch": 4186,
      "lò": 4187,
      "sing": 4188,
      "nghị": 4189,
      "tiktok": 4190,
      "dọn": 4191,
      "dẩm": 4192,
      "chuột": 4193,
      "bét": 4194,
      "dốt": 4195,
      "thánh": 4196,
      "##ast": 4197,
      "200k": 4198,
      "honda": 4199,
      "bún": 4200,
      "bs": 4201,
      "rùi": 4202,
      "sdt": 4203,
      "ùa": 4204,
      "ngắm": 4205,
      "quang": 4206,
      "tú": 4207,
      "150": 4208,
      "zin": 4209,
      "chang": 4210,
      "##xx": 4211,
      "quo": 4212,
      "bần": 4213,
      "cùi": 4214,
      "##eed": 4215,
      "sủa": 4216,
      "##_thu": 4217,
      "thai": 4218,
      "skin": 4219,
      "hủy": 4220,
      "đáy": 4221,
      "2020": 4222,
      "##_thu_": 4223,
      "cau_thu_": 4224,
      "deal": 4225,
      "pep": 4226,
      "dồn": 4227,
      "mòn": 4228,
      "min": 4229,
      "nga": 4230,
      "phối": 4231,
      "##dit": 4232,
      "cup": 4233,
      "lưới": 4234,
      "inter": 4235,
      "banh": 4236,
      "bụi": 4237,
      "op": 4238,
      "sóng": 4239,
      "rừng": 4240,
      "##ớp": 4241,
      "##ble": 4242,
      "##ash": 4243,
      "kha": 4244,
      "share": 4245,
      "cáp": 4246,
      "am": 4247,
      "hô": 4248,
      "tạp": 4249,
      "xách": 4250,
      "chịch": 4251,
      "nhạt": 4252,
      "thang": 4253,
      "điển": 4254,
      "thoáng": 4255,
      "bin": 4256,
      "tiềm": 4257,
      "đụt": 4258,
      "phỏng": 4259,
      "ngập": 4260,
      "leo": 4261,
      "kẹt": 4262,
      "vẩn": 4263,
      "##date": 4264,
      "lứa": 4265,
      "nạp": 4266,
      "##ion": 4267,
      "##ẫy": 4268,
      "huyện": 4269,
      "trạm": 4270,
      "đáp": 4271,
      "winner": 4272,
      "nhạy": 4273,
      "2tr": 4274,
      "tháo": 4275,
      "khởi": 4276,
      "úc": 4277,
      "chúa": 4278,
      "lốp": 4279,
      "túng": 4280,
      "haha": 4281,
      "lap": 4282,
      "search": 4283,
      "28": 4284,
      "##ũng": 4285,
      "viettel": 4286,
      "kn": 4287,
      "thơ": 4288,
      "khái": 4289,
      "lon": 4290,
      "##ằn": 4291,
      "ks": 4292,
      "đè": 4293,
      "hãm": 4294,
      "update": 4295,
      "phấn": 4296,
      "dăm": 4297,
      "cút": 4298,
      "nối": 4299,
      "vĩnh": 4300,
      "crush": 4301,
      "nhá": 4302,
      "gương": 4303,
      "lửa": 4304,
      "vđ": 4305,
      "xiên": 4306,
      "thùng": 4307,
      "copy": 4308,
      "nhắm": 4309,
      "rap": 4310,
      "phiếu": 4311,
      "họa": 4312,
      "dại": 4313,
      "##m2": 4314,
      "##man": 4315,
      "lun": 4316,
      "messi": 4317,
      "ste": 4318,
      "hoang": 4319,
      "bắp": 4320,
      "cấu": 4321,
      "##ump": 4322,
      "1st": 4323,
      "mệnh": 4324,
      "súng": 4325,
      "tật": 4326,
      "tẩy": 4327,
      "vội": 4328,
      "khiếp": 4329,
      "xoay": 4330,
      "##ram": 4331,
      "##ber": 4332,
      "nhựa": 4333,
      "45": 4334,
      "cúp": 4335,
      "khoá": 4336,
      "inbox": 4337,
      "facebook": 4338,
      "quote": 4339,
      "bếp": 4340,
      "drop": 4341,
      "##xh": 4342,
      "mụn": 4343,
      "wa": 4344,
      "ánh": 4345,
      "cf": 4346,
      "thui": 4347,
      "##ada": 4348,
      "27": 4349,
      "50k": 4350,
      "cường": 4351,
      "gáy": 4352,
      "rành": 4353,
      "hot": 4354,
      "car": 4355,
      "liệt": 4356,
      "new": 4357,
      "đếch": 4358,
      "bl": 4359,
      "rớt": 4360,
      "loz": 4361,
      "##ow": 4362,
      "view": 4363,
      "##dol": 4364,
      "biện": 4365,
      "lâm": 4366,
      "vỏ": 4367,
      "vặt": 4368,
      "hận": 4369,
      "tông": 4370,
      "hèn": 4371,
      "nô": 4372,
      "đuối": 4373,
      "40km": 4374,
      "trào": 4375,
      "úp": 4376,
      "5tr": 4377,
      "av": 4378,
      "dò": 4379,
      "##oi": 4380,
      "thổ": 4381,
      "dev": 4382,
      "rách": 4383,
      "##xt": 4384,
      "bể": 4385,
      "pa": 4386,
      "phò": 4387,
      "##ted": 4388,
      "\",": 4389,
      "hạt": 4390,
      "chênh": 4391,
      "chiên": 4392,
      "củng": 4393,
      "400": 4394,
      "kịch": 4395,
      "xuôi": 4396,
      "##................": 4397,
      "andro": 4398,
      "xạo": 4399,
      "giã": 4400,
      "sex": 4401,
      "lúa": 4402,
      "rô": 4403,
      "ống": 4404,
      "5t": 4405,
      "idol": 4406,
      "phu": 4407,
      "gầm": 4408,
      "vạn": 4409,
      "muối": 4410,
      "10k": 4411,
      "hàm": 4412,
      "lau": 4413,
      "pc": 4414,
      "##ud": 4415,
      "tụt": 4416,
      "spam": 4417,
      "hehe": 4418,
      "vờ": 4419,
      "##bc": 4420,
      "chay": 4421,
      "táo": 4422,
      "tráng": 4423,
      "sông": 4424,
      "trĩ": 4425,
      "seri": 4426,
      "nhổ": 4427,
      "##era": 4428,
      "indo": 4429,
      "1k": 4430,
      "tái": 4431,
      "##ft": 4432,
      "thỏa": 4433,
      "duyệt": 4434,
      "sen": 4435,
      "var": 4436,
      "##20": 4437,
      "##lot": 4438,
      "sắm": 4439,
      "lầm": 4440,
      "rần": 4441,
      "haiz": 4442,
      "23": 4443,
      "##io": 4444,
      "bỉ": 4445,
      "vất": 4446,
      "android": 4447,
      "đành": 4448,
      "2021": 4449,
      "##sk": 4450,
      "trump": 4451,
      "quất": 4452,
      "10tr": 4453,
      "cột": 4454,
      "hom": 4455,
      "##ord": 4456,
      "2016": 4457,
      "8x": 4458,
      "lùi": 4459,
      "đút": 4460,
      "ẩm": 4461,
      "cấn": 4462,
      "duyên": 4463,
      "hứa": 4464,
      "xăm": 4465,
      "##ian": 4466,
      "chel": 4467,
      "nhì": 4468,
      "tro": 4469,
      "bung": 4470,
      "giường": 4471,
      "2022": 4472,
      "chăn": 4473,
      "liv": 4474,
      "đuôi": 4475,
      "lót": 4476,
      "săn": 4477,
      "##wn": 4478,
      "alo": 4479,
      "vú": 4480,
      "conta": 4481,
      "mớ": 4482,
      "##aa": 4483,
      "26": 4484,
      "hd": 4485,
      "sàng": 4486,
      "xạ": 4487,
      "thói": 4488,
      "##chi": 4489,
      "kiếp": 4490,
      "vương": 4491,
      "trọn": 4492,
      "bn": 4493,
      "gầy": 4494,
      "rủi": 4495,
      "##ml": 4496,
      "##ọa": 4497,
      "quãng": 4498,
      "loa": 4499,
      "sgbb": 4500,
      "nãy": 4501,
      "đốc": 4502,
      "##min": 4503,
      "ngộ": 4504,
      "size": 4505,
      "bđ": 4506,
      "conan": 4507,
      "##ata": 4508,
      "nẵng": 4509,
      "phốt": 4510,
      "bm": 4511,
      "lĩnh": 4512,
      "36": 4513,
      "pv": 4514,
      "vâng": 4515,
      "xỉ": 4516,
      "##pa": 4517,
      "tứ": 4518,
      "vf": 4519,
      "trao": 4520,
      "phèn": 4521,
      "boy": 4522,
      "nướng": 4523,
      "nhấp": 4524,
      "chiêu": 4525,
      "##tra": 4526,
      "##gb": 4527,
      "##uu": 4528,
      "son": 4529,
      "khịa": 4530,
      "ju": 4531,
      "bóc": 4532,
      "nản": 4533,
      "##12": 4534,
      "##ed": 4535,
      "##by": 4536,
      "đk": 4537,
      "##rm": 4538,
      "ngơ": 4539,
      "combo": 4540,
      "lưỡi": 4541,
      "nn": 4542,
      "trấn": 4543,
      "hnao": 4544,
      "barca": 4545,
      "hao": 4546,
      "săm": 4547,
      "tiệp": 4548,
      "tua": 4549,
      "bông": 4550,
      "làn": 4551,
      "kháng": 4552,
      "noel": 4553,
      "##ght": 4554,
      "ben": 4555,
      "ớt": 4556,
      "giận": 4557,
      "đồn": 4558,
      "lặp": 4559,
      "tam": 4560,
      "uh": 4561,
      "laz": 4562,
      "skinner": 4563,
      "dỗ": 4564,
      "ung": 4565,
      "vắng": 4566,
      "khâm": 4567,
      "gan": 4568,
      "##go": 4569,
      "bột": 4570,
      "fr": 4571,
      "lính": 4572,
      "mắm": 4573,
      "sti": 4574,
      "chip": 4575,
      "##ade": 4576,
      "hối": 4577,
      "rối": 4578,
      "vang": 4579,
      "giấu": 4580,
      "khuyến": 4581,
      "all": 4582,
      "lăng": 4583,
      "buff": 4584,
      ")))": 4585,
      "ran": 4586,
      "reup": 4587,
      "6h": 4588,
      "cro": 4589,
      "##va": 4590,
      "pháo": 4591,
      "2014": 4592,
      "box": 4593,
      "thảo": 4594,
      "bạch": 4595,
      "tạch": 4596,
      "tào": 4597,
      "##om": 4598,
      "##tac": 4599,
      "tech": 4600,
      "000": 4601,
      "nấy": 4602,
      "vá": 4603,
      "thảm": 4604,
      "##vel": 4605,
      "back": 4606,
      "lát": 4607,
      "nhàn": 4608,
      "taxi": 4609,
      "visa": 4610,
      "2x": 4611,
      "best": 4612,
      "mười": 4613,
      "nít": 4614,
      "ồn": 4615,
      "trêu": 4616,
      "cb": 4617,
      "ám": 4618,
      "phái": 4619,
      "bào": 4620,
      "thiểu": 4621,
      "lận": 4622,
      "of": 4623,
      "sờ": 4624,
      "##ara": 4625,
      "ple": 4626,
      "tàn": 4627,
      "vầy": 4628,
      "chắp": 4629,
      "huyết": 4630,
      "huyền": 4631,
      "cốt": 4632,
      "gồm": 4633,
      "n1": 4634,
      "tùng": 4635,
      "đú": 4636,
      "apple": 4637,
      "bực": 4638,
      "ctac": 4639,
      "váy": 4640,
      "diệt": 4641,
      "manh": 4642,
      "##kh": 4643,
      "ghẻ": 4644,
      "tb": 4645,
      "ốc": 4646,
      "chua": 4647,
      "sắt": 4648,
      "tòa": 4649,
      "vướng": 4650,
      "##rr": 4651,
      "##ờm": 4652,
      "nút": 4653,
      "ss": 4654,
      "##ge": 4655,
      "nhở": 4656,
      "mail": 4657,
      "mạt": 4658,
      "đềm": 4659,
      "=]]": 4660,
      "##pper": 4661,
      "spa": 4662,
      "600": 4663,
      "binh": 4664,
      "bèo": 4665,
      "mn": 4666,
      "nể": 4667,
      "vánh": 4668,
      "1000": 4669,
      "cổng": 4670,
      "!!!": 4671,
      "3x": 4672,
      "##kk": 4673,
      "thầu": 4674,
      "tit": 4675,
      "chuộng": 4676,
      "##top": 4677,
      "##ot": 4678,
      "thờ": 4679,
      "chật": 4680,
      "ghé": 4681,
      "ib": 4682,
      "lậu": 4683,
      "hảo": 4684,
      "dưa": 4685,
      "lú": 4686,
      "##ex": 4687,
      "phịch": 4688,
      "quỹ": 4689,
      "anti": 4690,
      "##com": 4691,
      "cát": 4692,
      "cắp": 4693,
      "gãy": 4694,
      "ms": 4695,
      "tt": 4696,
      "ngực": 4697,
      "giặt": 4698,
      "liêm": 4699,
      "dai": 4700,
      "dọa": 4701,
      "mộ": 4702,
      "song": 4703,
      "nghìn": 4704,
      "reset": 4705,
      "dâu": 4706,
      "hiến": 4707,
      "lủng": 4708,
      "##33": 4709,
      "chăng": 4710,
      "thuần": 4711,
      "đĩa": 4712,
      "3tr": 4713,
      "##per": 4714,
      "giấc": 4715,
      "dùm": 4716,
      "tạt": 4717,
      "khựa": 4718,
      "big": 4719,
      "2012": 4720,
      "nhuận": 4721,
      "ev": 4722,
      "hđ": 4723,
      "há": 4724,
      "tuyên": 4725,
      "##40": 4726,
      "koo": 4727,
      "culi": 4728,
      "park": 4729,
      "##ato": 4730,
      "lead": 4731,
      "ngứa": 4732,
      "##low": 4733,
      "##ague": 4734,
      "##uch": 4735,
      "coin": 4736,
      "rét": 4737,
      "wor": 4738,
      "đậm": 4739,
      "2018": 4740,
      "bậy": 4741,
      "thâm": 4742,
      "lux": 4743,
      "logic": 4744,
      "cưa": 4745,
      "lỏ": 4746,
      "tw": 4747,
      "##oz": 4748,
      "##ỉa": 4749,
      "rang": 4750,
      "mốt": 4751,
      "tởm": 4752,
      "đn": 4753,
      "ôn": 4754,
      "chích": 4755,
      "cạo": 4756,
      "xh": 4757,
      "##eam": 4758,
      "ngâm": 4759,
      "quẹt": 4760,
      "cản": 4761,
      "phím": 4762,
      "bùng": 4763,
      "gạ": 4764,
      "lụ": 4765,
      "ngọc": 4766,
      "khán": 4767,
      "vios": 4768,
      "ccc": 4769,
      "nhường": 4770,
      "##ance": 4771,
      "loài": 4772,
      "time": 4773,
      "ak": 4774,
      "tò": 4775,
      "xông": 4776,
      "đãi": 4777,
      "proble": 4778,
      "mồ": 4779,
      "tách": 4780,
      "chôn": 4781,
      "vcb": 4782,
      "##ild": 4783,
      "fpt": 4784,
      "xế": 4785,
      "euro": 4786,
      "please": 4787,
      "lội": 4788,
      "múc": 4789,
      "mực": 4790,
      "thg": 4791,
      "triệt": 4792,
      "loanh": 4793,
      "300k": 4794,
      "##nn": 4795,
      "##ậc": 4796,
      "thối": 4797,
      "gom": 4798,
      "3d": 4799,
      "75": 4800,
      "9x": 4801,
      "gd": 4802,
      "chuyến": 4803,
      "cốp": 4804,
      "form": 4805,
      "bọt": 4806,
      "hp": 4807,
      "vết": 4808,
      "chạn": 4809,
      "tot": 4810,
      "next": 4811,
      "cai": 4812,
      "gân": 4813,
      "##ali": 4814,
      "clone": 4815,
      "30k": 4816,
      "mọc": 4817,
      "mau": 4818,
      "chọc": 4819,
      "phức": 4820,
      "bịa": 4821,
      "chảnh": 4822,
      "##estay": 4823,
      "mềnh": 4824,
      "homestay": 4825,
      "dịp": 4826,
      "thoái": 4827,
      "problems": 4828,
      "bang": 4829,
      "en": 4830,
      "hr": 4831,
      "hầm": 4832,
      "##ớn": 4833,
      "shi": 4834,
      "đoan": 4835,
      "100tr": 4836,
      "os": 4837,
      "##đt": 4838,
      "khơi": 4839,
      "xích": 4840,
      "line": 4841,
      "##ọe": 4842,
      "##ếch": 4843,
      "giành": 4844,
      "hack": 4845,
      "psg": 4846,
      "bth": 4847,
      "del": 4848,
      "mại": 4849,
      "rốt": 4850,
      "##ul": 4851,
      "phó": 4852,
      "bđs": 4853,
      "rước": 4854,
      "trượt": 4855,
      "dái": 4856,
      "dốc": 4857,
      "tấp": 4858,
      "đèo": 4859,
      "ẩn": 4860,
      "hoi": 4861,
      "2019": 4862,
      "hưu": 4863,
      "29": 4864,
      "gắt": 4865,
      "ké": 4866,
      "men": 4867,
      "mặn": 4868,
      "khoai": 4869,
      "bậc": 4870,
      "fl": 4871,
      "mượt": 4872,
      "##ho": 4873,
      "vườn": 4874,
      "ct": 4875,
      "hằng": 4876,
      "xắn": 4877,
      "xào": 4878,
      "chổ": 4879,
      "##ane": 4880,
      "tổn": 4881,
      "##----": 4882,
      "gú": 4883,
      "##so": 4884,
      "##fo": 4885,
      "main": 4886,
      "##und": 4887,
      "bức": 4888,
      "x2": 4889,
      "##gi": 4890,
      "##ỡn": 4891,
      "wave": 4892,
      "bư": 4893,
      "hẻ": 4894,
      "phe": 4895,
      "cuồng": 4896,
      "20k": 4897,
      "bời": 4898,
      "##ềnh": 4899,
      "khoái": 4900,
      "kem": 4901,
      "lèo": 4902,
      "riết": 4903,
      "##ern": 4904,
      "dập": 4905,
      "mem": 4906,
      "##be": 4907,
      "##ps": 4908,
      "lung": 4909,
      "live": 4910,
      "option": 4911,
      "mark": 4912,
      "sạn": 4913,
      "##ìa": 4914,
      "##ime": 4915,
      "lả": 4916,
      "đặn": 4917,
      "20tr": 4918,
      "xoá": 4919,
      "bênh": 4920,
      "cốc": 4921,
      "giãn": 4922,
      "this": 4923,
      "steak": 4924,
      "800": 4925,
      "nứt": 4926,
      "700": 4927,
      "bra": 4928,
      "gối": 4929,
      "##ure": 4930,
      "thọ": 4931,
      "trú": 4932,
      "phật": 4933,
      "kiên": 4934,
      "%,": 4935,
      "cống": 4936,
      "cào": 4937,
      "tn": 4938,
      "##lan": 4939,
      "bùa": 4940,
      "case": 4941,
      "sốc": 4942,
      "##ist": 4943,
      "thô": 4944,
      "not": 4945,
      "troll": 4946,
      "ao": 4947,
      "mị": 4948,
      "bid": 4949,
      "100km": 4950,
      "hê": 4951,
      "lắc": 4952,
      "m2": 4953,
      "mẽ": 4954,
      "sập": 4955,
      "quạt": 4956,
      "camera": 4957,
      "đếm": 4958,
      "hố": 4959,
      "mộng": 4960,
      "râu": 4961,
      "vẹn": 4962,
      "đùi": 4963,
      "))))": 4964,
      "##dd": 4965,
      "##bu": 4966,
      "apply": 4967,
      "xiao": 4968,
      "nén": 4969,
      "khỉ": 4970,
      "nhẫn": 4971,
      "ngán": 4972,
      "mài": 4973,
      "type": 4974,
      "vcc": 4975,
      "gang": 4976,
      "lật": 4977,
      "liều": 4978,
      "”.": 4979,
      "tru": 4980,
      "red": 4981,
      "bad": 4982,
      "rồng": 4983,
      "xl": 4984,
      "build": 4985,
      "file": 4986,
      "bon": 4987,
      "mỏng": 4988,
      "thấu": 4989,
      "ngó": 4990,
      "cuốc": 4991,
      "tiki": 4992,
      "cúm": 4993,
      "khuya": 4994,
      "series": 4995,
      "bẻ": 4996,
      "họng": 4997,
      "lạm": 4998,
      "đạn": 4999,
      "trùm": 5000,
      "tgian": 5001,
      "rà": 5002,
      "nhóc": 5003,
      "trễ": 5004,
      "nhược": 5005,
      "đểu": 5006,
      "call": 5007,
      "dép": 5008,
      "rung": 5009,
      "sỹ": 5010,
      "bds": 5011,
      "dũng": 5012,
      "nan": 5013,
      "rắn": 5014,
      "van": 5015,
      "##pi": 5016,
      "nhánh": 5017,
      "quăng": 5018,
      "##asy": 5019,
      "95": 5020,
      "fil": 5021,
      "gr": 5022,
      "mas": 5023,
      "pre": 5024,
      "xé": 5025,
      "đớn": 5026,
      "##??": 5027,
      "##ỏn": 5028,
      "ngôi": 5029,
      "hang": 5030,
      "lam": 5031,
      "rén": 5032,
      "tph": 5033,
      "vời": 5034,
      "##gar": 5035,
      "cháo": 5036,
      "trend": 5037,
      "##atar": 5038,
      "maz": 5039,
      "vinh": 5040,
      "vtv": 5041,
      "nhể": 5042,
      "ngựa": 5043,
      "quỳ": 5044,
      "2v": 5045,
      "##zon": 5046,
      "12h": 5047,
      "lazada": 5048,
      "lì": 5049,
      "##ne": 5050,
      "huế": 5051,
      "2023": 5052,
      "as": 5053,
      "dãi": 5054,
      "lắng": 5055,
      "rễ": 5056,
      "quét": 5057,
      "##ina": 5058,
      "chuối": 5059,
      "vir": 5060,
      "hiếp": 5061,
      "xám": 5062,
      "ghép": 5063,
      "some": 5064,
      "##ood": 5065,
      "baby": 5066,
      "bai": 5067,
      "dram": 5068,
      "hưng": 5069,
      "lồng": 5070,
      "pt": 5071,
      "rẽ": 5072,
      "##son": 5073,
      "chùa": 5074,
      "chủng": 5075,
      "mazda": 5076,
      "ama": 5077,
      "lề": 5078,
      "tá": 5079,
      "zai": 5080,
      "ngón": 5081,
      "khoát": 5082,
      "list": 5083,
      "2013": 5084,
      "body": 5085,
      "intern": 5086,
      "tphcm": 5087,
      "bế": 5088,
      "ky": 5089,
      "lùa": 5090,
      "tê": 5091,
      "ngửi": 5092,
      "train": 5093,
      "hiếu": 5094,
      "moá": 5095,
      "2000": 5096,
      "bão": 5097,
      "lạt": 5098,
      "tuấn": 5099,
      "cúng": 5100,
      "##gg": 5101,
      "quỷ": 5102,
      "cức": 5103,
      "quyển": 5104,
      "bọc": 5105,
      "bạt": 5106,
      "lít": 5107,
      "mâm": 5108,
      "ver": 5109,
      "arg": 5110,
      "lang": 5111,
      "lag": 5112,
      "mit": 5113,
      "##ko": 5114,
      "##orn": 5115,
      "drama": 5116,
      "32": 5117,
      "dả": 5118,
      "mỏ": 5119,
      "mou": 5120,
      "vạch": 5121,
      "wow": 5122,
      "##ợm": 5123,
      "##ựng": 5124,
      "ngột": 5125,
      "trinh": 5126,
      "##sion": 5127,
      "cồn": 5128,
      "data": 5129,
      "mốc": 5130,
      "##cel": 5131,
      "thấm": 5132,
      "nhợn": 5133,
      "head": 5134,
      "gập": 5135,
      "han": 5136,
      "rạp": 5137,
      "run": 5138,
      "tour": 5139,
      "f1": 5140,
      "lấn": 5141,
      "mb": 5142,
      "mạn": 5143,
      "xôi": 5144,
      "##fen": 5145,
      "ngớ": 5146,
      "mobi": 5147,
      "50km": 5148,
      "bỗng": 5149,
      "mt": 5150,
      "mây": 5151,
      "sams": 5152,
      "stress": 5153,
      "''": 5154,
      "bồi": 5155,
      "rỗng": 5156,
      "##ick": 5157,
      "nhai": 5158,
      "ngõ": 5159,
      "trại": 5160,
      "cóc": 5161,
      "club": 5162,
      "lệnh": 5163,
      "xưởng": 5164,
      "##po": 5165,
      "confi": 5166,
      "bách": 5167,
      "usd": 5168,
      "múa": 5169,
      "vững": 5170,
      "ủn": 5171,
      "trích": 5172,
      "cccd": 5173,
      "c2": 5174,
      "lờ": 5175,
      "pk": 5176,
      "khẳng": 5177,
      "bom": 5178,
      "##back": 5179,
      "fe": 5180,
      "chậu": 5181,
      "trưng": 5182,
      "phụng": 5183,
      "giề": 5184,
      "khói": 5185,
      "##iiii": 5186,
      "admin": 5187,
      "5k": 5188,
      "bạo": 5189,
      "cre": 5190,
      "easy": 5191,
      "mp": 5192,
      "rụng": 5193,
      "triều": 5194,
      "trúc": 5195,
      "đinh": 5196,
      "dẫm": 5197,
      "hụt": 5198,
      "lẹ": 5199,
      "##cu": 5200,
      "##23": 5201,
      "chuông": 5202,
      "120": 5203,
      "press": 5204,
      "chen": 5205,
      "chợt": 5206,
      "tràn": 5207,
      "amazon": 5208,
      "hông": 5209,
      "nháy": 5210,
      "giùm": 5211,
      "mưu": 5212,
      "kb": 5213,
      "lòn": 5214,
      "mer": 5215,
      "##ona": 5216,
      "thuyền": 5217,
      "199": 5218,
      "cất": 5219,
      "đb": 5220,
      "đai": 5221,
      "cự": 5222,
      "epl": 5223,
      "gội": 5224,
      "mét": 5225,
      "tớ": 5226,
      "vở": 5227,
      "yến": 5228,
      "##h30": 5229,
      "luộc": 5230,
      "league": 5231,
      "rổ": 5232,
      "khắm": 5233,
      "air": 5234,
      "##ater": 5235,
      "rưởi": 5236,
      "samsung": 5237,
      "same": 5238,
      "vuông": 5239,
      "hán": 5240,
      "thôn": 5241,
      "lãng": 5242,
      "dê": 5243,
      "lạy": 5244,
      "tống": 5245,
      "nuối": 5246,
      "phuộc": 5247,
      "lặng": 5248,
      "mac": 5249,
      "cơn": 5250,
      "per": 5251,
      "vặn": 5252,
      "ân": 5253,
      "##mar": 5254,
      "thách": 5255,
      "lươn": 5256,
      "##ation": 5257,
      "cửng": 5258,
      "job": 5259,
      "ll": 5260,
      "sx": 5261,
      "thề": 5262,
      "phũ": 5263,
      "hiển": 5264,
      "##esh": 5265,
      "nguyện": 5266,
      "jack": 5267,
      "hẻm": 5268,
      "dạn": 5269,
      "lặn": 5270,
      "ski": 5271,
      "ngũ": 5272,
      "50tr": 5273,
      "mat": 5274,
      "rực": 5275,
      "vt": 5276,
      "đục": 5277,
      "##ress": 5278,
      "thước": 5279,
      "chà": 5280,
      "nhượng": 5281,
      "toi": 5282,
      "vib": 5283,
      "market": 5284,
      "fo": 5285,
      "vạ": 5286,
      "##nt": 5287,
      "##ýt": 5288,
      "nhẽ": 5289,
      "khớp": 5290,
      "tỏa": 5291,
      "uni": 5292,
      "bái": 5293,
      "dọc": 5294,
      "ot": 5295,
      "sảng": 5296,
      "vỉa": 5297,
      "shit": 5298,
      "khuôn": 5299,
      "note": 5300,
      "ars": 5301,
      "skill": 5302,
      "cp": 5303,
      "lởm": 5304,
      "đòn": 5305,
      "giáp": 5306,
      "đệm": 5307,
      "bến": 5308,
      "dã": 5309,
      "đùng": 5310,
      "thập": 5311,
      "tc": 5312,
      "phan": 5313,
      "vouch": 5314,
      "voucher": 5315,
      "sw": 5316,
      "##cy": 5317,
      "##ým": 5318,
      "ngăn": 5319,
      "sugar": 5320,
      "30p": 5321,
      "55": 5322,
      "sỉ": 5323,
      "thép": 5324,
      "thým": 5325,
      "##inu": 5326,
      "tivi": 5327,
      "##our": 5328,
      "nhờn": 5329,
      "confirm": 5330,
      "cong": 5331,
      "keo": 5332,
      "nhát": 5333,
      "##arm": 5334,
      "2017": 5335,
      "black": 5336,
      "bk": 5337,
      "bạ": 5338,
      "cối": 5339,
      "khấu": 5340,
      "giảng": 5341,
      "down": 5342,
      "viễn": 5343,
      "##aha": 5344,
      "abs": 5345,
      "key": 5346,
      "cớ": 5347,
      "end": 5348,
      "hú": 5349,
      "ròng": 5350,
      "##ci": 5351,
      "##con": 5352,
      "thụt": 5353,
      "nghịch": 5354,
      "lum": 5355,
      "##ero": 5356,
      "add": 5357,
      "rãnh": 5358,
      "ass": 5359,
      "bề": 5360,
      "hí": 5361,
      "kẹo": 5362,
      "lóc": 5363,
      "slot": 5364,
      "##iệc": 5365,
      "loay": 5366,
      "supp": 5367,
      "tuyền": 5368,
      "day": 5369,
      "if": 5370,
      "móng": 5371,
      "đùn": 5372,
      "què": 5373,
      "hope": 5374,
      "còm": 5375,
      "clo": 5376,
      "lộc": 5377,
      "mác": 5378,
      "rỡ": 5379,
      "sừng": 5380,
      "ts": 5381,
      "ốp": 5382,
      "##mit": 5383,
      "##ui": 5384,
      "chanh": 5385,
      "hoay": 5386,
      "nuốt": 5387,
      "haizz": 5388,
      "laptop": 5389,
      "74": 5390,
      "dội": 5391,
      "gào": 5392,
      "ign": 5393,
      "lơ": 5394,
      "chiết": 5395,
      "nhái": 5396,
      "liver": 5397,
      "space": 5398,
      "film": 5399,
      "rộn": 5400,
      "tấu": 5401,
      "phà": 5402,
      "phủi": 5403,
      "kiu": 5404,
      "buông": 5405,
      "##tyle": 5406,
      "info": 5407,
      "cap": 5408,
      "cross": 5409,
      "38": 5410,
      "lc": 5411,
      "ngầm": 5412,
      "ranh": 5413,
      "##sea": 5414,
      "play": 5415,
      "bội": 5416,
      "bet": 5417,
      "hel": 5418,
      "sel": 5419,
      "ưa": 5420,
      "ới": 5421,
      "ngẩn": 5422,
      "trộn": 5423,
      "dis": 5424,
      "world": 5425,
      "cương": 5426,
      "dell": 5427,
      "đắn": 5428,
      "đắp": 5429,
      "##ins": 5430,
      "bayern": 5431,
      "logo": 5432,
      "rũ": 5433,
      "sót": 5434,
      "xẻ": 5435,
      "##ap": 5436,
      "via": 5437,
      "##iii": 5438,
      "sùng": 5439,
      "nhịp": 5440,
      "muôn": 5441,
      "chứa": 5442,
      "loạt": 5443,
      "##ath": 5444,
      "chín": 5445,
      "ven": 5446,
      "xay": 5447,
      "ngửa": 5448,
      "try": 5449,
      "high": 5450,
      "tùm": 5451,
      "smart": 5452,
      "hsbc": 5453,
      "aga": 5454,
      "rậm": 5455,
      "momo": 5456,
      "have": 5457,
      "##tvoz": 5458,
      "again": 5459,
      "350": 5460,
      "cas": 5461,
      "sầu": 5462,
      "nhặt": 5463,
      "nhãn": 5464,
      "khiếu": 5465,
      "phông": 5466,
      "nhẹn": 5467,
      "bhxh": 5468,
      "##aka": 5469,
      "##play": 5470,
      "chelsea": 5471,
      "ignore": 5472,
      "hét": 5473,
      "mửa": 5474,
      "ngót": 5475,
      "phét": 5476,
      "rea": 5477,
      "tbn": 5478,
      "4tr": 5479,
      "bưng": 5480,
      "fame": 5481,
      "mỳ": 5482,
      "rồ": 5483,
      "##ice": 5484,
      "ngạo": 5485,
      "trữ": 5486,
      "hoảng": 5487,
      "đáo": 5488,
      "##ator": 5489,
      "mơn": 5490,
      "ve": 5491,
      "then": 5492,
      "order": 5493,
      "virus": 5494,
      "edit": 5495,
      "iu": 5496,
      "kar": 5497,
      "liếm": 5498,
      "nập": 5499,
      "tó": 5500,
      "##60": 5501,
      "thốn": 5502,
      "cmnd": 5503,
      "xiaomi": 5504,
      "dad": 5505,
      "nở": 5506,
      "ráp": 5507,
      "xá": 5508,
      "##18": 5509,
      "##dan": 5510,
      "##gt": 5511,
      "125": 5512,
      "dì": 5513,
      "mẻ": 5514,
      "n2": 5515,
      "nồng": 5516,
      "par": 5517,
      "giò": 5518,
      "rao": 5519,
      "ngoãn": 5520,
      "##ous": 5521,
      "2010": 5522,
      "##ops": 5523,
      "nhìu": 5524,
      "hệt": 5525,
      "giây": 5526,
      "bổng": 5527,
      "internet": 5528,
      "80km": 5529,
      "bừa": 5530,
      "lột": 5531,
      "lõi": 5532,
      "vải": 5533,
      "vẹo": 5534,
      "##nam": 5535,
      "##rd": 5536,
      "##ễu": 5537,
      "khú": 5538,
      "hic": 5539,
      "one": 5540,
      "ruộng": 5541,
      "dd": 5542,
      "dt": 5543,
      "hẹp": 5544,
      "lể": 5545,
      "tảng": 5546,
      "tiệc": 5547,
      "ếch": 5548,
      "##vic": 5549,
      "##ction": 5550,
      "thừng": 5551,
      "mởn": 5552,
      "exp": 5553,
      "title": 5554,
      "shipper": 5555,
      "bì": 5556,
      "hái": 5557,
      "sếch": 5558,
      "tem": 5559,
      "vẩu": 5560,
      "đếu": 5561,
      "đẽo": 5562,
      "##yt": 5563,
      "nàng": 5564,
      "##ino": 5565,
      "khoán": 5566,
      "avatar": 5567,
      "mits": 5568,
      "des": 5569,
      "ob": 5570,
      "tăn": 5571,
      "vĩ": 5572,
      "đố": 5573,
      "##ton": 5574,
      "trơn": 5575,
      "129": 5576,
      "sườn": 5577,
      "atm": 5578,
      "bat": 5579,
      "ele": 5580,
      "hung": 5581,
      "tát": 5582,
      "tre": 5583,
      "20t": 5584,
      "rượi": 5585,
      "report": 5586,
      "##qua": 5587,
      "mini": 5588,
      "support": 5589,
      "31": 5590,
      "farm": 5591,
      "sl": 5592,
      "##ric": 5593,
      "##tro": 5594,
      "##uno": 5595,
      "cd": 5596,
      "cẩu": 5597,
      "tần": 5598,
      "##80": 5599,
      "cx5": 5600,
      "mon": 5601,
      "##íu": 5602,
      "nhức": 5603,
      "ngơi": 5604,
      "pho": 5605,
      "phập": 5606,
      "##lex": 5607,
      "bit": 5608,
      "mot": 5609,
      "contact": 5610,
      "hạch": 5611,
      "kkk": 5612,
      "lẫm": 5613,
      "mic": 5614,
      "pp": 5615,
      "đựng": 5616,
      "##ía": 5617,
      "trục": 5618,
      "nóc": 5619,
      "ghim": 5620,
      "rườm": 5621,
      "còi": 5622,
      "mẩu": 5623,
      "style": 5624,
      "xước": 5625,
      "##aw": 5626,
      "ngậm": 5627,
      "giời": 5628,
      "vinf": 5629,
      "myan": 5630,
      "care": 5631,
      "el": 5632,
      "lơi": 5633,
      "tăm": 5634,
      "ướt": 5635,
      "ram": 5636,
      "lui": 5637,
      "chit": 5638,
      "30tr": 5639,
      "##ide": 5640,
      "tks": 5641,
      "1h": 5642,
      "bân": 5643,
      "har": 5644,
      "ong": 5645,
      "qúa": 5646,
      "xam": 5647,
      "đực": 5648,
      "ối": 5649,
      "thiệp": 5650,
      "trân": 5651,
      "toà": 5652,
      "shot": 5653,
      "ed": 5654,
      "ez": 5655,
      "f33": 5656,
      "lm": 5657,
      "lọt": 5658,
      "ns": 5659,
      "xề": 5660,
      "##ẹc": 5661,
      "khoan": 5662,
      "pog": 5663,
      "cash": 5664,
      "gv": 5665,
      "mal": 5666,
      "war": 5667,
      "##19": 5668,
      "chìm": 5669,
      "ngô": 5670,
      "def": 5671,
      "1m7": 5672,
      "stick": 5673,
      "3h": 5674,
      "65": 5675,
      "ag": 5676,
      "dè": 5677,
      "##ie": 5678,
      "##bv": 5679,
      "trương": 5680,
      "trội": 5681,
      "lượn": 5682,
      "ksao": 5683,
      "myanmar": 5684,
      "8h": 5685,
      "bồn": 5686,
      "cđ": 5687,
      "ml": 5688,
      "rạc": 5689,
      "chát": 5690,
      "nhấn": 5691,
      "##ind": 5692,
      "chuỗi": 5693,
      "solo": 5694,
      "##tis": 5695,
      "sport": 5696,
      "es": 5697,
      "gác": 5698,
      "gồng": 5699,
      "rể": 5700,
      "sôi": 5701,
      "đan": 5702,
      "nhỡ": 5703,
      "quẩy": 5704,
      "cáu": 5705,
      "15tr": 5706,
      "mike": 5707,
      "##!!!!": 5708,
      "master": 5709,
      "pressing": 5710,
      "marketing": 5711,
      "ada": 5712,
      "gò": 5713,
      "tàng": 5714,
      "xô": 5715,
      "zái": 5716,
      "ủi": 5717,
      "cug": 5718,
      "##eta": 5719,
      "##extvoz": 5720,
      "thenextvoz": 5721,
      "by": 5722,
      "bự": 5723,
      "bới": 5724,
      "húc": 5725,
      "kai": 5726,
      "nạt": 5727,
      "vong": 5728,
      "##zil": 5729,
      "##yy": 5730,
      "tier": 5731,
      "map": 5732,
      "freud": 5733,
      "fol": 5734,
      "hâm": 5735,
      "kiệt": 5736,
      "pm": 5737,
      "vắt": 5738,
      "đảng": 5739,
      "##15": 5740,
      "chừa": 5741,
      "khốn": 5742,
      "ghềnh": 5743,
      "daddy": 5744,
      "bỡn": 5745,
      "nứng": 5746,
      "rạn": 5747,
      "xxx": 5748,
      "lược": 5749,
      "##let": 5750,
      "##ool": 5751,
      "400k": 5752,
      "8tr": 5753,
      "db": 5754,
      "kiều": 5755,
      "ol": 5756,
      "oops": 5757,
      "wh": 5758,
      "##xy": 5759,
      "##cho": 5760,
      "king": 5761,
      "beer": 5762,
      "abc": 5763,
      "điệu": 5764,
      "stream": 5765,
      "wifi": 5766,
      "lesor": 5767,
      "oan": 5768,
      "tèo": 5769,
      "chồ": 5770,
      "giam": 5771,
      "que": 5772,
      "điền": 5773,
      "hihi": 5774,
      "led": 5775,
      "lũy": 5776,
      "dh": 5777,
      "ir": 5778,
      "sy": 5779,
      "xòa": 5780,
      "##ger": 5781,
      "nghễ": 5782,
      "10h": 5783,
      "##))))": 5784,
      "mp3": 5785,
      "vinfast": 5786,
      "cùn": 5787,
      "dinh": 5788,
      "hỷ": 5789,
      "oải": 5790,
      "##ộp": 5791,
      "thác": 5792,
      "loan": 5793,
      "sợi": 5794,
      "nuôn": 5795,
      "##out": 5796,
      "37": 5797,
      "33": 5798,
      "qủa": 5799,
      "rãi": 5800,
      "rym": 5801,
      "vã": 5802,
      "##ior": 5803,
      "khùng": 5804,
      "huỷ": 5805,
      "bec": 5806,
      "2h": 5807,
      "gre": 5808,
      "mg": 5809,
      "mass": 5810,
      "##lic": 5811,
      "ngự": 5812,
      "##ause": 5813,
      "dằm": 5814,
      "gar": 5815,
      "lỏng": 5816,
      "mv": 5817,
      "mợ": 5818,
      "nai": 5819,
      "reo": 5820,
      "td": 5821,
      "##na": 5822,
      "##bat": 5823,
      "phơi": 5824,
      "phẳng": 5825,
      "##ely": 5826,
      "level": 5827,
      "##uru": 5828,
      "09": 5829,
      "5h": 5830,
      "cởi": 5831,
      "hãi": 5832,
      "mĩ": 5833,
      "rào": 5834,
      "##ker": 5835,
      "##ặm": 5836,
      "trọc": 5837,
      "tom": 5838,
      "4k": 5839,
      "6tr": 5840,
      "##hu": 5841,
      "##ja": 5842,
      "##ịnh": 5843,
      "##88": 5844,
      "ngừng": 5845,
      "class": 5846,
      "lẽo": 5847,
      "checker": 5848,
      "##................................": 5849,
      "boo": 5850,
      "gợn": 5851,
      "hỏn": 5852,
      "kt": 5853,
      "vấp": 5854,
      "##ượng": 5855,
      "thầm": 5856,
      "chưởng": 5857,
      "10km": 5858,
      "super": 5859,
      "##tos": 5860,
      "dược": 5861,
      "sgm": 5862,
      "bmw": 5863,
      "xéc": 5864,
      "dẻ": 5865,
      "mịn": 5866,
      "tơ": 5867,
      "ngẫm": 5868,
      "khát": 5869,
      "hoạ": 5870,
      "c3": 5871,
      "cạn": 5872,
      "eng": 5873,
      "hói": 5874,
      "rèn": 5875,
      "##11": 5876,
      "##rl": 5877,
      "##ún": 5878,
      "1m6": 5879,
      "dặn": 5880,
      "gam": 5881,
      "pan": 5882,
      "yo": 5883,
      "mẹc": 5884,
      "vit": 5885,
      "roài": 5886,
      "mắcc": 5887,
      "bruno": 5888,
      "2vk": 5889,
      "kyu": 5890,
      "llĩnh": 5891,
      "base": 5892,
      "gạt": 5893,
      "over": 5894,
      "pay": 5895,
      "teo": 5896,
      "##hh": 5897,
      "##bit": 5898,
      "thưa": 5899,
      "##che": 5900,
      "##ppe": 5901,
      "cụt": 5902,
      "bút": 5903,
      "mad": 5904,
      "nôn": 5905,
      "sứ": 5906,
      "đúc": 5907,
      "##app": 5908,
      "chìa": 5909,
      "ngoặt": 5910,
      "vuốt": 5911,
      "200tr": 5912,
      "myfen": 5913,
      "lụm": 5914,
      "cạc": 5915,
      "cấc": 5916,
      "mút": 5917,
      "pu": 5918,
      "##rid": 5919,
      "nhằng": 5920,
      "phẫu": 5921,
      "##int": 5922,
      "cos": 5923,
      "ơiiii": 5924,
      "fix": 5925,
      "continu": 5926,
      "server": 5927,
      "continuous": 5928,
      "40k": 5929,
      "đơ": 5930,
      "đắng": 5931,
      "anime": 5932,
      "cntt": 5933,
      "still": 5934,
      "//": 5935,
      "96": 5936,
      "b2": 5937,
      "cưng": 5938,
      "lẹo": 5939,
      "lấc": 5940,
      "qc": 5941,
      "xd": 5942,
      "##ku": 5943,
      "phun": 5944,
      "tuôn": 5945,
      "huấn": 5946,
      "because": 5947,
      "fail": 5948,
      "x3": 5949,
      "##ếm": 5950,
      "sir": 5951,
      "##shop": 5952,
      "brazil": 5953,
      "biden": 5954,
      "mitsuru": 5955,
      "adachi": 5956,
      "ali": 5957,
      "rùa": 5958,
      "đắc": 5959,
      "##vn": 5960,
      "##mb": 5961,
      "ngầu": 5962,
      "##iềng": 5963,
      "##anay": 5964,
      "khoáng": 5965,
      "lik": 5966,
      "khích": 5967,
      ".\"": 5968,
      "4x": 5969,
      "^^": 5970,
      "bã": 5971,
      "xót": 5972,
      "sakh": 5973,
      "thuỷ": 5974,
      "voi": 5975,
      "store": 5976,
      "##ments": 5977,
      "change": 5978,
      "34": 5979,
      "iel": 5980,
      "lay": 5981,
      "tọe": 5982,
      "##cal": 5983,
      "##70": 5984,
      "nhồi": 5985,
      "into": 5986,
      "sakhanay": 5987,
      "7h": 5988,
      "7tr": 5989,
      "fad": 5990,
      "h1": 5991,
      "later": 5992,
      "mé": 5993,
      "sương": 5994,
      "tl": 5995,
      "uk": 5996,
      "##gon": 5997,
      "##wer": 5998,
      "châm": 5999,
      "ngưng": 6000,
      "submit": 6001,
      "osin": 6002,
      "bee": 6003,
      "cer": 6004,
      "dồi": 6005,
      "dừa": 6006,
      "gato": 6007,
      "nâu": 6008,
      "siết": 6009,
      "sấu": 6010,
      "tè": 6011,
      "văng": 6012,
      "đe": 6013,
      "đớp": 6014,
      "##lu": 6015,
      "##land": 6016,
      "##ũa": 6017,
      "phang": 6018,
      "sam": 6019,
      "##ant": 6020,
      "##trator": 6021,
      "vip": 6022,
      "uhm": 6023,
      "xamer": 6024,
      "hq": 6025,
      "m3": 6026,
      "ul": 6027,
      "vít": 6028,
      "##34": 6029,
      "##je": 6030,
      "##ỳnh": 6031,
      "##ano": 6032,
      "...)": 6033,
      "39": 6034,
      "bong": 6035,
      "gs": 6036,
      "vòi": 6037,
      "ào": 6038,
      "chép": 6039,
      "bịp": 6040,
      "bill": 6041,
      "click": 6042,
      "15k": 6043,
      "##riate": 6044,
      "prote": 6045,
      "fir": 6046,
      "##ropriate": 6047,
      "lằng": 6048,
      "##pan": 6049,
      "nhôm": 6050,
      "khe": 6051,
      "lord": 6052,
      "rock": 6053,
      "bhyt": 6054,
      "accent": 6055,
      "contains": 6056,
      "elements": 6057,
      "3k": 6058,
      "rs": 6059,
      "tes": 6060,
      "vơ": 6061,
      "##oc": 6062,
      "that": 6063,
      "nhí": 6064,
      "luân": 6065,
      "ngưỡng": 6066,
      "adminis": 6067,
      "likely": 6068,
      "submitted": 6069,
      "don": 6070,
      "ls": 6071,
      "mồi": 6072,
      "sụp": 6073,
      "tm": 6074,
      "##ota": 6075,
      "##zu": 6076,
      "##pay": 6077,
      "khâu": 6078,
      "remo": 6079,
      "inapp": 6080,
      "nghiêng": 6081,
      "vũng": 6082,
      "forum": 6083,
      "dĩa": 6084,
      "ielts": 6085,
      "administrator": 6086,
      "inappropriate": 6087,
      "bùi": 6088,
      "h2": 6089,
      "lù": 6090,
      "lấp": 6091,
      "lén": 6092,
      "móa": 6093,
      "nấm": 6094,
      "sđt": 6095,
      "whe": 6096,
      "##tb": 6097,
      "##ửng": 6098,
      "chéo": 6099,
      "##ans": 6100,
      "tok": 6101,
      "combat": 6102,
      "star": 6103,
      "fin": 6104,
      "ron": 6105,
      "##cs": 6106,
      "chải": 6107,
      "phổi": 6108,
      "2008": 6109,
      "god": 6110,
      "ford": 6111,
      "bri": 6112,
      "hk": 6113,
      "nắp": 6114,
      "thạch": 6115,
      "gián": 6116,
      "##inho": 6117,
      "##les": 6118,
      "vision": 6119,
      "ngươi": 6120,
      "đàm": 6121,
      "98": 6122,
      "ddt": 6123,
      "mạc": 6124,
      "pub": 6125,
      "see": 6126,
      "zế": 6127,
      "2m": 6128,
      "600k": 6129,
      "9h": 6130,
      "cước": 6131,
      "ever": 6132,
      "ge": 6133,
      "mắng": 6134,
      "sấy": 6135,
      "sấp": 6136,
      "táng": 6137,
      "đầm": 6138,
      "##99": 6139,
      "thự": 6140,
      "chinh": 6141,
      "bảy": 6142,
      "##ico": 6143,
      "150k": 6144,
      "4h": 6145,
      "lầu": 6146,
      "qh": 6147,
      "##cb": 6148,
      "phất": 6149,
      "điếu": 6150,
      "đoạt": 6151,
      "xoắn": 6152,
      "##bie": 6153,
      "xỉu": 6154,
      "lõ": 6155,
      "chym": 6156,
      "trăng": 6157,
      "trẩu": 6158,
      "quỵ": 6159,
      "cảng": 6160,
      "sun": 6161,
      "ddag": 6162,
      "photo": 6163,
      "fadil": 6164,
      "03": 6165,
      "hốc": 6166,
      "hẵng": 6167,
      "nách": 6168,
      "vv": 6169,
      "##cer": 6170,
      "##fli": 6171,
      "thắt": 6172,
      "nhẽo": 6173,
      "triết": 6174,
      "phước": 6175,
      "muỗi": 6176,
      "##inhan": 6177,
      "shinhan": 6178,
      "close": 6179,
      "42": 6180,
      "bối": 6181,
      "lè": 6182,
      "miết": 6183,
      "nêu": 6184,
      "rót": 6185,
      "##ji": 6186,
      "nón": 6187,
      "musk": 6188,
      "##iti": 6189,
      "15p": 6190,
      "beat": 6191,
      "****": 6192,
      "f17": 6193,
      "pogba": 6194,
      "mid": 6195,
      "khánh": 6196,
      "quẩn": 6197,
      "2011": 6198,
      "sedan": 6199,
      "1m8": 6200,
      "ipad": 6201,
      "túy": 6202,
      "remote": 6203,
      "hag": 6204,
      "kk": 6205,
      "x7": 6206,
      "quậy": 6207,
      "rai": 6208,
      "thuẫn": 6209,
      "lock": 6210,
      "thủng": 6211,
      "boss": 6212,
      "toyota": 6213,
      "5m": 6214,
      "lẩu": 6215,
      "tặc": 6216,
      "##ua": 6217,
      "thúi": 6218,
      "##000": 6219,
      "##atch": 6220,
      "##ala": 6221,
      "brand": 6222,
      "háng": 6223,
      "kd": 6224,
      "mọe": 6225,
      "tịt": 6226,
      "đồi": 6227,
      "##ani": 6228,
      "tool": 6229,
      "huỳnh": 6230,
      "onl": 6231,
      "búa": 6232,
      "cr7": 6233,
      "xẻng": 6234,
      "gắp": 6235,
      "rình": 6236,
      "ui": 6237,
      "ương": 6238,
      "nhe": 6239,
      "đcm": 6240,
      "tiễn": 6241,
      "chuồng": 6242,
      "aura": 6243,
      "btc": 6244,
      "????": 6245,
      "blah": 6246,
      "hòm": 6247,
      "túm": 6248,
      "cựu": 6249,
      "##flix": 6250,
      "93": 6251,
      "bấy": 6252,
      "nại": 6253,
      "t7": 6254,
      "ten": 6255,
      "u23": 6256,
      "vỗ": 6257,
      "##od": 6258,
      "điểu": 6259,
      "manga": 6260,
      "siêng": 6261,
      "crv": 6262,
      "civic": 6263,
      "##dio": 6264,
      "whey": 6265,
      "bít": 6266,
      "mâu": 6267,
      "tang": 6268,
      "thây": 6269,
      "tip": 6270,
      "##ream": 6271,
      "follow": 6272,
      "##ama": 6273,
      "cover": 6274,
      "##lla": 6275,
      "bre": 6276,
      "dn": 6277,
      "dúi": 6278,
      "ka": 6279,
      "lim": 6280,
      "mả": 6281,
      "pô": 6282,
      "qq": 6283,
      "rát": 6284,
      "út": 6285,
      "##lon": 6286,
      "chèn": 6287,
      "quầy": 6288,
      "##tream": 6289,
      "250": 6290,
      "start": 6291,
      "hỏa": 6292,
      "tau": 6293,
      "xk": 6294,
      "đao": 6295,
      "##gan": 6296,
      "##rt": 6297,
      "##pic": 6298,
      "nhã": 6299,
      "thịnh": 6300,
      "ruồi": 6301,
      "plus": 6302,
      "offer": 6303,
      "netflix": 6304,
      "single": 6305,
      "##combank": 6306,
      "first": 6307,
      "!!": 6308,
      "bựa": 6309,
      "dk": 6310,
      "dời": 6311,
      "dkm": 6312,
      "hc": 6313,
      "lz": 6314,
      "mùng": 6315,
      "mor": 6316,
      "niềng": 6317,
      "ua": 6318,
      "tuc": 6319,
      "tựa": 6320,
      "fifa": 6321,
      "##uuuu": 6322,
      "--": 6323,
      "?\"": 6324,
      "gl": 6325,
      "lân": 6326,
      "mạo": 6327,
      "nảy": 6328,
      "yam": 6329,
      "ớn": 6330,
      "##vo": 6331,
      "##fc": 6332,
      "##for": 6333,
      "khống": 6334,
      "giế": 6335,
      "giáng": 6336,
      "hoại": 6337,
      "thoả": 6338,
      "##ica": 6339,
      "nike": 6340,
      "ios": 6341,
      "kẹp": 6342,
      "klo": 6343,
      "lìn": 6344,
      "măng": 6345,
      "wo": 6346,
      "ya": 6347,
      "ủy": 6348,
      "##no": 6349,
      "chọt": 6350,
      "##cha": 6351,
      "tag": 6352,
      "##ley": 6353,
      "vozfa": 6354,
      "camry": 6355,
      "vietnam": 6356,
      "?!": 6357,
      "kan": 6358,
      "lố": 6359,
      "vớt": 6360,
      "ói": 6361,
      "đính": 6362,
      "đũa": 6363,
      "##eu": 6364,
      "nhằm": 6365,
      "kiêng": 6366,
      "##amin": 6367,
      "tuệ": 6368,
      "nguội": 6369,
      "nhiu": 6370,
      "80k": 6371,
      "fc": 6372,
      "len": 6373,
      "mộc": 6374,
      "##zer": 6375,
      "chan": 6376,
      "bịch": 6377,
      "##oom": 6378,
      "hnay": 6379,
      "rod": 6380,
      "bưu": 6381,
      "seeder": 6382,
      "vozfapp": 6383,
      "49": 6384,
      "câm": 6385,
      "dối": 6386,
      "por": 6387,
      "##lit": 6388,
      "chư": 6389,
      "ngụ": 6390,
      "home": 6391,
      "##boy": 6392,
      "##aaaa": 6393,
      "cộ": 6394,
      "rê": 6395,
      "nhện": 6396,
      "trợn": 6397,
      "bot": 6398,
      "vina": 6399,
      "tesla": 6400,
      "3m": 6401,
      "kane": 6402,
      "mè": 6403,
      "val": 6404,
      "xâm": 6405,
      "##du": 6406,
      "##press": 6407,
      "##ini": 6408,
      "##trol": 6409,
      "30t": 6410,
      "mode": 6411,
      "huhu": 6412,
      "300tr": 6413,
      "csgt": 6414,
      "offline": 6415,
      "jav": 6416,
      "cashback": 6417,
      "giếng": 6418,
      "800k": 6419,
      "97": 6420,
      "gai": 6421,
      "kpi": 6422,
      "vê": 6423,
      "xỏ": 6424,
      "##ler": 6425,
      "giãy": 6426,
      "##ork": 6427,
      "##ith": 6428,
      "vacc": 6429,
      "vươn": 6430,
      "credit": 6431,
      "kp": 6432,
      "mxh": 6433,
      "ql": 6434,
      "##car": 6435,
      "độn": 6436,
      "ghen": 6437,
      "diêm": 6438,
      "liễu": 6439,
      "dead": 6440,
      "thụy": 6441,
      "vpbank": 6442,
      "otp": 6443,
      "fai": 6444,
      "láng": 6445,
      "mr": 6446,
      "qr": 6447,
      "rẫy": 6448,
      "tẹt": 6449,
      "đì": 6450,
      "hold": 6451,
      "doạ": 6452,
      "niêm": 6453,
      "sưu": 6454,
      "##coin": 6455,
      "##shi": 6456,
      "##--------": 6457,
      "aff": 6458,
      "blv": 6459,
      "balo": 6460,
      "bẫy": 6461,
      "dâng": 6462,
      "eo": 6463,
      "kép": 6464,
      "##ach": 6465,
      "##22": 6466,
      "thê": 6467,
      "chày": 6468,
      "điêu": 6469,
      "##ướn": 6470,
      "quát": 6471,
      "tím": 6472,
      "##idas": 6473,
      "xl7": 6474,
      "olym": 6475,
      "aka": 6476,
      "cù": 6477,
      "dv": 6478,
      "diệu": 6479,
      "dream": 6480,
      "gara": 6481,
      "ht": 6482,
      "pas": 6483,
      "qbv": 6484,
      "ất": 6485,
      "##ni": 6486,
      "thọt": 6487,
      "nhè": 6488,
      "phượng": 6489,
      "load": 6490,
      "loãng": 6491,
      "sms": 6492,
      "adidas": 6493,
      "160": 6494,
      "premi": 6495,
      "60k": 6496,
      "88": 6497,
      "dem": 6498,
      "hăng": 6499,
      "nịt": 6500,
      "ton": 6501,
      "vây": 6502,
      "##get": 6503,
      "##qg": 6504,
      "##zo": 6505,
      "nhông": 6506,
      "khè": 6507,
      "trym": 6508,
      "chill": 6509,
      "##ccc": 6510,
      "##ctor": 6511,
      "med": 6512,
      "malay": 6513,
      "ceo": 6514,
      "hen": 6515,
      "lêu": 6516,
      "oh": 6517,
      "part": 6518,
      "tẹo": 6519,
      "##mart": 6520,
      "##tu": 6521,
      "##lk": 6522,
      "thèn": 6523,
      "##sta": 6524,
      "nguyệt": 6525,
      "tgdd": 6526,
      "juve": 6527,
      "tóp": 6528,
      "cầy": 6529,
      "hước": 6530,
      "hqua": 6531,
      "nỉ": 6532,
      "sét": 6533,
      "sẹo": 6534,
      "đl": 6535,
      "##ok": 6536,
      "##yo": 6537,
      "thóc": 6538,
      "khẩn": 6539,
      "tur": 6540,
      "đổng": 6541,
      "fap": 6542,
      "##riend": 6543,
      "25k": 6544,
      "hỗn": 6545,
      "##tttt": 6546,
      "khuyết": 6547,
      "senior": 6548,
      "-->": 6549,
      "cạch": 6550,
      "dri": 6551,
      "kẽ": 6552,
      "mall": 6553,
      "pau": 6554,
      "ròi": 6555,
      "ván": 6556,
      "xị": 6557,
      "đạc": 6558,
      "trật": 6559,
      "nhàm": 6560,
      "hoành": 6561,
      "tuý": 6562,
      "khoang": 6563,
      "die": 6564,
      "##ager": 6565,
      "##eep": 6566,
      "nvx": 6567,
      "rank": 6568,
      "seltos": 6569,
      "dẻo": 6570,
      "48": 6571,
      "je": 6572,
      "sặc": 6573,
      "đới": 6574,
      "##ei": 6575,
      "##su": 6576,
      "##lđ": 6577,
      "##lin": 6578,
      "##za": 6579,
      "ngây": 6580,
      "trổ": 6581,
      "giở": 6582,
      "ghệ": 6583,
      "pos": 6584,
      "sign": 6585,
      "##zza": 6586,
      "desi": 6587,
      "##ject": 6588,
      "92": 6589,
      "dr": 6590,
      "gas": 6591,
      "hong": 6592,
      "kẹc": 6593,
      "xn": 6594,
      "##ham": 6595,
      "##16": 6596,
      "ngắt": 6597,
      "##ana": 6598,
      "thun": 6599,
      "##rom": 6600,
      "moi": 6601,
      "ads": 6602,
      "pkl": 6603,
      "massage": 6604,
      "85": 6605,
      "bim": 6606,
      "hũ": 6607,
      "mk": 6608,
      "squ": 6609,
      "xổ": 6610,
      "##90": 6611,
      "nhúng": 6612,
      "kiêm": 6613,
      "suýt": 6614,
      "nole": 6615,
      "teen": 6616,
      "roi": 6617,
      "camp": 6618,
      "bdbc": 6619,
      "94": 6620,
      "dìm": 6621,
      "hóc": 6622,
      "ken": 6623,
      "ue": 6624,
      "##bao": 6625,
      "trầy": 6626,
      "pot": 6627,
      "stk": 6628,
      "bói": 6629,
      "blue": 6630,
      "900": 6631,
      "bàng": 6632,
      "lv": 6633,
      "lạng": 6634,
      "oai": 6635,
      "ren": 6636,
      "whi": 6637,
      "ẩu": 6638,
      "##gr": 6639,
      "timo": 6640,
      "##room": 6641,
      "vcđ": 6642,
      "khuẩn": 6643,
      "cưỡi": 6644,
      "##bot": 6645,
      "70k": 6646,
      "cậy": 6647,
      "lồ": 6648,
      "sá": 6649,
      "sò": 6650,
      "xôm": 6651,
      "nhây": 6652,
      "vía": 6653,
      "goat": 6654,
      "pizza": 6655,
      "member": 6656,
      "ap": 6657,
      "bón": 6658,
      "rải": 6659,
      "##off": 6660,
      "##vin": 6661,
      "phượt": 6662,
      "love": 6663,
      "thoi": 6664,
      "##lop": 6665,
      "##ppa": 6666,
      "lives": 6667,
      "yamaha": 6668,
      "02": 6669,
      "cg": 6670,
      "citi": 6671,
      "gm": 6672,
      "gởi": 6673,
      "hời": 6674,
      "pccc": 6675,
      "rỉ": 6676,
      "rập": 6677,
      "seo": 6678,
      "sịp": 6679,
      "tạng": 6680,
      "quật": 6681,
      "##enal": 6682,
      "khổng": 6683,
      "spo": 6684,
      "fred": 6685,
      "cry": 6686,
      "resort": 6687,
      "twit": 6688,
      ",..": 6689,
      "4g": 6690,
      "cành": 6691,
      "gậy": 6692,
      "nốc": 6693,
      "ub": 6694,
      "##tk": 6695,
      "thỏ": 6696,
      "khứa": 6697,
      "giọt": 6698,
      "màng": 6699,
      "core": 6700,
      "hah": 6701,
      "##dom": 6702,
      "model": 6703,
      "cvt": 6704,
      "wibu": 6705,
      "iran": 6706,
      "hagl": 6707,
      "bầy": 6708,
      "cọ": 6709,
      "cặn": 6710,
      "cali": 6711,
      "dẹo": 6712,
      "dãy": 6713,
      "hl": 6714,
      "mép": 6715,
      "rầm": 6716,
      "sói": 6717,
      "xò": 6718,
      "##150": 6719,
      "##èng": 6720,
      "tròng": 6721,
      "##ami": 6722,
      "##aland": 6723,
      "reg": 6724,
      "##ics": 6725,
      "nhẹt": 6726,
      "11h": 6727,
      "indog": 6728,
      "đg": 6729,
      "##ox": 6730,
      "##ax": 6731,
      "##ds": 6732,
      "chánh": 6733,
      "trèo": 6734,
      "##ames": 6735,
      "tuân": 6736,
      "##ster": 6737,
      "mie": 6738,
      "tele": 6739,
      "##oney": 6740,
      "showroom": 6741,
      "1tr5": 6742,
      "genz": 6743,
      "700k": 6744,
      "bòi": 6745,
      "fed": 6746,
      "hard": 6747,
      "kind": 6748,
      "nề": 6749,
      "ráo": 6750,
      "vế": 6751,
      "vách": 6752,
      "xó": 6753,
      "##don": 6754,
      "ngục": 6755,
      "giơ": 6756,
      "sor": 6757,
      "##ida": 6758,
      "2009": 6759,
      "110": 6760,
      "##map": 6761,
      "360": 6762,
      "bonus": 6763,
      "ronal": 6764,
      "uae": 6765,
      "aw": 6766,
      "gật": 6767,
      "hột": 6768,
      "mba": 6769,
      "##qs": 6770,
      "tia": 6771,
      "cụm": 6772,
      "##key": 6773,
      "cưỡng": 6774,
      "......": 6775,
      "250k": 6776,
      "manager": 6777,
      "40tr": 6778,
      "1t": 6779,
      "43": 6780,
      "dang": 6781,
      "from": 6782,
      "lg": 6783,
      "lanh": 6784,
      "lửng": 6785,
      "mart": 6786,
      "nin": 6787,
      "om": 6788,
      "rắc": 6789,
      "tanh": 6790,
      "vồ": 6791,
      "đkm": 6792,
      "##ban": 6793,
      "##port": 6794,
      "chì": 6795,
      "girl": 6796,
      "hoãn": 6797,
      "fency": 6798,
      "khoác": 6799,
      "##ory": 6800,
      "track": 6801,
      "gdp": 6802,
      "bitcoin": 6803,
      "ultra": 6804,
      "twitter": 6805,
      ",....": 6806,
      "bọ": 6807,
      "biếu": 6808,
      "cẩm": 6809,
      "ic": 6810,
      "mầm": 6811,
      "mứt": 6812,
      "q1": 6813,
      "sọ": 6814,
      "##ture": 6815,
      "##ling": 6816,
      "quấn": 6817,
      "##aru": 6818,
      "##ati": 6819,
      "dcm": 6820,
      "gold": 6821,
      "##oi18": 6822,
      "dal": 6823,
      "kèn": 6824,
      "nịnh": 6825,
      "rỗ": 6826,
      "khét": 6827,
      "qui": 6828,
      "suối": 6829,
      "liga": 6830,
      "bén": 6831,
      "rip": 6832,
      "2007": 6833,
      "180": 6834,
      "nhoé": 6835,
      "01": 6836,
      "dỗi": 6837,
      "hòn": 6838,
      "i10": 6839,
      "k3": 6840,
      "lợm": 6841,
      "pri": 6842,
      "râm": 6843,
      "vle": 6844,
      "xx": 6845,
      "##cted": 6846,
      "##tc": 6847,
      "##pool": 6848,
      "nhị": 6849,
      "quèn": 6850,
      "soạn": 6851,
      "##iter": 6852,
      "acb": 6853,
      "marvel": 6854,
      "pcx": 6855,
      "arsenal": 6856,
      "kindle": 6857,
      "b1": 6858,
      "cra": 6859,
      "dark": 6860,
      "sỏi": 6861,
      "xao": 6862,
      "##ix": 6863,
      "##21": 6864,
      "##úm": 6865,
      "toả": 6866,
      "tuột": 6867,
      "bik": 6868,
      "power": 6869,
      "tpbank": 6870,
      "xảo": 6871,
      "haizzz": 6872,
      "reaction": 6873,
      "cỗ": 6874,
      "gp": 6875,
      "her": 6876,
      "kè": 6877,
      "kén": 6878,
      "máng": 6879,
      "nao": 6880,
      "vốt": 6881,
      "xs": 6882,
      "ye": 6883,
      "yết": 6884,
      "##65": 6885,
      "##jo": 6886,
      "chặng": 6887,
      "make": 6888,
      "leak": 6889,
      "canada": 6890,
      "vượng": 6891,
      "sexy": 6892,
      "##soft": 6893,
      "karao": 6894,
      "vitamin": 6895,
      "bg": 6896,
      "kl": 6897,
      "lin": 6898,
      "rán": 6899,
      "##ning": 6900,
      "##45": 6901,
      "phì": 6902,
      "quế": 6903,
      "##ont": 6904,
      "hok": 6905,
      "##ers": 6906,
      "vnd": 6907,
      "dek": 6908,
      "robot": 6909,
      "profi": 6910,
      "##ply": 6911,
      "usb": 6912,
      "react": 6913,
      "vaccine": 6914,
      "olympic": 6915,
      "premium": 6916,
      "%/": 6917,
      "bùn": 6918,
      "pỏn": 6919,
      "sên": 6920,
      "##25": 6921,
      "cham": 6922,
      "chập": 6923,
      "chưng": 6924,
      "bịt": 6925,
      "short": 6926,
      "##tage": 6927,
      "milan": 6928,
      "silv": 6929,
      "art": 6930,
      "copa": 6931,
      "sony": 6932,
      "fresh": 6933,
      "micro": 6934,
      "white": 6935,
      "profile": 6936,
      "silva": 6937,
      "friend": 6938,
      "m10": 6939,
      "mía": 6940,
      "ná": 6941,
      "ní": 6942,
      "nôm": 6943,
      "tị": 6944,
      "vung": 6945,
      "nhó": 6946,
      "ngất": 6947,
      "giun": 6948,
      "nghiệt": 6949,
      ".......": 6950,
      "cor": 6951,
      "future": 6952,
      "classic": 6953,
      "karaoke": 6954,
      "bệ": 6955,
      "bướ": 6956,
      "két": 6957,
      "nệ": 6958,
      "rả": 6959,
      "user": 6960,
      "##den": 6961,
      "chước": 6962,
      "tràng": 6963,
      "nàn": 6964,
      "thính": 6965,
      "low": 6966,
      "cow": 6967,
      "##cept": 6968,
      "##load": 6969,
      "##oooo": 6970,
      "good": 6971,
      "##site": 6972,
      "mobile": 6973,
      "paste": 6974,
      "bb": 6975,
      "cy": 6976,
      "cle": 6977,
      "flop": 6978,
      "lốc": 6979,
      "mí": 6980,
      "rv": 6981,
      "uốn": 6982,
      "đạm": 6983,
      "##cle": 6984,
      "##24": 6985,
      "##ởn": 6986,
      "nhơn": 6987,
      "##chu": 6988,
      "chuoi18": 6989,
      "vozers": 6990,
      "đun": 6991,
      "speed": 6992,
      "22t": 6993,
      "sancho": 6994,
      "obz": 6995,
      "design": 6996,
      "bợ": 6997,
      "bớ": 6998,
      "bứt": 6999,
      "f0": 7000,
      "flow": 7001,
      "hat": 7002,
      "sòng": 7003,
      "vọt": 7004,
      "##ez": 7005,
      "##lf": 7006,
      "##300": 7007,
      "china": 7008,
      "trade": 7009,
      "vợt": 7010,
      "##espa": 7011,
      "##ori": 7012,
      "##ason": 7013,
      "moẹ": 7014,
      "cửu": 7015,
      "##eller": 7016,
      "evn": 7017,
      "uniq": 7018,
      "ang": 7019,
      "bal": 7020,
      "gộp": 7021,
      "lx": 7022,
      "qà": 7023,
      "tđ": 7024,
      "##work": 7025,
      "chọi": 7026,
      "sure": 7027,
      "tuyết": 7028,
      "##ship": 7029,
      "500tr": 7030,
      "vf8": 7031,
      "bench": 7032,
      "leader": 7033,
      "bidv": 7034,
      "public": 7035,
      "gài": 7036,
      "gàng": 7037,
      "lụi": 7038,
      "mún": 7039,
      "năn": 7040,
      "ori": 7041,
      "vếu": 7042,
      "xê": 7043,
      "xù": 7044,
      "đờ": 7045,
      "đíu": 7046,
      "ấp": 7047,
      "##des": 7048,
      "chàng": 7049,
      "nhốt": 7050,
      "nháo": 7051,
      "hoạn": 7052,
      "10p": 7053,
      "name": 7054,
      "grap": 7055,
      "##ymar": 7056,
      "neymar": 7057,
      "plat": 7058,
      "kẻo": 7059,
      "##ource": 7060,
      "ronaldo": 7061,
      "dạt": 7062,
      "kỵ": 7063,
      "lùng": 7064,
      "nếp": 7065,
      "oxy": 7066,
      "rên": 7067,
      "tép": 7068,
      "wan": 7069,
      "xy": 7070,
      "##ron": 7071,
      "##xic": 7072,
      "##35": 7073,
      "##_shop": 7074,
      "chùi": 7075,
      "ngẫu": 7076,
      "vành": 7077,
      "choét": 7078,
      "##chel": 7079,
      "tiếu": 7080,
      "vozlit": 7081,
      "##llll": 7082,
      "mom": 7083,
      "vario": 7084,
      "xỉn": 7085,
      "work": 7086,
      "merc": 7087,
      "livestream": 7088,
      "chuoi18_shop": 7089,
      "47": 7090,
      "asi": 7091,
      "bụ": 7092,
      "bas": 7093,
      "còng": 7094,
      "hù": 7095,
      "id": 7096,
      "mmo": 7097,
      "rì": 7098,
      "sưng": 7099,
      "tã": 7100,
      "tml": 7101,
      "um": 7102,
      "wal": 7103,
      "##val": 7104,
      "##ste": 7105,
      "##tf": 7106,
      "##ten": 7107,
      "##lt": 7108,
      "##ỏm": 7109,
      "char": 7110,
      "trá": 7111,
      "cóp": 7112,
      "toxic": 7113,
      "hun": 7114,
      "lex": 7115,
      "thúy": 7116,
      "dbrr": 7117,
      "5x": 7118,
      "bẩm": 7119,
      "dz": 7120,
      "gọng": 7121,
      "hó": 7122,
      "jun": 7123,
      "nch": 7124,
      "nắc": 7125,
      "nta": 7126,
      "sáp": 7127,
      "xen": 7128,
      "đọ": 7129,
      "##ir": 7130,
      "##hn": 7131,
      "##66": 7132,
      "sala": 7133,
      "dog": 7134,
      "coca": 7135,
      "vnpt": 7136,
      "10w": 7137,
      "life": 7138,
      "##light": 7139,
      "xoa": 7140,
      "stu": 7141,
      "outs": 7142,
      "liverpool": 7143,
      "kante": 7144,
      "41": 7145,
      "er": 7146,
      "hớt": 7147,
      "lee": 7148,
      "nỗ": 7149,
      "oánh": 7150,
      "rộ": 7151,
      "tank": 7152,
      "đét": 7153,
      "##sl": 7154,
      "##ting": 7155,
      "thiền": 7156,
      "nhăn": 7157,
      "quấy": 7158,
      "...\"": 7159,
      "...........": 7160,
      "hiv": 7161,
      "hit": 7162,
      "10m": 7163,
      "adv": 7164,
      "plan": 7165,
      "pace": 7166,
      "bỉm": 7167,
      "bưởi": 7168,
      "cosplay": 7169,
      "nệm": 7170,
      "blo": 7171,
      "bsi": 7172,
      "cọng": 7173,
      "eco": 7174,
      "fdi": 7175,
      "hem": 7176,
      "lỏi": 7177,
      "lặt": 7178,
      "lụt": 7179,
      "mq": 7180,
      "morn": 7181,
      "mướn": 7182,
      "nện": 7183,
      "núp": 7184,
      "vch": 7185,
      "vãn": 7186,
      "ww": 7187,
      "##word": 7188,
      "##ựt": 7189,
      "thạnh": 7190,
      "phiêu": 7191,
      "rapper": 7192,
      "##0000": 7193,
      "reco": 7194,
      "reply": 7195,
      "aeon": 7196,
      "haki": 7197,
      "freel": 7198,
      "##aku": 7199,
      "nvqs": 7200,
      "đbrr": 7201,
      "5km": 7202,
      ":\"": 7203,
      "cúi": 7204,
      "hé": 7205,
      "kts": 7206,
      "mm": 7207,
      "neo": 7208,
      "pn": 7209,
      "ur": 7210,
      "ếu": 7211,
      "##ec": 7212,
      "##sad": 7213,
      "##bl": 7214,
      "thò": 7215,
      "ngỡ": 7216,
      "20km": 7217,
      "debit": 7218,
      "hype": 7219,
      "excel": 7220,
      "buscu": 7221,
      "croat": 7222,
      "ssd": 7223,
      "help": 7224,
      "beek": 7225,
      "protected": 7226,
      "klopp": 7227,
      "uefa": 7228,
      "uniqlo": 7229,
      "72": 7230,
      "bj": 7231,
      "cừ": 7232,
      "kaka": 7233,
      "mói": 7234,
      "pit": 7235,
      "sr": 7236,
      "sọt": 7237,
      "vẫy": 7238,
      "đò": 7239,
      "thám": 7240,
      "ngọng": 7241,
      "khép": 7242,
      "phil": 7243,
      "conte": 7244,
      "shark": 7245,
      "cav": 7246,
      "arc": 7247,
      "green": 7248,
      "woke": 7249,
      "morning": 7250,
      "cal": 7251,
      "dầm": 7252,
      "fw": 7253,
      "hh": 7254,
      "m7": 7255,
      "ome": 7256,
      "rong": 7257,
      "rạch": 7258,
      "tar": 7259,
      "vat": 7260,
      "##tn": 7261,
      "lot": 7262,
      "tưng": 7263,
      "##tech": 7264,
      "##vice": 7265,
      "produ": 7266,
      "neu": 7267,
      "under": 7268,
      "evo": 7269,
      "lụy": 7270,
      "kaido": 7271,
      "cerato": 7272,
      "turbo": 7273,
      "ninja": 7274,
      "omega": 7275,
      "6x": 7276,
      "60km": 7277,
      "91": 7278,
      "==": 7279,
      "dan": 7280,
      "hẹo": 7281,
      "james": 7282,
      "kon": 7283,
      "lết": 7284,
      "mân": 7285,
      "miêu": 7286,
      "nạ": 7287,
      "tám": 7288,
      "with": 7289,
      "x10": 7290,
      "zing": 7291,
      "##eet": 7292,
      "##ny": 7293,
      "##gen": 7294,
      "##pm": 7295,
      "##__": 7296,
      "thản": 7297,
      "thạc": 7298,
      "ngọn": 7299,
      "trg": 7300,
      "trans": 7301,
      "cũg": 7302,
      "##ari": 7303,
      "lưỡng": 7304,
      "land": 7305,
      "shoppe": 7306,
      "taobao": 7307,
      "trap": 7308,
      "2024": 7309,
      "2k4": 7310,
      "will": 7311,
      "delay": 7312,
      "nano": 7313,
      "sáu": 7314,
      "00": 7315,
      "46": 7316,
      "70km": 7317,
      "cớt": 7318,
      "deep": 7319,
      "icon": 7320,
      "lép": 7321,
      "mủ": 7322,
      "nad": 7323,
      "odo": 7324,
      "rêu": 7325,
      "tì": 7326,
      "tành": 7327,
      "vèo": 7328,
      "”,": 7329,
      "##que": 7330,
      "ngợi": 7331,
      "giỗ": 7332,
      "rac": 7333,
      "kixx": 7334,
      "chảo": 7335,
      "ref": 7336,
      "##emon": 7337,
      "clg": 7338,
      "15km": 7339,
      "mix": 7340,
      "lyric": 7341,
      "##ester": 7342,
      "hyund": 7343,
      "35k": 7344,
      "madrid": 7345,
      "hcv": 7346,
      "vleague": 7347,
      "hyundai": 7348,
      "bốn": 7349,
      "eli": 7350,
      "e34": 7351,
      "lh": 7352,
      "lgb": 7353,
      "nần": 7354,
      "nết": 7355,
      "pg": 7356,
      "qt": 7357,
      "ter": 7358,
      "vâu": 7359,
      "vespa": 7360,
      "##vit": 7361,
      "##mon": 7362,
      "##ug": 7363,
      "##brid": 7364,
      "##òm": 7365,
      "ngài": 7366,
      "ngạc": 7367,
      "hoan": 7368,
      "shell": 7369,
      "##ppy": 7370,
      "mag": 7371,
      "##lish": 7372,
      "xoang": 7373,
      "project": 7374,
      "##!!!!!!!!": 7375,
      "ngụy": 7376,
      "potter": 7377,
      "outsource": 7378,
      ":/": 7379,
      "af": 7380,
      "băm": 7381,
      "feed": 7382,
      "get": 7383,
      "hùm": 7384,
      "jd": 7385,
      "kiềm": 7386,
      "mần": 7387,
      "sin": 7388,
      "sồn": 7389,
      "seed": 7390,
      "sida": 7391,
      "u40": 7392,
      "x5": 7393,
      "xơ": 7394,
      "ấu": 7395,
      "##cl": 7396,
      "##ẫng": 7397,
      "##ât": 7398,
      "ngú": 7399,
      "##ande": 7400,
      "hoả": 7401,
      "##aro": 7402,
      "tab": 7403,
      "chói": 7404,
      "##ston": 7405,
      "##aki": 7406,
      "vac": 7407,
      "##zuki": 7408,
      "mqh": 7409,
      "nadal": 7410,
      "az": 7411,
      "are": 7412,
      "hv": 7413,
      "kề": 7414,
      "pd": 7415,
      "wen": 7416,
      "xốp": 7417,
      "##đi": 7418,
      "##14": 7419,
      "##sd": 7420,
      "##((": 7421,
      "nhọ": 7422,
      "trăn": 7423,
      "##ere": 7424,
      "hix": 7425,
      "cod": 7426,
      "task": 7427,
      "##round": 7428,
      "##pppp": 7429,
      "chót": 7430,
      "road": 7431,
      "##dow": 7432,
      "##ury": 7433,
      "sky": 7434,
      "open": 7435,
      "quỳnh": 7436,
      "##iiiiiiii": 7437,
      "ppw": 7438,
      "tokyo": 7439,
      "bướm": 7440,
      "lgbt": 7441,
      "2t": 7442,
      "30km": 7443,
      "69": 7444,
      "gk": 7445,
      "met": 7446,
      "money": 7447,
      "níu": 7448,
      "sục": 7449,
      "t2": 7450,
      "tồi": 7451,
      "xộn": 7452,
      "xpan": 7453,
      "zô": 7454,
      "##ep": 7455,
      "##boo": 7456,
      "##bct": 7457,
      "##fh": 7458,
      "chầu": 7459,
      "ngố": 7460,
      "tráo": 7461,
      "giầy": 7462,
      "nghẻ": 7463,
      "inox": 7464,
      "##lly": 7465,
      "##entina": 7466,
      "now": 7467,
      "##tif": 7468,
      "nig": 7469,
      "bha": 7470,
      "300km": 7471,
      "website": 7472,
      "##mos": 7473,
      "hổng": 7474,
      "event": 7475,
      "##ney": 7476,
      "jean": 7477,
      "squat": 7478,
      "1kg": 7479,
      "5p": 7480,
      "67": 7481,
      "ara": 7482,
      "bõ": 7483,
      "bích": 7484,
      "gù": 7485,
      "gặm": 7486,
      "kị": 7487,
      "md": 7488,
      "mọt": 7489,
      "qá": 7490,
      "rh": 7491,
      "ret": 7492,
      "xóc": 7493,
      "##vc": 7494,
      "##zi": 7495,
      "##ợp": 7496,
      "##89": 7497,
      "chững": 7498,
      "trám": 7499,
      "kong": 7500,
      "nghành": 7501,
      "tor": 7502,
      "tựu": 7503,
      "cocc": 7504,
      "##eld": 7505,
      "suv": 7506,
      "12tr": 7507,
      "xoáy": 7508,
      "cancel": 7509,
      "##arez": 7510,
      "##max": 7511,
      "##tuber": 7512,
      "130": 7513,
      "backup": 7514,
      "donate": 7515,
      "calo": 7516,
      "húng": 7517,
      "ji": 7518,
      "nơ": 7519,
      "vôi": 7520,
      "vét": 7521,
      "##mg": 7522,
      "tháp": 7523,
      "phô": 7524,
      "phao": 7525,
      "giòn": 7526,
      "hoy": 7527,
      "ghiền": 7528,
      "vụn": 7529,
      "2006": 7530,
      "2003": 7531,
      "5000": 7532,
      "alb": 7533,
      "hello": 7534,
      "lzd": 7535,
      "dalit": 7536,
      "salah": 7537,
      "a2": 7538,
      "bq": 7539,
      "càn": 7540,
      "dl": 7541,
      "gt": 7542,
      "rệt": 7543,
      "seller": 7544,
      "tản": 7545,
      "nhĩ": 7546,
      "nhấc": 7547,
      "trắc": 7548,
      "trad": 7549,
      "phin": 7550,
      "save": 7551,
      "toe": 7552,
      "dota": 7553,
      "##imi": 7554,
      "##ical": 7555,
      "##ider": 7556,
      "niss": 7557,
      "##pha": 7558,
      "freego": 7559,
      "never": 7560,
      "scb": 7561,
      "phàm": 7562,
      "album": 7563,
      "1x": 7564,
      "44": 7565,
      "a1": 7566,
      "bập": 7567,
      "cat": 7568,
      "hỉ": 7569,
      "kona": 7570,
      "ló": 7571,
      "rơm": 7572,
      "xêm": 7573,
      "##100": 7574,
      "##eak": 7575,
      "##uki": 7576,
      "##lle": 7577,
      "##ford": 7578,
      "##//": 7579,
      "thiêu": 7580,
      "chồn": 7581,
      "khan": 7582,
      "giỡn": 7583,
      "quách": 7584,
      "điếm": 7585,
      "đóm": 7586,
      "villa": 7587,
      "vịn": 7588,
      "khuất": 7589,
      "haaland": 7590,
      "nhuộm": 7591,
      "##mom": 7592,
      "fresher": 7593,
      "nigga": 7594,
      "5g": 7595,
      "53": 7596,
      "cad": 7597,
      "dra": 7598,
      "gán": 7599,
      "gun": 7600,
      "hm": 7601,
      "hắc": 7602,
      "jp": 7603,
      "rr": 7604,
      "sáo": 7605,
      "wtf": 7606,
      "át": 7607,
      "##ốm": 7608,
      "thục": 7609,
      "nhủ": 7610,
      "nhũng": 7611,
      "ngừ": 7612,
      "ngốc": 7613,
      "trù": 7614,
      "giặc": 7615,
      "toan": 7616,
      "ngoáy": 7617,
      "##tru": 7618,
      "soft": 7619,
      "sosad": 7620,
      "suzuki": 7621,
      "##ount": 7622,
      "##ther": 7623,
      "sei": 7624,
      "hybrid": 7625,
      "modric": 7626,
      "350k": 7627,
      "serie": 7628,
      "đna": 7629,
      "##nnnn": 7630,
      "sorry": 7631,
      "7x": 7632,
      "9tr": 7633,
      "?.": 7634,
      "alv": 7635,
      "cic": 7636,
      "dj": 7637,
      "fer": 7638,
      "kq": 7639,
      "lốt": 7640,
      "lạp": 7641,
      "lủi": 7642,
      "mó": 7643,
      "nat": 7644,
      "nem": 7645,
      "rúc": 7646,
      "uỷ": 7647,
      "west": 7648,
      "xiền": 7649,
      "##care": 7650,
      "##mer": 7651,
      "##eng": 7652,
      "##wa": 7653,
      "##ếc": 7654,
      "nhang": 7655,
      "luỹ": 7656,
      "ngoằng": 7657,
      "##ary": 7658,
      "khoảnh": 7659,
      "##oro": 7660,
      "100m": 7661,
      "2005": 7662,
      "leg": 7663,
      "bhnt": 7664,
      "audi": 7665,
      "vietlo": 7666,
      "##bia": 7667,
      "rủa": 7668,
      "attr": 7669,
      "singap": 7670,
      "titan": 7671,
      "##????": 7672,
      "break": 7673,
      "xpander": 7674,
      ",,": 7675,
      "52": 7676,
      "62": 7677,
      "ace": 7678,
      "cast": 7679,
      "cđt": 7680,
      "găng": 7681,
      "hùa": 7682,
      "meta": 7683,
      "oi": 7684,
      "oán": 7685,
      "oẳng": 7686,
      "pet": 7687,
      "rầu": 7688,
      "u50": 7689,
      "word": 7690,
      "##500": 7691,
      "##hc": 7692,
      "##page": 7693,
      "##ware": 7694,
      "##ổng": 7695,
      "kit": 7696,
      "kill": 7697,
      "##amil": 7698,
      "##less": 7699,
      "hợt": 7700,
      "sour": 7701,
      "intel": 7702,
      "boi": 7703,
      "huệ": 7704,
      "##ated": 7705,
      "fact": 7706,
      "join": 7707,
      "bím": 7708,
      "kevin": 7709,
      "altis": 7710,
      "##uchia": 7711,
      "reddit": 7712,
      "match": 7713,
      "##................................................................": 7714,
      "recomm": 7715,
      "singapore": 7716,
      "5kg": 7717,
      "90k": 7718,
      "ax": 7719,
      "bủ": 7720,
      "biếng": 7721,
      "dải": 7722,
      "der": 7723,
      "dam": 7724,
      "lịt": 7725,
      "nặn": 7726,
      "oppa": 7727,
      "wr": 7728,
      "ysl": 7729,
      "##sen": 7730,
      "##ground": 7731,
      "##lor": 7732,
      "##bel": 7733,
      "##.=": 7734,
      "##ềm": 7735,
      "thòi": 7736,
      "chèo": 7737,
      "trán": 7738,
      "phè": 7739,
      "điềm": 7740,
      "sanh": 7741,
      "sacom": 7742,
      "##cher": 7743,
      "bug": 7744,
      "cave": 7745,
      "2004": 7746,
      "huề": 7747,
      "come": 7748,
      "seag": 7749,
      "window": 7750,
      "##biz": 7751,
      "office": 7752,
      "cno": 7753,
      "tucson": 7754,
      "campuchia": 7755,
      "hahaha": 7756,
      "mbappe": 7757,
      "nhóe": 7758,
      "5s": 7759,
      "66": 7760,
      "68": 7761,
      "89": 7762,
      "cấy": 7763,
      "dé": 7764,
      "dô": 7765,
      "dong": 7766,
      "leed": 7767,
      "nới": 7768,
      "oda": 7769,
      "tước": 7770,
      "vù": 7771,
      "vè": 7772,
      "xúi": 7773,
      "zo": 7774,
      "đong": 7775,
      "##td": 7776,
      "##bon": 7777,
      "##pro": 7778,
      "##wan": 7779,
      "thiếm": 7780,
      "chửa": 7781,
      "nhích": 7782,
      "ngạt": 7783,
      "phồng": 7784,
      "phèo": 7785,
      "giẻ": 7786,
      "choai": 7787,
      "luk": 7788,
      "torr": 7789,
      "diss": 7790,
      "##ked": 7791,
      "deb": 7792,
      "khía": 7793,
      "##ffe": 7794,
      "stat": 7795,
      "crui": 7796,
      "vietlot": 7797,
      "santa": 7798,
      "fren": 7799,
      "tóe": 7800,
      "motul": 7801,
      "media": 7802,
      "spoil": 7803,
      "studio": 7804,
      "attrage": 7805,
      "86": 7806,
      "=.=": 7807,
      "cõi": 7808,
      "dằn": 7809,
      "ger": 7810,
      "gốm": 7811,
      "mướt": 7812,
      "pat": 7813,
      "porn": 7814,
      "q7": 7815,
      "sán": 7816,
      "ắt": 7817,
      "##og": 7818,
      "##cus": 7819,
      "##az": 7820,
      "##13": 7821,
      "##ux": 7822,
      "##kong": 7823,
      "##way": 7824,
      "khít": 7825,
      "phiến": 7826,
      "luỵ": 7827,
      "##air": 7828,
      "coder": 7829,
      "nhỉnh": 7830,
      "bỏng": 7831,
      "##tex": 7832,
      "light": 7833,
      "band": 7834,
      "moon": 7835,
      "gót": 7836,
      "dec": 7837,
      "sưởi": 7838,
      "vietmap": 7839,
      "setup": 7840,
      "just": 7841,
      "flash": 7842,
      "2vc": 7843,
      "training": 7844,
      "keyword": 7845,
      "basic": 7846,
      "08": 7847,
      "58": 7848,
      "dat": 7849,
      "hót": 7850,
      "hụi": 7851,
      "kìm": 7852,
      "miến": 7853,
      "nôi": 7854,
      "rú": 7855,
      "tẩu": 7856,
      "vẹt": 7857,
      "đôn": 7858,
      "##xin": 7859,
      "##ơc": 7860,
      "thỉ": 7861,
      "tróc": 7862,
      "quẹo": 7863,
      "củi": 7864,
      "chỉa": 7865,
      "buồng": 7866,
      "kíp": 7867,
      "120k": 7868,
      "rolex": 7869,
      "##down": 7870,
      "18t": 7871,
      "bổn": 7872,
      "3000": 7873,
      "range": 7874,
      "bye": 7875,
      "elite": 7876,
      "bết": 7877,
      "cell": 7878,
      "ei": 7879,
      "foo": 7880,
      "hử": 7881,
      "kara": 7882,
      "mạ": 7883,
      "mỗ": 7884,
      "nb": 7885,
      "qatar": 7886,
      "ray": 7887,
      "sch": 7888,
      "tầu": 7889,
      "##vu": 7890,
      "##nis": 7891,
      "##bal": 7892,
      "chốn": 7893,
      "chôm": 7894,
      "chro": 7895,
      "ngấm": 7896,
      "khư": 7897,
      "nghẹt": 7898,
      "nghía": 7899,
      "toẹt": 7900,
      "local": 7901,
      "mẹo": 7902,
      "lườm": 7903,
      "sol": 7904,
      "vụt": 7905,
      "in4": 7906,
      "lane": 7907,
      "text": 7908,
      "roy": 7909,
      "manu": 7910,
      "60tr": 7911,
      "varane": 7912,
      "bait": 7913,
      "engine": 7914,
      "raize": 7915,
      "startup": 7916,
      "lexus": 7917,
      "côm": 7918,
      "das": 7919,
      "fun": 7920,
      "gao": 7921,
      "hmm": 7922,
      "nắn": 7923,
      "pác": 7924,
      "pour": 7925,
      "qa": 7926,
      "rờ": 7927,
      "wfh": 7928,
      "xém": 7929,
      "àh": 7930,
      "##74": 7931,
      "##zen": 7932,
      "thon": 7933,
      "chink": 7934,
      "nhác": 7935,
      "phây": 7936,
      "phone": 7937,
      "shaw": 7938,
      "site": 7939,
      "bhx": 7940,
      "##ttm": 7941,
      "login": 7942,
      "service": 7943,
      "24h": 7944,
      ",...)": 7945,
      "scam": 7946,
      "argentina": 7947,
      "syn": 7948,
      "croatia": 7949,
      "vietlott": 7950,
      "!?": 7951,
      "4m": 7952,
      "::": 7953,
      "bìa": 7954,
      "cạp": 7955,
      "dỡ": 7956,
      "fit": 7957,
      "hand": 7958,
      "liếc": 7959,
      "mệ": 7960,
      "nong": 7961,
      "q2": 7962,
      "réo": 7963,
      "watch": 7964,
      "xèng": 7965,
      "zs": 7966,
      "ặc": 7967,
      "##bin": 7968,
      "##jc": 7969,
      "phọt": 7970,
      "kick": 7971,
      "bitis": 7972,
      "sup": 7973,
      "ling": 7974,
      "pop": 7975,
      "##thi": 7976,
      "##ffy": 7977,
      "##uble": 7978,
      "đhs": 7979,
      "logist": 7980,
      "showbiz": 7981,
      "ướp": 7982,
      "scan": 7983,
      "150tr": 7984,
      "lụa": 7985,
      "cloud": 7986,
      "xkld": 7987,
      "xyz": 7988,
      "\"?": 7989,
      "bở": 7990,
      "bcs": 7991,
      "cạ": 7992,
      "căm": 7993,
      "ds": 7994,
      "dy": 7995,
      "elan": 7996,
      "fel": 7997,
      "gãi": 7998,
      "hal": 7999,
      "lôm": 8000,
      "mao": 8001,
      "miệt": 8002,
      "múp": 8003,
      "ping": 8004,
      "sco": 8005,
      "tụng": 8006,
      "who": 8007,
      "zid": 8008,
      "đệt": 8009,
      "##vy": 8010,
      "##ven": 8011,
      "##63": 8012,
      "##ấng": 8013,
      "##wh": 8014,
      "chẩn": 8015,
      "nhat": 8016,
      "trơ": 8017,
      "phàn": 8018,
      "giỏ": 8019,
      "điếc": 8020,
      "ramos": 8021,
      "conso": 8022,
      "cuv": 8023,
      "inst": 8024,
      "clm": 8025,
      "khui": 8026,
      "fanpage": 8027,
      "25t": 8028,
      "90p": 8029,
      "thaco": 8030,
      "news": 8031,
      "dòm": 8032,
      "bthg": 8033,
      "macbook": 8034,
      "motor": 8035,
      "protein": 8036,
      "champ": 8037,
      "clear": 8038,
      "zidane": 8039,
      "04": 8040,
      ":'": 8041,
      "aub": 8042,
      "bục": 8043,
      "bển": 8044,
      "ce": 8045,
      "ctr": 8046,
      "lác": 8047,
      "lánh": 8048,
      "las": 8049,
      "lâng": 8050,
      "miếu": 8051,
      "sủi": 8052,
      "đọng": 8053,
      "##ial": 8054,
      "##sic": 8055,
      "##sche": 8056,
      "##>>": 8057,
      "thạo": 8058,
      "nhung": 8059,
      "ngừa": 8060,
      "khử": 8061,
      "thìa": 8062,
      "##00km": 8063,
      "sou": 8064,
      "##ooth": 8065,
      "##pping": 8066,
      "##ita": 8067,
      "12k": 8068,
      "trịnh": 8069,
      "auth": 8070,
      "story": 8071,
      "dịu": 8072,
      "vpn": 8073,
      "blu": 8074,
      "600tr": 8075,
      "hẻo": 8076,
      "grande": 8077,
      "pdf": 8078,
      "chrome": 8079,
      "cồng": 8080,
      "food": 8081,
      "hì": 8082,
      "hắt": 8083,
      "hằn": 8084,
      "jong": 8085,
      "lỳ": 8086,
      "rp": 8087,
      "rou": 8088,
      "sì": 8089,
      "uể": 8090,
      "##made": 8091,
      "##69": 8092,
      "ngóc": 8093,
      "ngáy": 8094,
      "ngáp": 8095,
      "khang": 8096,
      "trừng": 8097,
      "phôi": 8098,
      "sapa": 8099,
      "##inum": 8100,
      "luffy": 8101,
      "toát": 8102,
      "how": 8103,
      "cuộn": 8104,
      "bud": 8105,
      "saigon": 8106,
      "##ado": 8107,
      "inch": 8108,
      "30s": 8109,
      "hàu": 8110,
      "point": 8111,
      "miss": 8112,
      "##tive": 8113,
      "comp": 8114,
      "sea": 8115,
      "fuck": 8116,
      "xoài": 8117,
      "140": 8118,
      "argen": 8119,
      "drive": 8120,
      "seiko": 8121,
      "lukaku": 8122,
      "%)": 8123,
      "54": 8124,
      "dế": 8125,
      "etc": 8126,
      "gôn": 8127,
      "lường": 8128,
      "lùm": 8129,
      "móm": 8130,
      "made": 8131,
      "pé": 8132,
      "rắm": 8133,
      "sụt": 8134,
      "stop": 8135,
      "tẻ": 8136,
      "tòi": 8137,
      "tẩm": 8138,
      "tịnh": 8139,
      "u19": 8140,
      "wall": 8141,
      "xiếc": 8142,
      "đắm": 8143,
      "##5k": 8144,
      "##gin": 8145,
      "##wood": 8146,
      "thâu": 8147,
      "thắp": 8148,
      "chụ": 8149,
      "nhám": 8150,
      "ngóng": 8151,
      "giục": 8152,
      "quàng": 8153,
      "nhào": 8154,
      "cute": 8155,
      "double": 8156,
      "cool": 8157,
      "bugi": 8158,
      "##ela": 8159,
      "##lol": 8160,
      "cmm": 8161,
      "cmg": 8162,
      "dizz": 8163,
      "okie": 8164,
      "##itar": 8165,
      "##tain": 8166,
      "200m": 8167,
      "##use": 8168,
      "ngưu": 8169,
      "only": 8170,
      "nguyền": 8171,
      "##shit": 8172,
      "account": 8173,
      "198": 8174,
      "john": 8175,
      "##die": 8176,
      "piano": 8177,
      "chớp": 8178,
      "luxury": 8179,
      "##lander": 8180,
      "##form": 8181,
      "gmail": 8182,
      "recommend": 8183,
      "1p": 8184,
      "2km": 8185,
      "bem": 8186,
      "lầy": 8187,
      "lẹt": 8188,
      "nư": 8189,
      "rựa": 8190,
      "xệ": 8191,
      "ẹc": 8192,
      "ộp": 8193,
      "##17": 8194,
      "##gpt": 8195,
      "nhô": 8196,
      "ngách": 8197,
      "khôi": 8198,
      "rate": 8199,
      "##ines": 8200,
      "loằn": 8201,
      "coun": 8202,
      "##eti": 8203,
      "rich": 8204,
      "bale": 8205,
      "##ouse": 8206,
      "##eek": 8207,
      "noi": 8208,
      "noho": 8209,
      "##list": 8210,
      "fuk": 8211,
      "golf": 8212,
      "guitar": 8213,
      "hsg": 8214,
      "cdm": 8215,
      "cđv": 8216,
      "ktx": 8217,
      "layoff": 8218,
      "tuýp": 8219,
      "hunter": 8220,
      "junior": 8221,
      "cừu": 8222,
      "elantra": 8223,
      "nohope": 8224,
      "-.": 8225,
      "2nd": 8226,
      "7k": 8227,
      "alex": 8228,
      "buy": 8229,
      "cbi": 8230,
      "mễ": 8231,
      "nêm": 8232,
      "ncc": 8233,
      "sta": 8234,
      "ster": 8235,
      "uổng": 8236,
      "xơi": 8237,
      "yt": 8238,
      "##ik": 8239,
      "##ece": 8240,
      "##fone": 8241,
      "thó": 8242,
      "thong": 8243,
      "nham": 8244,
      "nhản": 8245,
      "nhún": 8246,
      "trash": 8247,
      "sacombank": 8248,
      "choi": 8249,
      "muội": 8250,
      "luồn": 8251,
      "loằng": 8252,
      "cust": 8253,
      "##lem": 8254,
      "##asa": 8255,
      "##emi": 8256,
      "cac": 8257,
      "##ital": 8258,
      "pod": 8259,
      "##ipt": 8260,
      "rom": 8261,
      "##vie": 8262,
      "25tr": 8263,
      "btw": 8264,
      "##pect": 8265,
      "tester": 8266,
      "chatgpt": 8267,
      "ava": 8268,
      "random": 8269,
      "swit": 8270,
      "agri": 8271,
      "kpop": 8272,
      "nissan": 8273,
      "console": 8274,
      "3t": 8275,
      "51": 8276,
      "56": 8277,
      "5w": 8278,
      "dào": 8279,
      "ep": 8280,
      "ft": 8281,
      "gờ": 8282,
      "hục": 8283,
      "hẫng": 8284,
      "kô": 8285,
      "lồi": 8286,
      "lat": 8287,
      "oc": 8288,
      "qn": 8289,
      "ry": 8290,
      "rôi": 8291,
      "rít": 8292,
      "sto": 8293,
      "xừ": 8294,
      "đốn": 8295,
      "đúp": 8296,
      "##mt": 8297,
      "##dro": 8298,
      "##nk": 8299,
      "##gas": 8300,
      "##ắk": 8301,
      "##êt": 8302,
      "##õng": 8303,
      "thét": 8304,
      "nhọn": 8305,
      "phả": 8306,
      "gìn": 8307,
      "luồng": 8308,
      "cut": 8309,
      "...,": 8310,
      "tưới": 8311,
      "vol": 8312,
      "20p": 8313,
      "##ature": 8314,
      "##elo": 8315,
      "##ago": 8316,
      "haz": 8317,
      "exc": 8318,
      "pepe": 8319,
      "1m5": 8320,
      "pix": 8321,
      "alpha": 8322,
      "##125": 8323,
      "buffet": 8324,
      "##express": 8325,
      "##anced": 8326,
      "##cial": 8327,
      "lmao": 8328,
      "vênh": 8329,
      ":'(": 8330,
      "):": 8331,
      "1v": 8332,
      "450": 8333,
      "ber": 8334,
      "ball": 8335,
      "cắc": 8336,
      "dặt": 8337,
      "fast": 8338,
      "kềnh": 8339,
      "lb": 8340,
      "liêu": 8341,
      "nạc": 8342,
      "nor": 8343,
      "rò": 8344,
      "srm": 8345,
      "tơi": 8346,
      "viền": 8347,
      "xịch": 8348,
      "zom": 8349,
      "úng": 8350,
      "##card": 8351,
      "##gram": 8352,
      "##tin": 8353,
      "##95": 8354,
      "##ọm": 8355,
      "chắt": 8356,
      "trỏ": 8357,
      "giàn": 8358,
      "đóa": 8359,
      "loét": 8360,
      "tuốt": 8361,
      "dood": 8362,
      "khoét": 8363,
      "bike": 8364,
      "xavi": 8365,
      "seal": 8366,
      "banking": 8367,
      "2k5": 8368,
      "cỏn": 8369,
      "võng": 8370,
      "foden": 8371,
      "batman": 8372,
      "elon": 8373,
      "singlemom": 8374,
      "glc": 8375,
      "platinum": 8376,
      "asian": 8377,
      "racing": 8378,
      "windows": 8379,
      "budget": 8380,
      "-.-": 8381,
      "---": 8382,
      "4r": 8383,
      "5l": 8384,
      "64": 8385,
      "63": 8386,
      "78": 8387,
      "aqua": 8388,
      "bộc": 8389,
      "bẩy": 8390,
      "bell": 8391,
      "cúc": 8392,
      "gỏi": 8393,
      "hộc": 8394,
      "hẵn": 8395,
      "m1": 8396,
      "mẫn": 8397,
      "old": 8398,
      "pq": 8399,
      "rợ": 8400,
      "sd": 8401,
      "sb": 8402,
      "sụ": 8403,
      "vy": 8404,
      "vơi": 8405,
      "xình": 8406,
      "zị": 8407,
      "zậy": 8408,
      "ỉn": 8409,
      "##hd": 8410,
      "##77": 8411,
      "##tle": 8412,
      "##yth": 8413,
      "chằng": 8414,
      "khọm": 8415,
      "quai": 8416,
      "nghê": 8417,
      "luc": 8418,
      "khiêm": 8419,
      "lượm": 8420,
      "quyên": 8421,
      "she": 8422,
      "anim": 8423,
      "shock": 8424,
      "moto": 8425,
      "happy": 8426,
      "pok": 8427,
      "lab": 8428,
      "fab": 8429,
      "##cola": 8430,
      "cún": 8431,
      "orc": 8432,
      "metro": 8433,
      "napo": 8434,
      "iporn": 8435,
      "network": 8436,
      "accept": 8437,
      "chổng": 8438,
      "harry": 8439,
      "6k": 8440,
      "900k": 8441,
      "bừng": 8442,
      "cằm": 8443,
      "gps": 8444,
      "hơ": 8445,
      "hám": 8446,
      "lắt": 8447,
      "léo": 8448,
      "lõm": 8449,
      "nương": 8450,
      "nầy": 8451,
      "rông": 8452,
      "sâm": 8453,
      "t6": 8454,
      "vại": 8455,
      "vali": 8456,
      "zập": 8457,
      "ịt": 8458,
      "##ock": 8459,
      "##củ": 8460,
      "##cam": 8461,
      "##core": 8462,
      "##gue": 8463,
      "##200": 8464,
      "##pto": 8465,
      "thắn": 8466,
      "thuyên": 8467,
      "nhò": 8468,
      "nhma": 8469,
      "ngả": 8470,
      "ngạch": 8471,
      "khao": 8472,
      "trãi": 8473,
      "##ones": 8474,
      "##ens": 8475,
      "coop": 8476,
      "tick": 8477,
      "##elli": 8478,
      "chóp": 8479,
      "cược": 8480,
      "##share": 8481,
      "unlock": 8482,
      "##bby": 8483,
      "wiki": 8484,
      "4000": 8485,
      "hacker": 8486,
      "delux": 8487,
      "))))))))": 8488,
      "perez": 8489,
      "disc": 8490,
      "##hhhh": 8491,
      "xklđ": 8492,
      "porsche": 8493,
      "champion": 8494,
      "750": 8495,
      "?,": 8496,
      "diều": 8497,
      "dấm": 8498,
      "done": 8499,
      "dặm": 8500,
      "gel": 8501,
      "lđ": 8502,
      "lở": 8503,
      "lút": 8504,
      "mầy": 8505,
      "nặc": 8506,
      "need": 8507,
      "núm": 8508,
      "tọi": 8509,
      "đạch": 8510,
      "##ves": 8511,
      "##gu": 8512,
      "##kt": 8513,
      "##zy": 8514,
      "##ũi": 8515,
      "chổi": 8516,
      "ngải": 8517,
      "trâm": 8518,
      "phai": 8519,
      "##ond": 8520,
      "khoanh": 8521,
      "chịt": 8522,
      "##cky": 8523,
      "thoai": 8524,
      "vlog": 8525,
      "##eme": 8526,
      "##oun": 8527,
      "polo": 8528,
      "##boi": 8529,
      "##vert": 8530,
      "mươi": 8531,
      "16km": 8532,
      "outlander": 8533,
      "java": 8534,
      "acid": 8535,
      "enter": 8536,
      "hrv": 8537,
      ")))))": 8538,
      "what": 8539,
      "deadline": 8540,
      "nín": 8541,
      "product": 8542,
      "spoiler": 8543,
      "auba": 8544,
      "hazard": 8545,
      "650": 8546,
      "7km": 8547,
      "bồng": 8548,
      "bợm": 8549,
      "cựa": 8550,
      "dú": 8551,
      "dột": 8552,
      "dầy": 8553,
      "ff": 8554,
      "lự": 8555,
      "luyên": 8556,
      "mống": 8557,
      "mếu": 8558,
      "nỡ": 8559,
      "ow": 8560,
      "sến": 8561,
      "sent": 8562,
      "vắc": 8563,
      "vff": 8564,
      "zel": 8565,
      "đặng": 8566,
      "##cr": 8567,
      "##cast": 8568,
      "##64": 8569,
      "##fer": 8570,
      "chốc": 8571,
      "nhê": 8572,
      "nhằn": 8573,
      "phỉnh": 8574,
      "##ene": 8575,
      "control": 8576,
      "##iner": 8577,
      "tiger": 8578,
      "bur": 8579,
      "##ady": 8580,
      "chóa": 8581,
      "clgt": 8582,
      "khum": 8583,
      "200km": 8584,
      "mãnh": 8585,
      "víu": 8586,
      "vinmart": 8587,
      "manc": 8588,
      "stt": 8589,
      "theard": 8590,
      "xỉa": 8591,
      "meme": 8592,
      "700tr": 8593,
      "))))))": 8594,
      "mount": 8595,
      "disney": 8596,
      "##yyyy": 8597,
      "everton": 8598,
      "tennis": 8599,
      "source": 8600,
      "ase": 8601,
      "ams": 8602,
      "f12": 8603,
      "gục": 8604,
      "hero": 8605,
      "lộng": 8606,
      "lẫy": 8607,
      "mích": 8608,
      "mend": 8609,
      "pla": 8610,
      "port": 8611,
      "tét": 8612,
      "vel": 8613,
      "xít": 8614,
      "ytb": 8615,
      "##ift": 8616,
      "##sm": 8617,
      "##good": 8618,
      "##long": 8619,
      "##ya": 8620,
      "##fit": 8621,
      "##ẽn": 8622,
      "nhăng": 8623,
      "ngấy": 8624,
      "khong": 8625,
      "khanh": 8626,
      "##ence": 8627,
      "emo": 8628,
      "thuỵ": 8629,
      "vna": 8630,
      "shin": 8631,
      "##etooth": 8632,
      "2002": 8633,
      "##viet": 8634,
      "##code": 8635,
      "láp": 8636,
      "pick": 8637,
      "##ndai": 8638,
      "focus": 8639,
      "cđm": 8640,
      "yoga": 8641,
      "##tttttttt": 8642,
      "microsoft": 8643,
      "10w40": 8644,
      "cavani": 8645,
      "target": 8646,
      "##truong": 8647,
      "alvarez": 8648,
      "bluetooth": 8649,
      "++": 8650,
      "1l": 8651,
      "73": 8652,
      "79": 8653,
      "cq": 8654,
      "dỏm": 8655,
      "f3": 8656,
      "ganh": 8657,
      "hớ": 8658,
      "kền": 8659,
      "mách": 8660,
      "nk": 8661,
      "nang": 8662,
      "riêu": 8663,
      "room": 8664,
      "sô": 8665,
      "sả": 8666,
      "tf": 8667,
      "tiệt": 8668,
      "vọc": 8669,
      "xp": 8670,
      "##vate": 8671,
      "##han": 8672,
      "##tun": 8673,
      "##68": 8674,
      "##xa": 8675,
      "##ăc": 8676,
      "chạp": 8677,
      "nhọc": 8678,
      "ngợm": 8679,
      "giựt": 8680,
      "quẻ": 8681,
      "quệt": 8682,
      "saka": 8683,
      "choke": 8684,
      "muỗng": 8685,
      "##iness": 8686,
      "chuộc": 8687,
      "but": 8688,
      "##etua": 8689,
      "mak": 8690,
      "rice": 8691,
      "cụp": 8692,
      "nova": 8693,
      "sgk": 8694,
      "huyndai": 8695,
      "youtuber": 8696,
      "ahi": 8697,
      "##uma": 8698,
      "70tr": 8699,
      "uyên": 8700,
      "lòe": 8701,
      "##city": 8702,
      "english": 8703,
      "crypto": 8704,
      "xsr": 8705,
      "namek": 8706,
      "............": 8707,
      "lotte": 8708,
      "exciter": 8709,
      "1km": 8710,
      "3km": 8711,
      "59": 8712,
      "87": 8713,
      "bka": 8714,
      "hiên": 8715,
      "kro": 8716,
      "lq": 8717,
      "lali": 8718,
      "mận": 8719,
      "nã": 8720,
      "nah": 8721,
      "nũng": 8722,
      "pts": 8723,
      "plot": 8724,
      "rè": 8725,
      "vest": 8726,
      "za": 8727,
      "zero": 8728,
      "zoom": 8729,
      "ổi": 8730,
      "##day": 8731,
      "##98": 8732,
      "nhâm": 8733,
      "nhẩy": 8734,
      "lày": 8735,
      "kol": 8736,
      "##ena": 8737,
      "kid": 8738,
      "ngoi": 8739,
      "tap": 8740,
      "ghtk": 8741,
      "buýt": 8742,
      "socola": 8743,
      "bộn": 8744,
      "suit": 8745,
      "##loud": 8746,
      "trailer": 8747,
      "vịnh": 8748,
      "120km": 8749,
      "mos": 8750,
      "##agram": 8751,
      "siri": 8752,
      "spe": 8753,
      "##come": 8754,
      "forex": 8755,
      "vietin": 8756,
      "pele": 8757,
      "##plus": 8758,
      "gross": 8759,
      "##qui": 8760,
      "marti": 8761,
      "amer": 8762,
      "background": 8763,
      "lún": 8764,
      "big4": 8765,
      "total": 8766,
      "redmi": 8767,
      "1m65": 8768,
      "beef": 8769,
      "gea": 8770,
      "signature": 8771,
      "wanbi": 8772,
      "freelance": 8773,
      "nhatk": 8774,
      "instagram": 8775,
      "custom": 8776,
      "zelda": 8777,
      "asean": 8778,
      "ahihi": 8779,
      "laliga": 8780,
      "07": 8781,
      "84": 8782,
      "afc": 8783,
      "bel": 8784,
      "bụp": 8785,
      "eb": 8786,
      "ecu": 8787,
      "font": 8788,
      "jan": 8789,
      "lải": 8790,
      "lóng": 8791,
      "mến": 8792,
      "mỉa": 8793,
      "nma": 8794,
      "naru": 8795,
      "tút": 8796,
      "táp": 8797,
      "vó": 8798,
      "x1": 8799,
      "zồi": 8800,
      "##75": 8801,
      "##men": 8802,
      "##sp": 8803,
      "##lad": 8804,
      "##pal": 8805,
      "chài": 8806,
      "nhen": 8807,
      "quạ": 8808,
      "kotex": 8809,
      "choáng": 8810,
      "muống": 8811,
      "hayuki": 8812,
      "coach": 8813,
      "tips": 8814,
      "xuan": 8815,
      "##tri": 8816,
      "ghẹ": 8817,
      "##eline": 8818,
      "##reen": 8819,
      "##tom": 8820,
      "maifen": 8821,
      "1500": 8822,
      "líp": 8823,
      "night": 8824,
      "spr": 8825,
      "season": 8826,
      "xoạc": 8827,
      "vini": 8828,
      "stand": 8829,
      "##old": 8830,
      "mec": 8831,
      "pir": 8832,
      "steam": 8833,
      "newbie": 8834,
      "400tr": 8835,
      "!!!!": 8836,
      "astra": 8837,
      "highland": 8838,
      "paris": 8839,
      "obg": 8840,
      "gaming": 8841,
      "quỵt": 8842,
      "kdb": 8843,
      "rodri": 8844,
      "##stem": 8845,
      "leeds": 8846,
      "bkav": 8847,
      "$,": 8848,
      ",.": 8849,
      "05": 8850,
      "3g": 8851,
      "81": 8852,
      "8k": 8853,
      "eq": 8854,
      "fshare": 8855,
      "gượng": 8856,
      "gala": 8857,
      "hân": 8858,
      "ig": 8859,
      "lk": 8860,
      "lt": 8861,
      "mh": 8862,
      "nấc": 8863,
      "tâng": 8864,
      "vót": 8865,
      "đấng": 8866,
      "##ier": 8867,
      "##king": 8868,
      "##kip": 8869,
      "##ược": 8870,
      "##õa": 8871,
      "chột": 8872,
      "trip": 8873,
      "đươc": 8874,
      "kor": 8875,
      "music": 8876,
      "toét": 8877,
      "hotel": 8878,
      "bảnh": 8879,
      "cuống": 8880,
      "dig": 8881,
      "inb": 8882,
      "##entus": 8883,
      "##lick": 8884,
      "tỉa": 8885,
      "180k": 8886,
      "goal": 8887,
      "2k2": 8888,
      "mòe": 8889,
      "luyến": 8890,
      "serum": 8891,
      "tủy": 8892,
      "pence": 8893,
      "carplay": 8894,
      "avt": 8895,
      "hdd": 8896,
      "ngộp": 8897,
      "=]]]": 8898,
      "ranger": 8899,
      "ctay": 8900,
      "express": 8901,
      "nsx": 8902,
      "system": 8903,
      "brick": 8904,
      "bright": 8905,
      "##uuuuuuuu": 8906,
      "demo": 8907,
      "klq": 8908,
      "seagame": 8909,
      "pixel": 8910,
      "zombie": 8911,
      "xuantruong": 8912,
      "cỏi": 8913,
      "den": 8914,
      "dậm": 8915,
      "deed": 8916,
      "f2": 8917,
      "fim": 8918,
      "gô": 8919,
      "gừng": 8920,
      "gal": 8921,
      "gpt": 8922,
      "gũi": 8923,
      "hb": 8924,
      "htv": 8925,
      "lừng": 8926,
      "lậm": 8927,
      "mỉ": 8928,
      "m8": 8929,
      "meo": 8930,
      "nếm": 8931,
      "rb": 8932,
      "rơ": 8933,
      "uet": 8934,
      "vh": 8935,
      "xát": 8936,
      "zơ": 8937,
      "ỉm": 8938,
      "##sch": 8939,
      "##quy": 8940,
      "##link": 8941,
      "##lhc": 8942,
      "##bg": 8943,
      "##fl": 8944,
      "##éc": 8945,
      "##ễng": 8946,
      "##~~": 8947,
      "thày": 8948,
      "thặc": 8949,
      "thpt": 8950,
      "chội": 8951,
      "chướng": 8952,
      "chằm": 8953,
      "nhói": 8954,
      "khtn": 8955,
      "tran": 8956,
      "trau": 8957,
      "cóng": 8958,
      "gif": 8959,
      "gieo": 8960,
      "quài": 8961,
      "raider": 8962,
      "toa": 8963,
      "town": 8964,
      "hoắc": 8965,
      "##aim": 8966,
      "khiêu": 8967,
      "dop": 8968,
      "cook": 8969,
      "##try": 8970,
      "20m": 8971,
      "##esta": 8972,
      "vnđ": 8973,
      "##aly": 8974,
      "##alth": 8975,
      "any": 8976,
      "diam": 8977,
      "##ller": 8978,
      "claim": 8979,
      "bome": 8980,
      "lewan": 8981,
      "fuho": 8982,
      "wei": 8983,
      "500km": 8984,
      "tpcn": 8985,
      "lẻo": 8986,
      "1tr2": 8987,
      "reps": 8988,
      "cnc": 8989,
      "scoo": 8990,
      "amd": 8991,
      "binance": 8992,
      "juv": 8993,
      "msb": 8994,
      "mịe": 8995,
      "download": 8996,
      "smartphone": 8997,
      "smartkey": 8998,
      "350tr": 8999,
      "1m75": 9000,
      "mkt": 9001,
      "vacxin": 9002,
      "wenbie": 9003,
      "dragon": 9004,
      "chụy": 9005,
      ".​": 9006,
      "3s": 9007,
      "82": 9008,
      "a7": 9009,
      "dg": 9010,
      "d3": 9011,
      "dsk": 9012,
      "gư": 9013,
      "ktra": 9014,
      "lị": 9015,
      "nẹt": 9016,
      "oách": 9017,
      "opt": 9018,
      "oxi": 9019,
      "pẹ": 9020,
      "sọc": 9021,
      "uất": 9022,
      "vát": 9023,
      "vde": 9024,
      "vằn": 9025,
      "đởn": 9026,
      "ập": 9027,
      "##ac": 9028,
      "##mate": 9029,
      "##nm": 9030,
      "##ness": 9031,
      "##ww": 9032,
      "##jt": 9033,
      "thiến": 9034,
      "chao": 9035,
      "chêm": 9036,
      "nhải": 9037,
      "nhăm": 9038,
      "nheo": 9039,
      "quơ": 9040,
      "quây": 9041,
      "house": 9042,
      "dort": 9043,
      "sound": 9044,
      "30m": 9045,
      "trick": 9046,
      "hud": 9047,
      "##life": 9048,
      "##rist": 9049,
      "vintage": 9050,
      "creta": 9051,
      "vietcombank": 9052,
      "fire": 9053,
      "canxi": 9054,
      "đtqg": 9055,
      "ark": 9056,
      "petrol": 9057,
      "ncap": 9058,
      "mex": 9059,
      "medi": 9060,
      "##zzzz": 9061,
      "bd3": 9062,
      "sneak": 9063,
      "flag": 9064,
      "##ieu": 9065,
      "##155": 9066,
      "streamer": 9067,
      "rsx": 9068,
      "##tball": 9069,
      "final": 9070,
      "photoshop": 9071,
      "paul": 9072,
      "ngừoi": 9073,
      "sync": 9074,
      "pokemon": 9075,
      "deluxe": 9076,
      "martial": 9077,
      "bửa": 9078,
      "cẳng": 9079,
      "cằn": 9080,
      "hờ": 9081,
      "kin": 9082,
      "kun": 9083,
      "lốn": 9084,
      "lone": 9085,
      "mịt": 9086,
      "mama": 9087,
      "mlem": 9088,
      "nx": 9089,
      "nung": 9090,
      "ox": 9091,
      "pun": 9092,
      "q3": 9093,
      "rọ": 9094,
      "rel": 9095,
      "side": 9096,
      "t3": 9097,
      "w30": 9098,
      "xán": 9099,
      "đag": 9100,
      "ắc": 9101,
      "ẹp": 9102,
      "ừa": 9103,
      "##01": 9104,
      "##ving": 9105,
      "##ited": 9106,
      "##sc": 9107,
      "##sub": 9108,
      "##ura": 9109,
      "##650": 9110,
      "##ye": 9111,
      "thốt": 9112,
      "think": 9113,
      "chẻ": 9114,
      "ngãi": 9115,
      "true": 9116,
      "hoán": 9117,
      "hiu": 9118,
      "doo": 9119,
      "chuồn": 9120,
      "sogood": 9121,
      "##adona": 9122,
      "ins": 9123,
      "insta": 9124,
      "maf": 9125,
      "hãn": 9126,
      "bac": 9127,
      "1200": 9128,
      "pomade": 9129,
      "lích": 9130,
      "##lak": 9131,
      "huaw": 9132,
      "roman": 9133,
      "cheat": 9134,
      "lenh": 9135,
      "xog": 9136,
      "mane": 9137,
      "dmx": 9138,
      "cskh": 9139,
      "1m2": 9140,
      "cir": 9141,
      "240": 9142,
      "andre": 9143,
      "đệch": 9144,
      "japan": 9145,
      "subaru": 9146,
      "maradona": 9147,
      "skincare": 9148,
      "carbon": 9149,
      "laut": 9150,
      "365": 9151,
      "800tr": 9152,
      "filter": 9153,
      "hanoi": 9154,
      "##eship": 9155,
      "self": 9156,
      "casio": 9157,
      "##xyz": 9158,
      "kẽm": 9159,
      "hongkong": 9160,
      "cancelo": 9161,
      "torrent": 9162,
      "thỉu": 9163,
      "fuckboy": 9164,
      "switch": 9165,
      "stock": 9166,
      "sirius": 9167,
      "naruto": 9168,
      "brighton": 9169,
      "huawei": 9170,
      ")...": 9171,
      "0đ": 9172,
      "2p": 9173,
      "halo": 9174,
      "iv": 9175,
      "ira": 9176,
      "jet": 9177,
      "máo": 9178,
      "nẻ": 9179,
      "nến": 9180,
      "pọt": 9181,
      "pate": 9182,
      "q12": 9183,
      "sùi": 9184,
      "s23": 9185,
      "v1": 9186,
      "vùi": 9187,
      "water": 9188,
      "xéo": 9189,
      "xèo": 9190,
      "zen": 9191,
      "ùi": 9192,
      "đận": 9193,
      "đẹt": 9194,
      "ẵm": 9195,
      "ừm": 9196,
      "##oy": 9197,
      "##mas": 9198,
      "##kai": 9199,
      "##tg": 9200,
      "##bre": 9201,
      "##ple": 9202,
      "##pad": 9203,
      "##wi": 9204,
      "##jing": 9205,
      "thọi": 9206,
      "chít": 9207,
      "khờ": 9208,
      "khập": 9209,
      "khốc": 9210,
      "trồi": 9211,
      "giòi": 9212,
      "race": 9213,
      "đóe": 9214,
      "saudi": 9215,
      "tuồn": 9216,
      "ngoặc": 9217,
      "take": 9218,
      "##trong": 9219,
      "quyến": 9220,
      "trẻo": 9221,
      "##oot": 9222,
      "##icon": 9223,
      "nuột": 9224,
      "siu": 9225,
      "silic": 9226,
      "roma": 9227,
      "nguyen": 9228,
      "rule": 9229,
      "?????": 9230,
      "petro": 9231,
      "tpb": 9232,
      "jota": 9233,
      "pika": 9234,
      "piece": 9235,
      "respect": 9236,
      "business": 9237,
      "2tr5": 9238,
      "blđ": 9239,
      "lảm": 9240,
      "##bull": 9241,
      "##post": 9242,
      "feng": 9243,
      "toilet": 9244,
      "player": 9245,
      "dhs": 9246,
      "overr": 9247,
      "##chain": 9248,
      "cọp": 9249,
      "toeic": 9250,
      "football": 9251,
      "sterling": 9252,
      "dortm": 9253,
      "2d": 9254,
      "57": 9255,
      ":>": 9256,
      ":-": 9257,
      "api": 9258,
      "bỡ": 9259,
      "bnh": 9260,
      "bor": 9261,
      "bme": 9262,
      "bkh": 9263,
      "cộc": 9264,
      "cẹc": 9265,
      "flex": 9266,
      "lé": 9267,
      "lói": 9268,
      "m4": 9269,
      "mọ": 9270,
      "mường": 9271,
      "pê": 9272,
      "qg": 9273,
      "tong": 9274,
      "zi": 9275,
      "ún": 9276,
      "##mau": 9277,
      "##mark": 9278,
      "##ểng": 9279,
      "thim": 9280,
      "thèng": 9281,
      "chác": 9282,
      "kham": 9283,
      "khắt": 9284,
      "trẹo": 9285,
      "gio": 9286,
      "nài": 9287,
      "##ancer": 9288,
      "concept": 9289,
      "kiêu": 9290,
      "host": 9291,
      "tuchel": 9292,
      "##ates": 9293,
      "buốt": 9294,
      "##ages": 9295,
      "hub": 9296,
      "11k": 9297,
      "##verse": 9298,
      "@@.": 9299,
      "iso": 9300,
      "pres": 9301,
      "joke": 9302,
      "35t": 9303,
      "220": 9304,
      "usdt": 9305,
      "xìu": 9306,
      "vdv": 9307,
      "setting": 9308,
      "28t": 9309,
      "homme": 9310,
      "fran": 9311,
      "truồng": 9312,
      "version": 9313,
      "matic": 9314,
      "battle": 9315,
      "games": 9316,
      "limited": 9317,
      "golden": 9318,
      "crack": 9319,
      "fwb": 9320,
      "##tify": 9321,
      "santafe": 9322,
      "diamond": 9323,
      "gươm": 9324,
      "mexico": 9325,
      "$/": 9326,
      "5đ": 9327,
      "6m": 9328,
      "aja": 9329,
      "dũ": 9330,
      "dna": 9331,
      "ebook": 9332,
      "g7": 9333,
      "hị": 9334,
      "hơm": 9335,
      "kang": 9336,
      "ktv": 9337,
      "kaw": 9338,
      "linu": 9339,
      "nớt": 9340,
      "nou": 9341,
      "og": 9342,
      "opp": 9343,
      "oil": 9344,
      "pbct": 9345,
      "rub": 9346,
      "tể": 9347,
      "uầy": 9348,
      "use": 9349,
      "vụng": 9350,
      "##dar": 9351,
      "##sor": 9352,
      "##gy": 9353,
      "##36": 9354,
      "chừ": 9355,
      "chực": 9356,
      "chùm": 9357,
      "nhột": 9358,
      "ngần": 9359,
      "khay": 9360,
      "khẩy": 9361,
      "phác": 9362,
      "phẩy": 9363,
      "vàn": 9364,
      "sah": 9365,
      "##uyen": 9366,
      "nghen": 9367,
      "colo": 9368,
      "##tron": 9369,
      "##ima": 9370,
      "suông": 9371,
      "##ashi": 9372,
      "thiago": 9373,
      "##tey": 9374,
      "mah": 9375,
      "nude": 9376,
      "2001": 9377,
      "dep": 9378,
      "roger": 9379,
      "lego": 9380,
      "xoăn": 9381,
      "vincom": 9382,
      "freeship": 9383,
      "##cos": 9384,
      "##kia": 9385,
      "##shot": 9386,
      "bùm": 9387,
      "##ttle": 9388,
      "modem": 9389,
      "80tr": 9390,
      "prime": 9391,
      "joker": 9392,
      "##quest": 9393,
      "wigo": 9394,
      "binz": 9395,
      "chaymau": 9396,
      "container": 9397,
      "oscar": 9398,
      "tncn": 9399,
      "trust": 9400,
      "##eshow": 9401,
      "cpu": 9402,
      "edp": 9403,
      "finance": 9404,
      "##----------------": 9405,
      "toner": 9406,
      "xnk": 9407,
      "private": 9408,
      "blog": 9409,
      "arab": 9410,
      "bql": 9411,
      "debut": 9412,
      "south": 9413,
      "mendy": 9414,
      "janus": 9415,
      "digital": 9416,
      "lautaro": 9417,
      "dortmund": 9418,
      "ajax": 9419,
      "linux": 9420,
      "!.": 9421,
      ".,": 9422,
      "06": 9423,
      "5cm": 9424,
      "77": 9425,
      "bêu": 9426,
      "búp": 9427,
      "bặm": 9428,
      "cữ": 9429,
      "cent": 9430,
      "dame": 9431,
      "fm": 9432,
      "fsoft": 9433,
      "glo": 9434,
      "hất": 9435,
      "jord": 9436,
      "lổ": 9437,
      "lét": 9438,
      "mền": 9439,
      "nđ": 9440,
      "ner": 9441,
      "ocb": 9442,
      "q5": 9443,
      "qđ": 9444,
      "rúng": 9445,
      "slo": 9446,
      "sjc": 9447,
      "tòng": 9448,
      "tậu": 9449,
      "uc": 9450,
      "ẳng": 9451,
      "ọp": 9452,
      "##được": 9453,
      "##if": 9454,
      "##ish": 9455,
      "##sia": 9456,
      "##stream": 9457,
      "##late": 9458,
      "##xd": 9459,
      "##ểnh": 9460,
      "thơi": 9461,
      "chã": 9462,
      "chình": 9463,
      "khê": 9464,
      "phệt": 9465,
      "voice": 9466,
      "##imar": 9467,
      "rec": 9468,
      "dial": 9469,
      "##ema": 9470,
      "michel": 9471,
      "law": 9472,
      "##ris": 9473,
      "40t": 9474,
      "cru": 9475,
      "ciu": 9476,
      "unf": 9477,
      "know": 9478,
      "wax": 9479,
      "##123": 9480,
      "truân": 9481,
      "grand": 9482,
      "##gger": 9483,
      "120tr": 9484,
      "highlight": 9485,
      "gear": 9486,
      "xòe": 9487,
      "charge": 9488,
      "freelancer": 9489,
      "philip": 9490,
      "napoli": 9491,
      "michelin": 9492,
      "((": 9493,
      "=)": 9494,
      "bc": 9495,
      "băn": 9496,
      "bướng": 9497,
      "bass": 9498,
      "dậu": 9499,
      "fx": 9500,
      "găm": 9501,
      "hịn": 9502,
      "nar": 9503,
      "nịch": 9504,
      "nail": 9505,
      "put": 9506,
      "rợn": 9507,
      "sào": 9508,
      "tch": 9509,
      "tởn": 9510,
      "v2": 9511,
      "x4": 9512,
      "xõa": 9513,
      "yếm": 9514,
      "zú": 9515,
      "òm": 9516,
      "đờm": 9517,
      "ẻo": 9518,
      "##ium": 9519,
      "##mn": 9520,
      "##nel": 9521,
      "##ken": 9522,
      "##kin": 9523,
      "##zone": 9524,
      "##9k": 9525,
      "nhõi": 9526,
      "ngào": 9527,
      "ngão": 9528,
      "giông": 9529,
      "sar": 9530,
      "mul": 9531,
      "co2": 9532,
      "cold": 9533,
      "ting": 9534,
      "xua": 9535,
      "##led": 9536,
      "vnvc": 9537,
      "##asu": 9538,
      "vun": 9539,
      "dias": 9540,
      "vcd": 9541,
      "ria": 9542,
      "tàm": 9543,
      "clay": 9544,
      "155": 9545,
      "move": 9546,
      "nobel": 9547,
      "hust": 9548,
      "spor": 9549,
      "sever": 9550,
      "blockchain": 9551,
      "##ded": 9552,
      "##ahah": 9553,
      "2k3": 9554,
      "500m": 9555,
      "quýt": 9556,
      "13tr": 9557,
      "timeline": 9558,
      "175": 9559,
      "170": 9560,
      "active": 9561,
      "vđv": 9562,
      "1k5": 9563,
      "bigc": 9564,
      "twist": 9565,
      "limit": 9566,
      "rodai": 9567,
      "##aaaaaaaa": 9568,
      "corona": 9569,
      "##desk": 9570,
      "derby": 9571,
      "circle": 9572,
      "!\"": 9573,
      ".?": 9574,
      "3p": 9575,
      "4t": 9576,
      "76": 9577,
      "bp": 9578,
      "bử": 9579,
      "dệt": 9580,
      "ear": 9581,
      "gọt": 9582,
      "hạp": 9583,
      "jup": 9584,
      "kat": 9585,
      "mf": 9586,
      "nòng": 9587,
      "pyth": 9588,
      "rèm": 9589,
      "rứa": 9590,
      "sạt": 9591,
      "was": 9592,
      "ze": 9593,
      "ây": 9594,
      "úi": 9595,
      "đay": 9596,
      "đanh": 9597,
      "ỏi": 9598,
      "##vas": 9599,
      "##name": 9600,
      "##92": 9601,
      "##ơu": 9602,
      "cheek": 9603,
      "nhứt": 9604,
      "ngặt": 9605,
      "khẩm": 9606,
      "phd": 9607,
      "qué": 9608,
      "quịt": 9609,
      "##uyễn": 9610,
      "kova": 9611,
      "##ency": 9612,
      "khiễng": 9613,
      "##aming": 9614,
      "tuộc": 9615,
      "ngoo": 9616,
      "coo": 9617,
      "cour": 9618,
      "10s": 9619,
      "thoy": 9620,
      "##cedes": 9621,
      "okay": 9622,
      "inf": 9623,
      "##star": 9624,
      "mob": 9625,
      "nokia": 9626,
      "50m": 9627,
      "roll": 9628,
      "comic": 9629,
      "##ffee": 9630,
      "##lice": 9631,
      "bede": 9632,
      "audio": 9633,
      "18k": 9634,
      "health": 9635,
      "hydro": 9636,
      "fish": 9637,
      "ncl": 9638,
      "thùy": 9639,
      "navit": 9640,
      "using": 9641,
      "alt": 9642,
      "scr": 9643,
      "150cc": 9644,
      "chipu": 9645,
      "##nez": 9646,
      "##ather": 9647,
      "partey": 9648,
      "edu": 9649,
      "esl": 9650,
      "abcxyz": 9651,
      "tmđt": 9652,
      "every": 9653,
      "fair": 9654,
      "ubnd": 9655,
      "awd": 9656,
      "year": 9657,
      "##____": 9658,
      "bủn": 9659,
      "scot": 9660,
      "americ": 9661,
      "sneaker": 9662,
      "mafia": 9663,
      "iraq": 9664,
      "pikachu": 9665,
      "navitel": 9666,
      "1s": 9667,
      "71": 9668,
      "bòn": 9669,
      "bôn": 9670,
      "dẫu": 9671,
      "eri": 9672,
      "fal": 9673,
      "gb": 9674,
      "gâu": 9675,
      "hễ": 9676,
      "has": 9677,
      "jin": 9678,
      "lăm": 9679,
      "let": 9680,
      "mải": 9681,
      "nực": 9682,
      "qwer": 9683,
      "răn": 9684,
      "s2": 9685,
      "tttm": 9686,
      "ux": 9687,
      "won": 9688,
      "wing": 9689,
      "wol": 9690,
      "xổi": 9691,
      "xấp": 9692,
      "đx": 9693,
      "##đó": 9694,
      "##iz": 9695,
      "##ient": 9696,
      "##mai": 9697,
      "##pas": 9698,
      "##we": 9699,
      "##ĩa": 9700,
      "chẵn": 9701,
      "nhg": 9702,
      "nhếch": 9703,
      "trét": 9704,
      "phách": 9705,
      "sand": 9706,
      "##chester": 9707,
      "toé": 9708,
      "đãng": 9709,
      "loi": 9710,
      "cum": 9711,
      "khoăn": 9712,
      "##troi": 9713,
      "thủi": 9714,
      "rev": 9715,
      "##agi": 9716,
      "##ident": 9717,
      "##eeee": 9718,
      "duck": 9719,
      "2025": 9720,
      "bhsk": 9721,
      "impl": 9722,
      "viettin": 9723,
      "vietsub": 9724,
      "lãm": 9725,
      "expl": 9726,
      "csgo": 9727,
      "nex": 9728,
      "##tvt": 9729,
      "22h": 9730,
      "kepa": 9731,
      "##mmmm": 9732,
      "pack": 9733,
      "sonet": 9734,
      "benz": 9735,
      "boxing": 9736,
      "techcombank": 9737,
      "3tr5": 9738,
      "hđlđ": 9739,
      "xhđ": 9740,
      "mtb": 9741,
      "mercedes": 9742,
      "airpo": 9743,
      "mastercard": 9744,
      "great": 9745,
      "young": 9746,
      "paypal": 9747,
      "everest": 9748,
      "spotify": 9749,
      "lyrics": 9750,
      "axit": 9751,
      "cruise": 9752,
      "4rum": 9753,
      "jordan": 9754,
      "python": 9755,
      "qwerty": 9756,
      "bam": 9757,
      "beo": 9758,
      "bủng": 9759,
      "dường": 9760,
      "det": 9761,
      "eth": 9762,
      "famil": 9763,
      "gả": 9764,
      "gã": 9765,
      "gate": 9766,
      "gủng": 9767,
      "hall": 9768,
      "hờn": 9769,
      "jor": 9770,
      "lưa": 9771,
      "lứng": 9772,
      "mồn": 9773,
      "mém": 9774,
      "nd": 9775,
      "oang": 9776,
      "oder": 9777,
      "p2": 9778,
      "pak": 9779,
      "q10": 9780,
      "sôn": 9781,
      "són": 9782,
      "tx": 9783,
      "tếu": 9784,
      "tone": 9785,
      "váng": 9786,
      "vga": 9787,
      "xiêu": 9788,
      "yen": 9789,
      "zone": 9790,
      "##vt": 9791,
      "##van": 9792,
      "##eid": 9793,
      "##ual": 9794,
      "##ky": 9795,
      "##fu": 9796,
      "##97": 9797,
      "nhại": 9798,
      "nhao": 9799,
      "nhựt": 9800,
      "ngắc": 9801,
      "ngòi": 9802,
      "trệt": 9803,
      "trỏng": 9804,
      "phắn": 9805,
      "nghiền": 9806,
      "conne": 9807,
      "concer": 9808,
      "chỉn": 9809,
      "bịu": 9810,
      "##amine": 9811,
      "coffee": 9812,
      "volu": 9813,
      "kiếng": 9814,
      "##ese": 9815,
      "108": 9816,
      "nguỵ": 9817,
      "##alan": 9818,
      "shank": 9819,
      "##ella": 9820,
      "##cee": 9821,
      "ini": 9822,
      "lia": 9823,
      "gàu": 9824,
      "sil": 9825,
      "rose": 9826,
      "laca": 9827,
      "##lift": 9828,
      "beck": 9829,
      "adn": 9830,
      "##andal": 9831,
      "tgd": 9832,
      "báu": 9833,
      "naked": 9834,
      "maria": 9835,
      "london": 9836,
      "front": 9837,
      "mainstream": 9838,
      "##girl": 9839,
      "##gggg": 9840,
      "mpv": 9841,
      "assist": 9842,
      "iron": 9843,
      "mg5": 9844,
      "tđn": 9845,
      "==>": 9846,
      "##bctlhc": 9847,
      "trader": 9848,
      "trading": 9849,
      "laser": 9850,
      "halogen": 9851,
      "jupiter": 9852,
      "volume": 9853,
      "$.": 9854,
      ">>": 9855,
      "côi": 9856,
      "cia": 9857,
      "cgi": 9858,
      "dể": 9859,
      "gri": 9860,
      "hg": 9861,
      "hường": 9862,
      "hão": 9863,
      "jes": 9864,
      "nl": 9865,
      "pal": 9866,
      "pfi": 9867,
      "pages": 9868,
      "rìa": 9869,
      "rướn": 9870,
      "vò": 9871,
      "vỹ": 9872,
      "vẩy": 9873,
      "vén": 9874,
      "wel": 9875,
      "well": 9876,
      "w40": 9877,
      "zui": 9878,
      "đs": 9879,
      "##ab": 9880,
      "##mber": 9881,
      "##new": 9882,
      "##uan": 9883,
      "##bra": 9884,
      "##ward": 9885,
      "##ệch": 9886,
      "chóc": 9887,
      "nhẩm": 9888,
      "ngà": 9889,
      "ngan": 9890,
      "trũng": 9891,
      "phiệt": 9892,
      "mào": 9893,
      "sad": 9894,
      "choice": 9895,
      "tomi": 9896,
      "thuở": 9897,
      "##inha": 9898,
      "lom": 9899,
      "lobby": 9900,
      "costa": 9901,
      "mánh": 9902,
      "chiêm": 9903,
      "volv": 9904,
      "20cm": 9905,
      "##att": 9906,
      "thoa": 9907,
      "sur": 9908,
      "thiêng": 9909,
      "did": 9910,
      "kít": 9911,
      "dùi": 9912,
      "inno": 9913,
      "maps": 9914,
      "ligue": 9915,
      "##ingham": 9916,
      "##tachi": 9917,
      "moder": 9918,
      "200x": 9919,
      "bosch": 9920,
      ")).": 9921,
      "##derson": 9922,
      "##ria": 9923,
      "audit": 9924,
      "18tr": 9925,
      "goku": 9926,
      "fortun": 9927,
      "##fect": 9928,
      "exten": 9929,
      "peak": 9930,
      "phổng": 9931,
      "shiper": 9932,
      "nhoi": 9933,
      "bỉu": 9934,
      "75km": 9935,
      "menu": 9936,
      "touring": 9937,
      "fox": 9938,
      "monster": 9939,
      "boost": 9940,
      "đek": 9941,
      "cgv": 9942,
      "craw": 9943,
      "##blade": 9944,
      "thóp": 9945,
      "fabinho": 9946,
      "implant": 9947,
      "pfizer": 9948,
      "ala": 9949,
      "bầm": 9950,
      "dau": 9951,
      "edt": 9952,
      "fat": 9953,
      "flick": 9954,
      "gong": 9955,
      "hùn": 9956,
      "kak": 9957,
      "lảng": 9958,
      "m6": 9959,
      "mớm": 9960,
      "qtrong": 9961,
      "rốn": 9962,
      "rốc": 9963,
      "rạng": 9964,
      "rẹt": 9965,
      "rush": 9966,
      "sảy": 9967,
      "tel": 9968,
      "tắp": 9969,
      "vệt": 9970,
      "xiết": 9971,
      "xẹp": 9972,
      "áy": 9973,
      "đell": 9974,
      "##vat": 9975,
      "##vem": 9976,
      "##iu": 9977,
      "##hz": 9978,
      "##my": 9979,
      "##db": 9980,
      "##sun": 9981,
      "##ren": 9982,
      "##44": 9983,
      "##bai": 9984,
      "##yes": 9985,
      "##pard": 9986,
      "##win": 9987,
      "##ĩu": 9988,
      "##õn": 9989,
      "thòng": 9990,
      "thor": 9991,
      "nhuyễn": 9992,
      "khố": 9993,
      "khăng": 9994,
      "trát": 9995,
      "quắc": 9996,
      "##ange": 9997,
      "loc": 9998,
      "coa": 9999,
      "taylor": 10000,
      "vneid": 10001,
      "vler": 10002,
      "bing": 10003,
      "bida": 10004,
      "sudan": 10005,
      "##road": 10006,
      "ance": 10007,
      "thich": 10008,
      "diaz": 10009,
      "##llip": 10010,
      "cake": 10011,
      "##rael": 10012,
      "128": 10013,
      "##unk": 10014,
      "##vien": 10015,
      "115": 10016,
      "phake": 10017,
      "đmm": 10018,
      "bei": 10019,
      "manchester": 10020,
      "nhiễu": 10021,
      "##bike": 10022,
      "135": 10023,
      "israel": 10024,
      "1tr8": 10025,
      "gener": 10026,
      "cardio": 10027,
      "atta": 10028,
      "vượn": 10029,
      "screen": 10030,
      "cx8": 10031,
      "50kg": 10032,
      "vf5": 10033,
      "ibra": 10034,
      "xhcn": 10035,
      "feel": 10036,
      "airblade": 10037,
      "casino": 10038,
      "garmin": 10039,
      "porto": 10040,
      "walker": 10041,
      "helpdesk": 10042,
      "pgd": 10043,
      "rhm": 10044,
      "royal": 10045,
      "engineer": 10046,
      "logistic": 10047,
      "veloz": 10048,
      "kroos": 10049,
      "overrated": 10050,
      "family": 10051,
      "concert": 10052,
      "volvo": 10053,
      "()": 10054,
      "8m": 10055,
      "a4": 10056,
      "gặt": 10057,
      "gòi": 10058,
      "gout": 10059,
      "iss": 10060,
      "lằn": 10061,
      "mậy": 10062,
      "mồng": 10063,
      "mấu": 10064,
      "nức": 10065,
      "oman": 10066,
      "pic": 10067,
      "rặn": 10068,
      "sú": 10069,
      "tng": 10070,
      "v3": 10071,
      "đé": 10072,
      "đẽ": 10073,
      "đên": 10074,
      "ải": 10075,
      "##ome": 10076,
      "##cra": 10077,
      "##160": 10078,
      "##ey": 10079,
      "##sport": 10080,
      "##bar": 10081,
      "##jk": 10082,
      "##96": 10083,
      "##9x": 10084,
      "##),": 10085,
      "thốc": 10086,
      "tháy": 10087,
      "chỏ": 10088,
      "ngao": 10089,
      "phốc": 10090,
      "choá": 10091,
      "radar": 10092,
      "##ander": 10093,
      "##chs": 10094,
      "hoo": 10095,
      "cur": 10096,
      "doãn": 10097,
      "coco": 10098,
      "chuốt": 10099,
      "##alinh": 10100,
      "##alia": 10101,
      "100ml": 10102,
      "##ros": 10103,
      "thiển": 10104,
      "dior": 10105,
      "dire": 10106,
      "##llar": 10107,
      "shopp": 10108,
      "baga": 10109,
      "đuồi": 10110,
      "##agen": 10111,
      "chờn": 10112,
      "hak": 10113,
      "rượt": 10114,
      "nilon": 10115,
      "##lity": 10116,
      "vinno": 10117,
      "bts": 10118,
      "arti": 10119,
      "offic": 10120,
      "bray": 10121,
      "passport": 10122,
      "acquy": 10123,
      "oled": 10124,
      "minds": 10125,
      "amid": 10126,
      "45k": 10127,
      "pvf": 10128,
      "6h30": 10129,
      "'',": 10130,
      "vtp": 10131,
      "tsn": 10132,
      "captain": 10133,
      "gameshow": 10134,
      "##lux": 10135,
      "m3p": 10136,
      "##presso": 10137,
      "##joy": 10138,
      "arteta": 10139,
      "##00000000": 10140,
      "comeback": 10141,
      "decor": 10142,
      "lingard": 10143,
      "nhòe": 10144,
      "discord": 10145,
      "owen": 10146,
      "scooter": 10147,
      "bkhn": 10148,
      "global": 10149,
      "erik": 10150,
      "jesus": 10151,
      "mindset": 10152,
      "7h30": 10153,
      "83": 10154,
      "9k": 10155,
      "bxh": 10156,
      "cật": 10157,
      "dơi": 10158,
      "dãn": 10159,
      "gỉ": 10160,
      "gồ": 10161,
      "gpl": 10162,
      "had": 10163,
      "hèm": 10164,
      "hỡi": 10165,
      "hốp": 10166,
      "mng": 10167,
      "mes": 10168,
      "mel": 10169,
      "more": 10170,
      "nòi": 10171,
      "oái": 10172,
      "oanh": 10173,
      "pink": 10174,
      "rằm": 10175,
      "ráy": 10176,
      "s1": 10177,
      "sòn": 10178,
      "sệt": 10179,
      "súp": 10180,
      "séc": 10181,
      "uz": 10182,
      "vỉ": 10183,
      "vãng": 10184,
      "xời": 10185,
      "zời": 10186,
      "én": 10187,
[...]
