{
  "version": "1.0",
  "truncation": {
    "direction": "Right",
    "max_length": 160,
    "strategy": "LongestFirst",
    "stride": 0
  },
  "padding": {
    "strategy": {
      "Fixed": 160
    },
    "direction": "Right",
    "pad_to_multiple_of": null,
    "pad_id": 0,
    "pad_type_id": 0,
    "pad_token": "[PAD]"
  },
  "added_tokens": [
    {
      "id": 0,
      "content": "[PAD]",
      "single_word": false,
      "lstrip": false,
      "rstrip": false,
      "normalized": false,
      "special": true
    },
    {
      "id": 1,
      "content": "[UNK]",
      "single_word": false,
      "lstrip": false,
      "rstrip": false,
      "normalized": false,
      "special": true
    },
    {
      "id": 2,
      "content": "[CLS]",
      "single_word": false,
      "lstrip": false,
      "rstrip": false,
      "normalized": false,
      "special": true
    },
    {
      "id": 3,
      "content": "[SEP]",
      "single_word": false,
      "lstrip": false,
      "rstrip": false,
      "normalized": false,
      "special": true
    },
    {
      "id": 4,
      "content": "[MASK]",
      "single_word": false,
      "lstrip": false,
      "rstrip": false,
      "normalized": false,
      "special": true
    }
  ],
  "normalizer": {
    "type": "Sequence",
    "normalizers": [
      {
        "type": "NFKC"
      },
      {
        "type": "Lowercase"
      }
    ]
  },
  "pre_tokenizer": {
    "type": "Whitespace"
  },
  "post_processor": {
    "type": "TemplateProcessing",
    "single": [
      {
        "SpecialToken": {
          "id": "[CLS]",
          "type_id": 0
        }
      },
      {
        "Sequence": {
          "id": "A",
          "type_id": 0
        }
      },
      {
        "SpecialToken": {
          "id": "[SEP]",
          "type_id": 0
        }
      }
    ],
    "pair": [
      {
        "SpecialToken": {
          "id": "[CLS]",
          "type_id": 0
        }
      },
      {
        "Sequence": {
          "id": "A",
          "type_id": 0
        }
      },
      {
        "SpecialToken": {
          "id": "[SEP]",
          "type_id": 0
        }
      },
      {
        "Sequence": {
          "id": "B",
          "type_id": 1
        }
      },
      {
        "SpecialToken": {
          "id": "[SEP]",
          "type_id": 1
        }
      }
    ],
    "special_tokens": {
      "[CLS]": {
        "id": "[CLS]",
        "ids": [
          2
        ],
        "tokens": [
          "[CLS]"
        ]
      },
      "[SEP]": {
        "id": "[SEP]",
        "ids": [
          3
        ],
        "tokens": [
          "[SEP]"
        ]
      }
    }
  },
  "decoder": null,
  "model": {
    "type": "WordPiece",
    "unk_token": "[UNK]",
    "continuing_subword_prefix": "##",
    "max_input_chars_per_word": 100,
    "vocab": {
      "[PAD]": 0,
      "[UNK]": 1,
      "[CLS]": 2,
      "[SEP]": 3,
      "[MASK]": 4,
      "!": 5,
      "\"": 6,
      "#": 7,
      "$": 8,
      "%": 9,
      "&": 10,
      "'": 11,
      "(": 12,
      ")": 13,
      "*": 14,
      "+": 15,
      ",": 16,
      "-": 17,
      ".": 18,
      "/": 19,
      "0": 20,
      "1": 21,
      "2": 22,
      "3": 23,
      "4": 24,
      "5": 25,
      "6": 26,
      "7": 27,
      "8": 28,
      "9": 29,
      ":": 30,
      ";": 31,
      "<": 32,
      "=": 33,
      ">": 34,
      "?": 35,
      "@": 36,
      "[": 37,
      "\\": 38,
      "]": 39,
      "^": 40,
      "_": 41,
      "`": 42,
      "a": 43,
      "b": 44,
      "c": 45,
      "d": 46,
      "e": 47,
      "f": 48,
      "g": 49,
      "h": 50,
      "i": 51,
      "j": 52,
      "k": 53,
      "l": 54,
      "m": 55,
      "n": 56,
      "o": 57,
      "p": 58,
      "q": 59,
      "r": 60,
      "s": 61,
      "t": 62,
      "u": 63,
      "v": 64,
      "w": 65,
      "x": 66,
      "y": 67,
      "z": 68,
      "{": 69,
      "|": 70,
      "}": 71,
      "~": 72,
      "¢": 73,
      "£": 74,
      "¥": 75,
      "©": 76,
      "¬": 77,
      "®": 78,
      "°": 79,
      "±": 80,
      "·": 81,
      "¿": 82,
      "×": 83,
      "ß": 84,
      "à": 85,
      "á": 86,
      "â": 87,
      "ã": 88,
      "ä": 89,
      "å": 90,
      "æ": 91,
      "ç": 92,
      "è": 93,
      "é": 94,
      "ê": 95,
      "ì": 96,
      "í": 97,
      "ð": 98,
      "ñ": 99,
      "ò": 100,
      "ó": 101,
      "ô": 102,
      "õ": 103,
      "ö": 104,
      "÷": 105,
      "ø": 106,
      "ù": 107,
      "ú": 108,
      "ü": 109,
      "ý": 110,
      "ā": 111,
      "ă": 112,
      "ć": 113,
      "č": 114,
      "đ": 115,
      "ĩ": 116,
      "ō": 117,
      "š": 118,
      "ũ": 119,
      "ơ": 120,
      "ƪ": 121,
      "ư": 122,
      "ǐ": 123,
      "ǹ": 124,
      "ɛ": 125,
      "ʃ": 126,
      "ʖ": 127,
      "̀": 128,
      "́": 129,
      "̃": 130,
      "̄": 131,
      "̆": 132,
      "̊": 133,
      "α": 134,
      "δ": 135,
      "λ": 136,
      "μ": 137,
      "π": 138,
      "ς": 139,
      "σ": 140,
      "τ": 141,
      "ψ": 142,
      "ω": 143,
      "а": 144,
      "д": 145,
      "е": 146,
      "и": 147,
      "к": 148,
      "л": 149,
      "м": 150,
      "н": 151,
      "о": 152,
      "р": 153,
      "с": 154,
      "т": 155,
      "у": 156,
      "ч": 157,
      "ш": 158,
      "ы": 159,
      "ь": 160,
      "э": 161,
      "أ": 162,
      "ا": 163,
      "ب": 164,
      "ة": 165,
      "ت": 166,
      "ج": 167,
      "د": 168,
      "ذ": 169,
      "ع": 170,
      "غ": 171,
      "ق": 172,
      "ك": 173,
      "ل": 174,
      "م": 175,
      "ن": 176,
      "ه": 177,
      "ي": 178,
      "ಠ": 179,
      "ก": 180,
      "ง": 181,
      "ต": 182,
      "น": 183,
      "ุ": 184,
      "เ": 185,
      "้": 186,
      "༼": 187,
      "༽": 188,
      "ᅠ": 189,
      "឴": 190,
      "ạ": 191,
      "ả": 192,
      "ấ": 193,
      "ầ": 194,
      "ẩ": 195,
      "ẫ": 196,
      "ậ": 197,
      "ắ": 198,
      "ằ": 199,
      "ẳ": 200,
      "ẵ": 201,
      "ặ": 202,
      "ẹ": 203,
      "ẻ": 204,
      "ẽ": 205,
      "ế": 206,
      "ề": 207,
      "ể": 208,
      "ễ": 209,
      "ệ": 210,
      "ỉ": 211,
      "ị": 212,
      "ọ": 213,
      "ỏ": 214,
      "ố": 215,
      "ồ": 216,
      "ổ": 217,
      "ỗ": 218,
      "ộ": 219,
      "ớ": 220,
      "ờ": 221,
      "ở": 222,
      "ỡ": 223,
      "ợ": 224,
      "ụ": 225,
      "ủ": 226,
      "ứ": 227,
      "ừ": 228,
      "ử": 229,
      "ữ": 230,
      "ự": 231,
      "ỳ": 232,
      "ỵ": 233,
      "ỷ": 234,
      "ỹ": 235,
      "​": 236,
      "‌": 237,
      "‍": 238,
      "‎": 239,
      "‐": 240,
      "–": 241,
      "—": 242,
      "‘": 243,
      "’": 244,
      "“": 245,
      "”": 246,
      "•": 247,
      "‬": 248,
      "‭": 249,
      "›": 250,
      "‿": 251,
      "⁠": 252,
      "₫": 253,
      "€": 254,
      "→": 255,
      "⇒": 256,
      "∀": 257,
      "∆": 258,
      "√": 259,
      "∞": 260,
      "∫": 261,
      "≠": 262,
      "≤": 263,
      "≥": 264,
      "≦": 265,
      "≧": 266,
      "⊙": 267,
      "━": 268,
      "┻": 269,
      "╯": 270,
      "□": 271,
      "►": 272,
      "▽": 273,
      "○": 274,
      "●": 275,
      "◕": 276,
      "☄": 277,
      "☪": 278,
      "☹": 279,
      "☺": 280,
      "☼": 281,
      "♠": 282,
      "♡": 283,
      "♣": 284,
      "♥": 285,
      "♦": 286,
      "♪": 287,
      "♬": 288,
      "⛹": 289,
      "✈": 290,
      "✌": 291,
      "✍": 292,
      "✿": 293,
      "❝": 294,
      "❞": 295,
      "❤": 296,
      "➡": 297,
      "、": 298,
      "。": 299,
      "〉": 300,
      "《": 301,
      "》": 302,
      "「": 303,
      "」": 304,
      "【": 305,
      "】": 306,
      "〰": 307,
      "い": 308,
      "う": 309,
      "お": 310,
      "き": 311,
      "く": 312,
      "ぐ": 313,
      "こ": 314,
      "ご": 315,
      "さ": 316,
      "ざ": 317,
      "し": 318,
      "す": 319,
      "た": 320,
      "だ": 321,
      "っ": 322,
      "つ": 323,
      "づ": 324,
      "て": 325,
      "な": 326,
      "の": 327,
      "は": 328,
      "ま": 329,
      "み": 330,
      "め": 331,
      "や": 332,
      "よ": 333,
      "わ": 334,
      "を": 335,
      "ん": 336,
      "イ": 337,
      "ゥ": 338,
      "オ": 339,
      "カ": 340,
      "キ": 341,
      "ジ": 342,
      "ス": 343,
      "タ": 344,
      "ッ": 345,
      "ツ": 346,
      "テ": 347,
      "ト": 348,
      "ド": 349,
      "ナ": 350,
      "ノ": 351,
      "ベ": 352,
      "ペ": 353,
      "ホ": 354,
      "ム": 355,
      "メ": 356,
      "ャ": 357,
      "ラ": 358,
      "リ": 359,
      "ル": 360,
      "レ": 361,
      "ン": 362,
      "・": 363,
      "ー": 364,
      "一": 365,
      "丁": 366,
      "七": 367,
      "万": 368,
      "三": 369,
      "上": 370,
      "下": 371,
      "不": 372,
      "与": 373,
      "且": 374,
      "世": 375,
      "东": 376,
      "个": 377,
      "中": 378,
      "为": 379,
      "主": 380,
      "举": 381,
      "么": 382,
      "之": 383,
      "九": 384,
      "也": 385,
      "乡": 386,
      "书": 387,
      "了": 388,
      "争": 389,
      "事": 390,
      "二": 391,
      "于": 392,
      "亏": 393,
      "云": 394,
      "五": 395,
      "亡": 396,
      "交": 397,
      "亦": 398,
      "产": 399,
      "京": 400,
      "亮": 401,
      "人": 402,
      "什": 403,
      "仆": 404,
      "从": 405,
      "代": 406,
      "以": 407,
      "仪": 408,
      "伐": 409,
      "众": 410,
      "会": 411,
      "传": 412,
      "伯": 413,
      "住": 414,
      "佐": 415,
      "何": 416,
      "佗": 417,
      "余": 418,
      "佛": 419,
      "你": 420,
      "使": 421,
      "來": 422,
      "供": 423,
      "依": 424,
      "侠": 425,
      "侯": 426,
      "侵": 427,
      "俗": 428,
      "候": 429,
      "傅": 430,
      "傳": 431,
      "光": 432,
      "入": 433,
      "全": 434,
      "八": 435,
      "六": 436,
      "兮": 437,
      "兵": 438,
      "其": 439,
      "典": 440,
      "内": 441,
      "再": 442,
      "军": 443,
      "农": 444,
      "冲": 445,
      "凡": 446,
      "出": 447,
      "击": 448,
      "凿": 449,
      "分": 450,
      "列": 451,
      "则": 452,
      "初": 453,
      "別": 454,
      "制": 455,
      "前": 456,
      "剑": 457,
      "助": 458,
      "務": 459,
      "勾": 460,
      "化": 461,
      "北": 462,
      "区": 463,
      "十": 464,
      "千": 465,
      "华": 466,
      "卑": 467,
      "卒": 468,
      "南": 469,
      "卷": 470,
      "历": 471,
      "厚": 472,
      "原": 473,
      "厷": 474,
      "去": 475,
      "县": 476,
      "又": 477,
      "及": 478,
      "双": 479,
      "収": 480,
      "发": 481,
      "取": 482,
      "口": 483,
      "古": 484,
      "句": 485,
      "史": 486,
      "叶": 487,
      "号": 488,
      "司": 489,
      "吁": 490,
      "吃": 491,
      "各": 492,
      "吊": 493,
      "同": 494,
      "名": 495,
      "后": 496,
      "吕": 497,
      "君": 498,
      "吧": 499,
      "吳": 500,
      "吴": 501,
      "吻": 502,
      "呈": 503,
      "呕": 504,
      "周": 505,
      "味": 506,
      "命": 507,
      "和": 508,
      "咖": 509,
      "品": 510,
      "唐": 511,
      "唤": 512,
      "售": 513,
      "商": 514,
      "啡": 515,
      "單": 516,
      "嘉": 517,
      "噐": 518,
      "因": 519,
      "国": 520,
      "國": 521,
      "土": 522,
      "在": 523,
      "地": 524,
      "场": 525,
      "垦": 526,
      "城": 527,
      "域": 528,
      "報": 529,
      "場": 530,
      "墅": 531,
      "墨": 532,
      "壶": 533,
      "复": 534,
      "夏": 535,
      "外": 536,
      "多": 537,
      "大": 538,
      "天": 539,
      "太": 540,
      "夫": 541,
      "头": 542,
      "夷": 543,
      "奄": 544,
      "奔": 545,
      "女": 546,
      "好": 547,
      "如": 548,
      "妹": 549,
      "始": 550,
      "姓": 551,
      "姜": 552,
      "姿": 553,
      "子": 554,
      "字": 555,
      "孝": 556,
      "宁": 557,
      "宇": 558,
      "安": 559,
      "宋": 560,
      "宙": 561,
      "定": 562,
      "实": 563,
      "客": 564,
      "害": 565,
      "家": 566,
      "容": 567,
      "寿": 568,
      "封": 569,
      "将": 570,
      "尉": 571,
      "小": 572,
      "尝": 573,
      "尤": 574,
      "就": 575,
      "居": 576,
      "屈": 577,
      "展": 578,
      "山": 579,
      "岭": 580,
      "岱": 581,
      "峨": 582,
      "嶓": 583,
      "嶺": 584,
      "州": 585,
      "已": 586,
      "巴": 587,
      "帝": 588,
      "带": 589,
      "常": 590,
      "平": 591,
      "年": 592,
      "幻": 593,
      "幽": 594,
      "庄": 595,
      "庞": 596,
      "度": 597,
      "庫": 598,
      "庸": 599,
      "庾": 600,
      "开": 601,
      "异": 602,
      "引": 603,
      "张": 604,
      "弩": 605,
      "当": 606,
      "彩": 607,
      "影": 608,
      "往": 609,
      "得": 610,
      "御": 611,
      "徴": 612,
      "志": 613,
      "怪": 614,
      "悅": 615,
      "情": 616,
      "想": 617,
      "意": 618,
      "慎": 619,
      "戎": 620,
      "成": 621,
      "我": 622,
      "或": 623,
      "战": 624,
      "截": 625,
      "所": 626,
      "手": 627,
      "打": 628,
      "技": 629,
      "投": 630,
      "抖": 631,
      "折": 632,
      "拉": 633,
      "拒": 634,
      "招": 635,
      "择": 636,
      "挫": 637,
      "损": 638,
      "接": 639,
      "控": 640,
      "摇": 641,
      "摧": 642,
      "摩": 643,
      "摭": 644,
      "撮": 645,
      "攻": 646,
      "政": 647,
      "救": 648,
      "敗": 649,
      "文": 650,
      "方": 651,
      "族": 652,
      "日": 653,
      "旧": 654,
      "时": 655,
      "明": 656,
      "昔": 657,
      "星": 658,
      "春": 659,
      "是": 660,
      "曰": 661,
      "書": 662,
      "最": 663,
      "月": 664,
      "有": 665,
      "服": 666,
      "朕": 667,
      "朝": 668,
      "未": 669,
      "末": 670,
      "本": 671,
      "术": 672,
      "朴": 673,
      "机": 674,
      "朽": 675,
      "杀": 676,
      "杏": 677,
      "村": 678,
      "来": 679,
      "格": 680,
      "桂": 681,
      "梅": 682,
      "梦": 683,
      "梧": 684,
      "楚": 685,
      "業": 686,
      "楷": 687,
      "榆": 688,
      "権": 689,
      "此": 690,
      "武": 691,
      "歳": 692,
      "歸": 693,
      "死": 694,
      "残": 695,
      "殺": 696,
      "毒": 697,
      "氏": 698,
      "民": 699,
      "水": 700,
      "永": 701,
      "求": 702,
      "汉": 703,
      "汝": 704,
      "沃": 705,
      "没": 706,
      "河": 707,
      "治": 708,
      "泉": 709,
      "泌": 710,
      "注": 711,
      "泮": 712,
      "泰": 713,
      "测": 714,
      "浮": 715,
      "海": 716,
      "淮": 717,
      "深": 718,
      "淳": 719,
      "渚": 720,
      "渠": 721,
      "温": 722,
      "湿": 723,
      "源": 724,
      "漢": 725,
      "潮": 726,
      "瀏": 727,
      "灭": 728,
      "灵": 729,
      "炎": 730,
      "热": 731,
      "焉": 732,
      "無": 733,
      "然": 734,
      "煉": 735,
      "熊": 736,
      "版": 737,
      "牛": 738,
      "犯": 739,
      "狄": 740,
      "猫": 741,
      "獄": 742,
      "玉": 743,
      "王": 744,
      "珠": 745,
      "理": 746,
      "璩": 747,
      "瓯": 748,
      "生": 749,
      "用": 750,
      "田": 751,
      "电": 752,
      "甸": 753,
      "町": 754,
      "留": 755,
      "略": 756,
      "癸": 757,
      "發": 758,
      "白": 759,
      "百": 760,
      "的": 761,
      "皆": 762,
      "皇": 763,
      "皋": 764,
      "皑": 765,
      "盜": 766,
      "目": 767,
      "直": 768,
      "相": 769,
      "眉": 770,
      "看": 771,
      "県": 772,
      "真": 773,
      "知": 774,
      "短": 775,
      "石": 776,
      "碓": 777,
      "確": 778,
      "神": 779,
      "票": 780,
      "离": 781,
      "禽": 782,
      "秋": 783,
      "秦": 784,
      "称": 785,
      "移": 786,
      "稀": 787,
      "稽": 788,
      "空": 789,
      "竄": 790,
      "竟": 791,
      "端": 792,
      "竹": 793,
      "笋": 794,
      "等": 795,
      "筑": 796,
      "篆": 797,
      "篇": 798,
      "粤": 799,
      "粮": 800,
      "粵": 801,
      "红": 802,
      "纣": 803,
      "约": 804,
      "纳": 805,
      "纽": 806,
      "细": 807,
      "终": 808,
      "绎": 809,
      "经": 810,
      "结": 811,
      "给": 812,
      "统": 813,
      "绩": 814,
      "绳": 815,
      "缘": 816,
      "缪": 817,
      "罗": 818,
      "罪": 819,
      "置": 820,
      "羊": 821,
      "美": 822,
      "考": 823,
      "者": 824,
      "而": 825,
      "能": 826,
      "腴": 827,
      "膏": 828,
      "自": 829,
      "至": 830,
      "與": 831,
      "舞": 832,
      "苍": 833,
      "苗": 834,
      "茨": 835,
      "菌": 836,
      "菲": 837,
      "萌": 838,
      "萬": 839,
      "落": 840,
      "葭": 841,
      "虛": 842,
      "虜": 843,
      "蚩": 844,
      "蛮": 845,
      "蜀": 846,
      "蝴": 847,
      "蝶": 848,
      "融": 849,
      "行": 850,
      "術": 851,
      "裔": 852,
      "裳": 853,
      "裸": 854,
      "西": 855,
      "覽": 856,
      "见": 857,
      "观": 858,
      "视": 859,
      "览": 860,
      "解": 861,
      "記": 862,
      "認": 863,
      "識": 864,
      "讨": 865,
      "训": 866,
      "记": 867,
      "设": 868,
      "译": 869,
      "话": 870,
      "语": 871,
      "诱": 872,
      "说": 873,
      "诸": 874,
      "谓": 875,
      "谕": 876,
      "谢": 877,
      "谥": 878,
      "谷": 879,
      "貌": 880,
      "資": 881,
      "賵": 882,
      "败": 883,
      "质": 884,
      "走": 885,
      "赵": 886,
      "越": 887,
      "趾": 888,
      "路": 889,
      "践": 890,
      "轩": 891,
      "转": 892,
      "载": 893,
      "辅": 894,
      "辈": 895,
      "辕": 896,
      "过": 897,
      "还": 898,
      "这": 899,
      "追": 900,
      "退": 901,
      "逆": 902,
      "选": 903,
      "逐": 904,
      "通": 905,
      "逢": 906,
      "逼": 907,
      "遁": 908,
      "遂": 909,
      "遇": 910,
      "過": 911,
      "道": 912,
      "遣": 913,
      "遷": 914,
      "郎": 915,
      "郡": 916,
      "部": 917,
      "都": 918,
      "配": 919,
      "酒": 920,
      "醉": 921,
      "里": 922,
      "金": 923,
      "鋸": 924,
      "鏈": 925,
      "钱": 926,
      "铁": 927,
      "链": 928,
      "锋": 929,
      "错": 930,
      "长": 931,
      "門": 932,
      "関": 933,
      "门": 934,
      "间": 935,
      "闽": 936,
      "阳": 937,
      "降": 938,
      "限": 939,
      "陽": 940,
      "際": 941,
      "隶": 942,
      "隹": 943,
      "难": 944,
      "雄": 945,
      "集": 946,
      "雒": 947,
      "雨": 948,
      "雩": 949,
      "雪": 950,
      "霍": 951,
      "露": 952,
      "靈": 953,
      "非": 954,
      "韩": 955,
      "音": 956,
      "頂": 957,
      "顶": 958,
      "预": 959,
      "频": 960,
      "風": 961,
      "食": 962,
      "馬": 963,
      "马": 964,
      "骆": 965,
      "骑": 966,
      "骚": 967,
      "高": 968,
      "鱼": 969,
      "鹿": 970,
      "麗": 971,
      "黄": 972,
      "黎": 973,
      "點": 974,
      "가": 975,
      "간": 976,
      "고": 977,
      "구": 978,
      "국": 979,
      "그": 980,
      "기": 981,
      "김": 982,
      "까": 983,
      "깐": 984,
      "날": 985,
      "내": 986,
      "냐": 987,
      "널": 988,
      "니": 989,
      "다": 990,
      "대": 991,
      "도": 992,
      "되": 993,
      "두": 994,
      "들": 995,
      "듯": 996,
      "딘": 997,
      "떠": 998,
      "라": 999,
      "락": 1000,
      "래": 1001,
      "리": 1002,
      "만": 1003,
      "말": 1004,
      "맞": 1005,
      "면": 1006,
      "바": 1007,
      "박": 1008,
      "번": 1009,
      "보": 1010,
      "본": 1011,
      "빠": 1012,
      "쁘": 1013,
      "생": 1014,
      "서": 1015,
      "시": 1016,
      "어": 1017,
      "억": 1018,
      "에": 1019,
      "연": 1020,
      "영": 1021,
      "온": 1022,
      "올": 1023,
      "왜": 1024,
      "원": 1025,
      "은": 1026,
      "음": 1027,
      "이": 1028,
      "일": 1029,
      "있": 1030,
      "자": 1031,
      "작": 1032,
      "재": 1033,
      "주": 1034,
      "지": 1035,
      "짤": 1036,
      "춰": 1037,
      "친": 1038,
      "툰": 1039,
      "한": 1040,
      "해": 1041,
      "현": 1042,
      "힘": 1043,
      "": 1044,
      "": 1045,
      "": 1046,
      "️": 1047,
      "￼": 1048,
      "�": 1049,
      "🌡": 1050,
      "🌧": 1051,
      "🌶": 1052,
      "🎟": 1053,
      "🏎": 1054,
      "🏟": 1055,
      "🐘": 1056,
      "🕵": 1057,
      "🕶": 1058,
      "🖨": 1059,
      "🗓": 1060,
      "🗺": 1061,
      "😎": 1062,
      "🛋": 1063,
      "🛍": 1064,
      "🫨": 1065,
      "##r": 1066,
      "##u": 1067,
      "##p": 1068,
      "##e": 1069,
      "##m": 1070,
      "##g": 1071,
      "##h": 1072,
      "##i": 1073,
      "##a": 1074,
      "##t": 1075,
      "##y": 1076,
      "##n": 1077,
      "##f": 1078,
      "##o": 1079,
      "##l": 1080,
      "##w": 1081,
      "##s": 1082,
      "##v": 1083,
      "##ì": 1084,
      "##ạ": 1085,
      "##ê": 1086,
      "##z": 1087,
      "##ợ": 1088,
      "##0": 1089,
      "##b": 1090,
      "##1": 1091,
      "##2": 1092,
      "##5": 1093,
      "##đ": 1094,
      "##ầ": 1095,
      "##d": 1096,
      "##k": 1097,
      "##3": 1098,
      "##j": 1099,
      "##8": 1100,
      "##ở": 1101,
      "##ậ": 1102,
      "##c": 1103,
      "##9": 1104,
      "##á": 1105,
      "##x": 1106,
      "##ị": 1107,
      "##6": 1108,
      "##ẩ": 1109,
      "##.": 1110,
      "##)": 1111,
      "##(": 1112,
      "##?": 1113,
      "##!": 1114,
      "##": 1115,
      "##": 1116,
      "##": 1117,
      "##7": 1118,
      "##ụ": 1119,
      "##ừ": 1120,
      "##ề": 1121,
      "##ấ": 1122,
      "##\"": 1123,
      "##,": 1124,
      "##ố": 1125,
      "##ú": 1126,
      "##ỉ": 1127,
      "##ả": 1128,
      "##ớ": 1129,
      "##4": 1130,
      "##ũ": 1131,
      "##ư": 1132,
      "##ơ": 1133,
      "##ý": 1134,
      "##à": 1135,
      "##q": 1136,
      "##õ": 1137,
      "##ô": 1138,
      "##ộ": 1139,
      "##í": 1140,
      "##ồ": 1141,
      "##南": 1142,
      "##方": 1143,
      "##卑": 1144,
      "##湿": 1145,
      "##ọ": 1146,
      "##夫": 1147,
      "##ệ": 1148,
      "##ứ": 1149,
      "##_": 1150,
      "##é": 1151,
      "##ă": 1152,
      "##农": 1153,
      "##氏": 1154,
      "##ễ": 1155,
      "##ù": 1156,
      "##¬": 1157,
      "##ó": 1158,
      "##'": 1159,
      "##ẹ": 1160,
      "##ル": 1161,
      "##カ": 1162,
      "##リ": 1163,
      "##ặ": 1164,
      "##ò": 1165,
      "##>": 1166,
      "##â": 1167,
      "##榆": 1168,
      "##水": 1169,
      "##注": 1170,
      "##ổ": 1171,
      "##ủ": 1172,
      "##;": 1173,
      "##ắ": 1174,
      "##=": 1175,
      "##‘": 1176,
      "##ờ": 1177,
      "##ỗ": 1178,
      "##ằ": 1179,
      "##ế": 1180,
      "##:": 1181,
      "##》": 1182,
      "##ể": 1183,
      "##蜀": 1184,
      "##王": 1185,
      "##将": 1186,
      "##兵": 1187,
      "##三": 1188,
      "##万": 1189,
      "##讨": 1190,
      "##雄": 1191,
      "##“": 1192,
      "##代": 1193,
      "##ẫ": 1194,
      "##ử": 1195,
      "##ã": 1196,
      "##ẳ": 1197,
      "##<": 1198,
      "##十": 1199,
      "##古": 1200,
      "##來": 1201,
      "##稀": 1202,
      "##}": 1203,
      "##ẻ": 1204,
      "##́": 1205,
      "##选": 1206,
      "##择": 1207,
      "##瀏": 1208,
      "##ĩ": 1209,
      "##è": 1210,
      "##ữ": 1211,
      "##ự": 1212,
      "##有": 1213,
      "##君": 1214,
      "##长": 1215,
      "##曰": 1216,
      "##本": 1217,
      "##ỏ": 1218,
      "##*": 1219,
      "##춰": 1220,
      "##서": 1221,
      "##發": 1222,
      "##殺": 1223,
      "##萬": 1224,
      "##人": 1225,
      "##淳": 1226,
      "##质": 1227,
      "##为": 1228,
      "##俗": 1229,
      "##ỡ": 1230,
      "##業": 1231,
      "##ü": 1232,
      "##吳": 1233,
      "##—": 1234,
      "##-": 1235,
      "##于": 1236,
      "##文": 1237,
      "##郎": 1238,
      "##越": 1239,
      "##列": 1240,
      "##传": 1241,
      "##皇": 1242,
      "##顶": 1243,
      "##ỹ": 1244,
      "##឴": 1245,
      "##侯": 1246,
      "##主": 1247,
      "##诸": 1248,
      "##郡": 1249,
      "##县": 1250,
      "##/": 1251,
      "##ذ": 1252,
      "##ه": 1253,
      "##”": 1254,
      "##◕": 1255,
      "##간": 1256,
      "##+": 1257,
      "##瓯": 1258,
      "##皑": 1259,
      "##戎": 1260,
      "##어": 1261,
      "##본": 1262,
      "##与": 1263,
      "##秦": 1264,
      "##分": 1265,
      "##~": 1266,
      "##趾": 1267,
      "##之": 1268,
      "##地": 1269,
      "##前": 1270,
      "##给": 1271,
      "##我": 1272,
      "##你": 1273,
      "##的": 1274,
      "##东": 1275,
      "##西": 1276,
      "##一": 1277,
      "##载": 1278,
      "##ỵ": 1279,
      "##ẽ": 1280,
      "##ỷ": 1281,
      "##何": 1282,
      "##逆": 1283,
      "##虜": 1284,
      "##侵": 1285,
      "##犯": 1286,
      "##☹": 1287,
      "##@": 1288,
      "##냐": 1289,
      "##면": 1290,
      "##ỳ": 1291,
      "##姓": 1292,
      "##诱": 1293,
      "##$": 1294,
      "##]": 1295,
      "##￼": 1296,
      "##​": 1297,
      "##里": 1298,
      "##庾": 1299,
      "##ẵ": 1300,
      "##战": 1301,
      "##^": 1302,
      "##₫": 1303,
      "##ن": 1304,
      "##ك": 1305,
      "##鹿": 1306,
      "##な": 1307,
      "##の": 1308,
      "##ñ": 1309,
      "##移": 1310,
      "##至": 1311,
      "##手": 1312,
      "##机": 1313,
      "##天": 1314,
      "##猫": 1315,
      "##助": 1316,
      "##骚": 1317,
      "##|": 1318,
      "##[": 1319,
      "##툰": 1320,
      "##退": 1321,
      "##及": 1322,
      "##太": 1323,
      "##子": 1324,
      "##逢": 1325,
      "##乡": 1326,
      "##拒": 1327,
      "##ς": 1328,
      "##번": 1329,
      "##주": 1330,
      "##不": 1331,
      "##周": 1332,
      "##通": 1333,
      "##控": 1334,
      "##壶": 1335,
      "##筑": 1336,
      "##城": 1337,
      "##裳": 1338,
      "##陽": 1339,
      "##女": 1340,
      "##眉": 1341,
      "##珠": 1342,
      "##悅": 1343,
      "##其": 1344,
      "##貌": 1345,
      "##而": 1346,
      "##獄": 1347,
      "##音": 1348,
      "##短": 1349,
      "##视": 1350,
      "##频": 1351,
      "###": 1352,
      "##╯": 1353,
      "##°": 1354,
      "##□": 1355,
      "##出": 1356,
      "##非": 1357,
      "##意": 1358,
      "##以": 1359,
      "##卒": 1360,
      "##凿": 1361,
      "##渠": 1362,
      "##粮": 1363,
      "##道": 1364,
      "##л": 1365,
      "##ь": 1366,
      "##佛": 1367,
      "##辈": 1368,
      "##定": 1369,
      "##还": 1370,
      "##能": 1371,
      "##遇": 1372,
      "##见": 1373,
      "##ب": 1374,
      "##ي": 1375,
      "##記": 1376,
      "##经": 1377,
      "##民": 1378,
      "##百": 1379,
      "##š": 1380,
      "##и": 1381,
      "##а": 1382,
      "##е": 1383,
      "##ш": 1384,
      "##制": 1385,
      "##此": 1386,
      "##链": 1387,
      "##接": 1388,
      "##い": 1389,
      "##은": 1390,
      "##自": 1391,
      "##葭": 1392,
      "##萌": 1393,
      "##彩": 1394,
      "##家": 1395,
      "##門": 1396,
      "##味": 1397,
      "##篇": 1398,
      "##雒": 1399,
      "##내": 1400,
      "##라": 1401,
      "##̀": 1402,
      "##时": 1403,
      "##候": 1404,
      "##在": 1405,
      "##村": 1406,
      "##头": 1407,
      "##追": 1408,
      "##过": 1409,
      "##露": 1410,
      "##电": 1411,
      "##影": 1412,
      "##知": 1413,
      "##識": 1414,
      "##叶": 1415,
      "##秋": 1416,
      "##奄": 1417,
      "##峨": 1418,
      "##嶓": 1419,
      "##击": 1420,
      "##鏈": 1421,
      "##语": 1422,
      "##대": 1423,
      "##’": 1424,
      "##雩": 1425,
      "##得": 1426,
      "##逼": 1427,
      "##真": 1428,
      "##难": 1429,
      "##巴": 1430,
      "##狄": 1431,
      "##🎟": 1432,
      "##帝": 1433,
      "##μ": 1434,
      "##侠": 1435,
      "##情": 1436,
      "##缘": 1437,
      "##말": 1438,
      "##에": 1439,
      "##白": 1440,
      "##山": 1441,
      "##六": 1442,
      "##九": 1443,
      "##武": 1444,
      "##阳": 1445,
      "##军": 1446,
      "##所": 1447,
      "##害": 1448,
      "##ö": 1449,
      "##▽": 1450,
      "##≦": 1451,
      "##史": 1452,
      "##吧": 1453,
      "##€": 1454,
      "##神": 1455,
      "##м": 1456,
      "##━": 1457,
      "##┻": 1458,
      "##梦": 1459,
      "##想": 1460,
      "##已": 1461,
      "##成": 1462,
      "##往": 1463,
      "##事": 1464,
      "##安": 1465,
      "##用": 1466,
      "##细": 1467,
      "##口": 1468,
      "##咖": 1469,
      "##啡": 1470,
      "##æ": 1471,
      "##朴": 1472,
      "##姜": 1473,
      "##名": 1474,
      "##寿": 1475,
      "##熊": 1476,
      "##绎": 1477,
      "##楚": 1478,
      "##蛮": 1479,
      "##`": 1480,
      "##骆": 1481,
      "##裸": 1482,
      "##国": 1483,
      "##亦": 1484,
      "##称": 1485,
      "##醉": 1486,
      "##蝴": 1487,
      "##蝶": 1488,
      "##ل": 1489,
      "##ج": 1490,
      "##م": 1491,
      "##ة": 1492,
      "##∞": 1493,
      "##【": 1494,
      "##等": 1495,
      "##行": 1496,
      "##看": 1497,
      "##取": 1498,
      "##敗": 1499,
      "##虛": 1500,
      "##志": 1501,
      "##皋": 1502,
      "##н": 1503,
      "##т": 1504,
      "##к": 1505,
      "##∫": 1506,
      "##∀": 1507,
      "##️": 1508,
      "##馬": 1509,
      "##遷": 1510,
      "##摩": 1511,
      "##生": 1512,
      "##年": 1513,
      "##金": 1514,
      "##实": 1515,
      "##高": 1516,
      "##度": 1517,
      "##ト": 1518,
      "##ナ": 1519,
      "##ム": 1520,
      "##イ": 1521,
      "##ン": 1522,
      "##ス": 1523,
      "##タ": 1524,
      "##ラ": 1525,
      "##ー": 1526,
      "##メ": 1527,
      "##甸": 1528,
      "##幽": 1529,
      "##靈": 1530,
      "##集": 1531,
      "##内": 1532,
      "##测": 1533,
      "##版": 1534,
      "##辕": 1535,
      "##빠": 1536,
      "##×": 1537,
      "##∆": 1538,
      "##\\": 1539,
      "##©": 1540,
      "##®": 1541,
      "##平": 1542,
      "##御": 1543,
      "##览": 1544,
      "##❤": 1545,
      "##ć": 1546,
      "##始": 1547,
      "##降": 1548,
      "##쁘": 1549,
      "##고": 1550,
      "##際": 1551,
      "##務": 1552,
      "##留": 1553,
      "##資": 1554,
      "##格": 1555,
      "##̃": 1556,
      "##は": 1557,
      "##よ": 1558,
      "##う": 1559,
      "##ご": 1560,
      "##ざ": 1561,
      "##ま": 1562,
      "##す": 1563,
      "##记": 1564,
      "##無": 1565,
      "##理": 1566,
      "##相": 1567,
      "##올": 1568,
      "##£": 1569,
      "##¢": 1570,
      "##¥": 1571,
      "##•": 1572,
      "##√": 1573,
      "##き": 1574,
      "##ん": 1575,
      "##ぐ": 1576,
      "##у": 1577,
      "##朝": 1578,
      "##全": 1579,
      "##書": 1580,
      "##治": 1581,
      "##弩": 1582,
      "##张": 1583,
      "##慎": 1584,
      "##五": 1585,
      "##날": 1586,
      "##두": 1587,
      "##红": 1588,
      "##、": 1589,
      "##ɛ": 1590,
      "##亏": 1591,
      "##死": 1592,
      "##尉": 1593,
      "##墨": 1594,
      "##从": 1595,
      "##石": 1596,
      "##牛": 1597,
      "##伐": 1598,
      "##美": 1599,
      "##者": 1600,
      "##구": 1601,
      "##空": 1602,
      "##ペ": 1603,
      "##レ": 1604,
      "##终": 1605,
      "##同": 1606,
      "##化": 1607,
      "##泉": 1608,
      "##徴": 1609,
      "##収": 1610,
      "##票": 1611,
      "##ᅠ": 1612,
      "##%": 1613,
      "##间": 1614,
      "##训": 1615,
      "##妹": 1616,
      "##初": 1617,
      "##頂": 1618,
      "##歸": 1619,
      "##報": 1620,
      "##佗": 1621,
      "##&": 1622,
      "##{": 1623,
      "##这": 1624,
      "##个": 1625,
      "##没": 1626,
      "##救": 1627,
      "##世": 1628,
      "##霍": 1629,
      "##沃": 1630,
      "##茨": 1631,
      "##吴": 1632,
      "##开": 1633,
      "##考": 1634,
      "##伯": 1635,
      "##庸": 1636,
      "##ǐ": 1637,
      "##🏎": 1638,
      "##外": 1639,
      "##岭": 1640,
      "##♪": 1641,
      "##入": 1642,
      "##命": 1643,
      "##折": 1644,
      "##挫": 1645,
      "##膏": 1646,
      "##腴": 1647,
      "##交": 1648,
      "##京": 1649,
      "##典": 1650,
      "##田": 1651,
      "##ع": 1652,
      "##ت": 1653,
      "##ق": 1654,
      "##د": 1655,
      "##屈": 1656,
      "##原": 1657,
      "##歳": 1658,
      "##来": 1659,
      "##ƪ": 1660,
      "##勾": 1661,
      "##践": 1662,
      "##尝": 1663,
      "##遣": 1664,
      "##使": 1665,
      "##谕": 1666,
      "##癸": 1667,
      "##双": 1668,
      "##纳": 1669,
      "##재": 1670,
      "##원": 1671,
      "##들": 1672,
      "##도": 1673,
      "##♬": 1674,
      "##일": 1675,
      "##있": 1676,
      "##碓": 1677,
      "##明": 1678,
      "##遂": 1679,
      "##亡": 1680,
      "##海": 1681,
      "##梅": 1682,
      "##然": 1683,
      "##置": 1684,
      "##话": 1685,
      "##州": 1686,
      "##域": 1687,
      "##め": 1688,
      "##て": 1689,
      "##가": 1690,
      "##姿": 1691,
      "##容": 1692,
      "##端": 1693,
      "##菌": 1694,
      "##族": 1695,
      "##发": 1696,
      "##杀": 1697,
      "##‿": 1698,
      "##住": 1699,
      "##権": 1700,
      "##观": 1701,
      "##억": 1702,
      "##이": 1703,
      "##ಠ": 1704,
      "##岱": 1705,
      "##依": 1706,
      "##绳": 1707,
      "##政": 1708,
      "##灵": 1709,
      "##ç": 1710,
      "##ы": 1711,
      "##風": 1712,
      "##深": 1713,
      "##麗": 1714,
      "##單": 1715,
      "##舞": 1716,
      "##辅": 1717,
      "##佐": 1718,
      "##引": 1719,
      "##闽": 1720,
      "##千": 1721,
      "##众": 1722,
      "##号": 1723,
      "##春": 1724,
      "##래": 1725,
      "##渚": 1726,
      "##♦": 1727,
      "##♠": 1728,
      "##♥": 1729,
      "##ä": 1730,
      "##摇": 1731,
      "##桂": 1732,
      "##리": 1733,
      "##자": 1734,
      "##た": 1735,
      "##し": 1736,
      "##笋": 1737,
      "##因": 1738,
      "##奔": 1739,
      "##竄": 1740,
      "##潮": 1741,
      "##上": 1742,
      "##粵": 1743,
      "##展": 1744,
      "##汉": 1745,
      "##ð": 1746,
      "##二": 1747,
      "##呕": 1748,
      "##译": 1749,
      "##吁": 1750,
      "##宋": 1751,
      "##雪": 1752,
      "##尤": 1753,
      "##菲": 1754,
      "##争": 1755,
      "##锋": 1756,
      "##庞": 1757,
      "##。": 1758,
      "##谓": 1759,
      "##垦": 1760,
      "##食": 1761,
      "##傳": 1762,
      "##р": 1763,
      "##解": 1764,
      "##字": 1765,
      "##好": 1766,
      "##夏": 1767,
      "##门": 1768,
      "##니": 1769,
      "##깐": 1770,
      "##黎": 1771,
      "##¿": 1772,
      "##苗": 1773,
      "##裔": 1774,
      "##兮": 1775,
      "##绩": 1776,
      "##국": 1777,
      "##朽": 1778,
      "##剑": 1779,
      "##한": 1780,
      "##キ": 1781,
      "##ホ": 1782,
      "##テ": 1783,
      "##與": 1784,
      "##庫": 1785,
      "##盜": 1786,
      "##鋸": 1787,
      "##截": 1788,
      "##余": 1789,
      "##夷": 1790,
      "##術": 1791,
      "##ุ": 1792,
      "##้": 1793,
      "##ง": 1794,
      "##เ": 1795,
      "##ต": 1796,
      "##น": 1797,
      "##昔": 1798,
      "##未": 1799,
      "##句": 1800,
      "##確": 1801,
      "##認": 1802,
      "##撮": 1803,
      "##会": 1804,
      "##宙": 1805,
      "##‌": 1806,
      "##钱": 1807,
      "##就": 1808,
      "##是": 1809,
      "##中": 1810,
      "##场": 1811,
      "##温": 1812,
      "##冲": 1813,
      "##ʖ": 1814,
      "##略": 1815,
      "##带": 1816,
      "##客": 1817,
      "##別": 1818,
      "##墅": 1819,
      "##去": 1820,
      "##ā": 1821,
      "##č": 1822,
      "##大": 1823,
      "##仪": 1824,
      "##泌": 1825,
      "##呈": 1826,
      "##八": 1827,
      "##摭": 1828,
      "##怪": 1829,
      "##ジ": 1830,
      "##ャ": 1831,
      "##ド": 1832,
      "##ゥ": 1833,
      "##ッ": 1834,
      "##《": 1835,
      "##也": 1836,
      "##谥": 1837,
      "##纣": 1838,
      "##梧": 1839,
      "##了": 1840,
      "##配": 1841,
      "##っ": 1842,
      "##く": 1843,
      "##だ": 1844,
      "##さ": 1845,
      "##约": 1846,
      "##铁": 1847,
      "##璩": 1848,
      "##品": 1849,
      "##음": 1850,
      "##까": 1851,
      "##지": 1852,
      "##만": 1853,
      "##國": 1854,
      "##河": 1855,
      "##居": 1856,
      "##什": 1857,
      "##么": 1858,
      "##历": 1859,
      "##多": 1860,
      "##统": 1861,
      "##焉": 1862,
      "##罪": 1863,
      "##书": 1864,
      "##区": 1865,
      "##庄": 1866,
      "##嘉": 1867,
      "##宁": 1868,
      "##部": 1869,
      "##异": 1870,
      "##马": 1871,
      "##错": 1872,
      "##售": 1873,
      "##ß": 1874,
      "##月": 1875,
      "##み": 1876,
      "##こ": 1877,
      "##拉": 1878,
      "##幻": 1879,
      "##术": 1880,
      "##服": 1881,
      "##落": 1882,
      "##딘": 1883,
      "##末": 1884,
      "##泮": 1885,
      "##逐": 1886,
      "##遁": 1887,
      "##走": 1888,
      "##락": 1889,
      "##해": 1890,
      "##町": 1891,
      "##丁": 1892,
      "##目": 1893,
      "##唐": 1894,
      "##場": 1895,
      "##举": 1896,
      "##攻": 1897,
      "##ng": 1898,
      "th": 1899,
      "ch": 1900,
      "nh": 1901,
      "##nh": 1902,
      "ng": 1903,
      "là": 1904,
      "kh": 1905,
      "tr": 1906,
      "có": 1907,
      "thì": 1908,
      "##ên": 1909,
      "ph": 1910,
      "gi": 1911,
      "qu": 1912,
      "##ông": 1913,
      "##ác": 1914,
      "nó": 1915,
      "##ấy": 1916,
      "mà": 1917,
      "##ôi": 1918,
      "nà": 1919,
      "##ới": 1920,
      "đi": 1921,
      "##ình": 1922,
      "##iế": 1923,
      "##ái": 1924,
      "như": 1925,
      "cũ": 1926,
      "##ay": 1927,
      "##ồi": 1928,
      "##ại": 1929,
      "##ời": 1930,
      "cũng": 1931,
      "không": 1932,
      "##iệ": 1933,
      "và": 1934,
      "##ượ": 1935,
      "##on": 1936,
      "sa": 1937,
      "##iề": 1938,
      "rồi": 1939,
      "làm": 1940,
      "##uy": 1941,
      "ko": 1942,
      "này": 1943,
      "##ải": 1944,
      "mình": 1945,
      "cho": 1946,
      "cái": 1947,
      "##ất": 1948,
      "##ần": 1949,
      "##ược": 1950,
      "##en": 1951,
      "ra": 1952,
      "được": 1953,
      "ngh": 1954,
      "gì": 1955,
      "##òn": 1956,
      "lại": 1957,
      "củ": 1958,
      "##ong": 1959,
      "còn": 1960,
      "##ằng": 1961,
      "##âu": 1962,
      "##an": 1963,
      "con": 1964,
      "tôi": 1965,
      "##ười": 1966,
      "##ch": 1967,
      "##ân": 1968,
      "##iết": 1969,
      "cả": 1970,
      "thôi": 1971,
      "của": 1972,
      "đó": 1973,
      "phải": 1974,
      "nào": 1975,
      "người": 1976,
      "mu": 1977,
      "mấy": 1978,
      "em": 1979,
      "với": 1980,
      "##ật": 1981,
      "##ết": 1982,
      "chứ": 1983,
      "##ọc": 1984,
      "##ướ": 1985,
      "thí": 1986,
      "##in": 1987,
      "xe": 1988,
      "các": 1989,
      "##ơn": 1990,
      "về": 1991,
      "##ao": 1992,
      "##ài": 1993,
      "để": 1994,
      "thấy": 1995,
      "##ưa": 1996,
      "##ang": 1997,
      "ki": 1998,
      "nhưng": 1999,
      "##iều": 2000,
      "thằng": 2001,
      "mới": 2002,
      "thế": 2003,
      "nên": 2004,
      "##ăm": 2005,
      "##ôn": 2006,
      "bác": 2007,
      "anh": 2008,
      "##ầu": 2009,
      "##àn": 2010,
      "##ện": 2011,
      "##ạn": 2012,
      "##ống": 2013,
      "##ây": 2014,
      "##..": 2015,
      "vào": 2016,
      "nhiều": 2017,
      "##ườ": 2018,
      "##ước": 2019,
      "quá": 2020,
      "##ường": 2021,
      "hơn": 2022,
      "##ận": 2023,
      "nói": 2024,
      "lu": 2025,
      "giờ": 2026,
      "to": 2027,
      "chỉ": 2028,
      "nhà": 2029,
      "##ắc": 2030,
      "##iên": 2031,
      "##ữa": 2032,
      "##úc": 2033,
      "##iền": 2034,
      "fen": 2035,
      "chuy": 2036,
      "##êu": 2037,
      "ho": 2038,
      "hay": 2039,
      "bả": 2040,
      "năm": 2041,
      "bị": 2042,
      "trong": 2043,
      "##ẫn": 2044,
      "##án": 2045,
      "##ơi": 2046,
      "thím": 2047,
      "##ai": 2048,
      "##àng": 2049,
      "đâu": 2050,
      "từ": 2051,
      "đá": 2052,
      "##ính": 2053,
      "ăn": 2054,
      "lên": 2055,
      "##ối": 2056,
      "##ươ": 2057,
      "biết": 2058,
      "##ương": 2059,
      "##ểu": 2060,
      "##ậy": 2061,
      "##ùng": 2062,
      "thu": 2063,
      "##úng": 2064,
      "##anh": 2065,
      "tiền": 2066,
      "mua": 2067,
      "##ến": 2068,
      "sao": 2069,
      "công": 2070,
      "##er": 2071,
      "##ốn": 2072,
      "chưa": 2073,
      "đầu": 2074,
      "khi": 2075,
      "vậy": 2076,
      "##ắm": 2077,
      "ông": 2078,
      "đã": 2079,
      "độ": 2080,
      "sau": 2081,
      "khác": 2082,
      "luôn": 2083,
      "học": 2084,
      "##inh": 2085,
      "vẫn": 2086,
      "nữa": 2087,
      "đến": 2088,
      "##ắn": 2089,
      "bạn": 2090,
      "##ung": 2091,
      "##am": 2092,
      "##ành": 2093,
      "##ắt": 2094,
      "##ày": 2095,
      "##ổi": 2096,
      "việ": 2097,
      "cứ": 2098,
      "##ếu": 2099,
      "lo": 2100,
      "##áng": 2101,
      "tiế": 2102,
      "##ồng": 2103,
      "tu": 2104,
      "##ăng": 2105,
      "đang": 2106,
      "chuyện": 2107,
      "ai": 2108,
      "thật": 2109,
      "chắc": 2110,
      "cu": 2111,
      "##ọn": 2112,
      "##00": 2113,
      "##ốt": 2114,
      "hết": 2115,
      "##âm": 2116,
      "##au": 2117,
      "##eo": 2118,
      "##ập": 2119,
      "gái": 2120,
      "##ột": 2121,
      "##ỏi": 2122,
      "vì": 2123,
      "##át": 2124,
      "##ực": 2125,
      "đc": 2126,
      "giá": 2127,
      "##ừa": 2128,
      "##êm": 2129,
      "đúng": 2130,
      "lắm": 2131,
      "ngày": 2132,
      "##ức": 2133,
      "lúc": 2134,
      "đị": 2135,
      "##ớt": 2136,
      "...": 2137,
      "sẽ": 2138,
      "##ầm": 2139,
      "##ục": 2140,
      "đấy": 2141,
      "##ỗi": 2142,
      "trước": 2143,
      "##ặt": 2144,
      "thể": 2145,
      "qua": 2146,
      "##ững": 2147,
      "##iện": 2148,
      "nhé": 2149,
      "##ấp": 2150,
      "##ạy": 2151,
      "những": 2152,
      "ngo": 2153,
      "##ội": 2154,
      "xem": 2155,
      "bảo": 2156,
      "nếu": 2157,
      "tự": 2158,
      "một": 2159,
      "hàng": 2160,
      "trên": 2161,
      "đây": 2162,
      "việc": 2163,
      "hi": 2164,
      "do": 2165,
      "xong": 2166,
      "chơi": 2167,
      "muốn": 2168,
      "lấy": 2169,
      "##ốc": 2170,
      "đọc": 2171,
      "vợ": 2172,
      "đề": 2173,
      "toàn": 2174,
      "cảm": 2175,
      "lần": 2176,
      "##ặc": 2177,
      "##iệm": 2178,
      "tư": 2179,
      "định": 2180,
      "nhất": 2181,
      "##éo": 2182,
      "chả": 2183,
      "##ar": 2184,
      "kiểu": 2185,
      "##ển": 2186,
      "nhau": 2187,
      "cơ": 2188,
      "viết": 2189,
      "nghĩ": 2190,
      "co": 2191,
      "bên": 2192,
      "##ìn": 2193,
      "##áo": 2194,
      "bọn": 2195,
      "##òng": 2196,
      "yêu": 2197,
      "mẹ": 2198,
      "thớt": 2199,
      "tâm": 2200,
      "quan": 2201,
      "má": 2202,
      "chi": 2203,
      "số": 2204,
      "kho": 2205,
      "theo": 2206,
      "nhìn": 2207,
      "nước": 2208,
      "##ọi": 2209,
      "##ản": 2210,
      "bán": 2211,
      "chạy": 2212,
      "vo": 2213,
      "cao": 2214,
      "thích": 2215,
      "ấy": 2216,
      "##ãi": 2217,
      "đứ": 2218,
      "##ểm": 2219,
      "cần": 2220,
      "##út": 2221,
      "tính": 2222,
      "hắn": 2223,
      "ti": 2224,
      "thời": 2225,
      "vừa": 2226,
      "bản": 2227,
      "chính": 2228,
      "nhỉ": 2229,
      "##ấu": 2230,
      "##ấn": 2231,
      "khó": 2232,
      "##ăn": 2233,
      "bao": 2234,
      "thêm": 2235,
      "thành": 2236,
      "tháng": 2237,
      "dùng": 2238,
      "nghe": 2239,
      "tí": 2240,
      "sự": 2241,
      "tình": 2242,
      "##tr": 2243,
      "xu": 2244,
      "ta": 2245,
      "##ởng": 2246,
      "##ộc": 2247,
      "##ửa": 2248,
      "tới": 2249,
      "tin": 2250,
      "20": 2251,
      "kiế": 2252,
      "nhận": 2253,
      "##ịch": 2254,
      "##ạo": 2255,
      "##le": 2256,
      "##ừng": 2257,
      "đồng": 2258,
      "lý": 2259,
      "gh": 2260,
      "tay": 2261,
      "hỏi": 2262,
      "voz": 2263,
      "bằng": 2264,
      "cách": 2265,
      "đời": 2266,
      "hình": 2267,
      "hiểu": 2268,
      "bỏ": 2269,
      "##ạnh": 2270,
      "nhân": 2271,
      "##ẹp": 2272,
      "chỗ": 2273,
      "ngoài": 2274,
      "chị": 2275,
      "đường": 2276,
      "##ánh": 2277,
      "mất": 2278,
      "mặt": 2279,
      "hợ": 2280,
      "kia": 2281,
      "##ck": 2282,
      "##ôm": 2283,
      "##ửi": 2284,
      "sống": 2285,
      "##ưới": 2286,
      "##ẳng": 2287,
      "##óng": 2288,
      "hợp": 2289,
      "thường": 2290,
      "tốt": 2291,
      "##ặp": 2292,
      "##es": 2293,
      "chủ": 2294,
      "chu": 2295,
      "##at": 2296,
      "##ọng": 2297,
      "tầm": 2298,
      "cùng": 2299,
      "vi": 2300,
      "mỗi": 2301,
      "máy": 2302,
      "quy": 2303,
      "xin": 2304,
      "##im": 2305,
      "bu": 2306,
      "trường": 2307,
      "##iệu": 2308,
      "##ền": 2309,
      "đẹp": 2310,
      "nhật": 2311,
      "so": 2312,
      "vô": 2313,
      "họ": 2314,
      "dc": 2315,
      "ít": 2316,
      "vn": 2317,
      "rất": 2318,
      "lớ": 2319,
      "##ạc": 2320,
      "nhớ": 2321,
      "nay": 2322,
      "10": 2323,
      "sinh": 2324,
      "chung": 2325,
      "ngu": 2326,
      "tiếp": 2327,
      "##al": 2328,
      "bình": 2329,
      "đủ": 2330,
      "##ìm": 2331,
      "ngon": 2332,
      "đứa": 2333,
      "hôm": 2334,
      "##ồn": 2335,
      "gần": 2336,
      "kinh": 2337,
      "gia": 2338,
      "sai": 2339,
      "##ạt": 2340,
      "lâu": 2341,
      "dân": 2342,
      "gặp": 2343,
      "sang": 2344,
      "sh": 2345,
      "bài": 2346,
      "thân": 2347,
      "##ạng": 2348,
      "tìm": 2349,
      "dự": 2350,
      "##or": 2351,
      "##iệp": 2352,
      "hoặc": 2353,
      "##ẩn": 2354,
      "bắt": 2355,
      "động": 2356,
      "##ám": 2357,
      "##ầy": 2358,
      "dễ": 2359,
      "điểm": 2360,
      "cuối": 2361,
      "câu": 2362,
      "##ách": 2363,
      "##ét": 2364,
      "tho": 2365,
      "##ắng": 2366,
      "##ụng": 2367,
      "gọi": 2368,
      "##iệt": 2369,
      "##ảng": 2370,
      "vl": 2371,
      "thứ": 2372,
      "vụ": 2373,
      "đéo": 2374,
      "bà": 2375,
      "##ượng": 2376,
      "##ạch": 2377,
      "thay": 2378,
      "quen": 2379,
      "đo": 2380,
      "vấn": 2381,
      "báo": 2382,
      "##el": 2383,
      "##ều": 2384,
      "hơi": 2385,
      "vài": 2386,
      "phát": 2387,
      "già": 2388,
      "lương": 2389,
      "bi": 2390,
      "truy": 2391,
      "bộ": 2392,
      "hồi": 2393,
      "tuổi": 2394,
      "tại": 2395,
      "##ắp": 2396,
      "su": 2397,
      "##ty": 2398,
      "giả": 2399,
      "quên": 2400,
      "##ro": 2401,
      "100": 2402,
      "##èo": 2403,
      "tiếng": 2404,
      "hiện": 2405,
      "ngồi": 2406,
      "thông": 2407,
      "trả": 2408,
      "kể": 2409,
      "chết": 2410,
      "##as": 2411,
      "kiếm": 2412,
      "##uyên": 2413,
      "ơi": 2414,
      "chịu": 2415,
      "phí": 2416,
      "an": 2417,
      "điện": 2418,
      "đánh": 2419,
      "##iêu": 2420,
      "nghiệp": 2421,
      "thủ": 2422,
      "đều": 2423,
      "##ướng": 2424,
      "loại": 2425,
      "##et": 2426,
      "tài": 2427,
      "sợ": 2428,
      "tập": 2429,
      "vu": 2430,
      "##ấm": 2431,
      "tuần": 2432,
      "phần": 2433,
      "cấp": 2434,
      "thực": 2435,
      "##ảnh": 2436,
      "mù": 2437,
      "điều": 2438,
      "##ặng": 2439,
      "ngay": 2440,
      "đất": 2441,
      "uống": 2442,
      "giải": 2443,
      "giống": 2444,
      "chồng": 2445,
      "càng": 2446,
      "đồ": 2447,
      "lư": 2448,
      "nghiệm": 2449,
      "đổi": 2450,
      "thi": 2451,
      "##ce": 2452,
      "ty": 2453,
      "##ợi": 2454,
      "cầu": 2455,
      "trung": 2456,
      "##ậu": 2457,
      "##iếu": 2458,
      "##òi": 2459,
      "##óc": 2460,
      "gian": 2461,
      "đừng": 2462,
      "##lo": 2463,
      "chửi": 2464,
      "đối": 2465,
      "bố": 2466,
      "##iến": 2467,
      "re": 2468,
      "cm": 2469,
      "năng": 2470,
      "liên": 2471,
      "ảnh": 2472,
      "cố": 2473,
      "đại": 2474,
      "nội": 2475,
      "quả": 2476,
      "sáng": 2477,
      "thử": 2478,
      "viên": 2479,
      "lớn": 2480,
      "cưới": 2481,
      "trẻ": 2482,
      "##ad": 2483,
      "khá": 2484,
      "##ào": 2485,
      "tên": 2486,
      "##ưởng": 2487,
      "chuyển": 2488,
      "tưởng": 2489,
      "trọng": 2490,
      "cty": 2491,
      "mày": 2492,
      "nhanh": 2493,
      "ổn": 2494,
      "##te": 2495,
      "nhỏ": 2496,
      "nhiên": 2497,
      "##ép": 2498,
      "hành": 2499,
      "rảnh": 2500,
      "chân": 2501,
      "##re": 2502,
      "phim": 2503,
      "##ạm": 2504,
      "chẳng": 2505,
      "tuy": 2506,
      "vị": 2507,
      "văn": 2508,
      "éo": 2509,
      "coi": 2510,
      "đội": 2511,
      "cá": 2512,
      "##ệnh": 2513,
      "thị": 2514,
      "thức": 2515,
      "trai": 2516,
      "tụ": 2517,
      "dịch": 2518,
      "##ệt": 2519,
      "hội": 2520,
      "##oo": 2521,
      "đáng": 2522,
      "xưa": 2523,
      "##pp": 2524,
      "nam": 2525,
      "cảnh": 2526,
      "dụng": 2527,
      "mắt": 2528,
      "hoàn": 2529,
      "di": 2530,
      "phòng": 2531,
      "kết": 2532,
      "mở": 2533,
      "phá": 2534,
      "kí": 2535,
      "chán": 2536,
      "ok": 2537,
      "yếu": 2538,
      "truyện": 2539,
      "##óa": 2540,
      "dù": 2541,
      "##ớm": 2542,
      "nổi": 2543,
      "in": 2544,
      "##to": 2545,
      "##ít": 2546,
      "vui": 2547,
      "chia": 2548,
      "mạnh": 2549,
      "##ic": 2550,
      "##em": 2551,
      "tế": 2552,
      "xuống": 2553,
      "hộ": 2554,
      "chó": 2555,
      "bóng": 2556,
      "##ém": 2557,
      "ma": 2558,
      "đơn": 2559,
      "xa": 2560,
      "nghỉ": 2561,
      "chúng": 2562,
      "##úp": 2563,
      "mọi": 2564,
      "chuẩn": 2565,
      "trận": 2566,
      "##ưng": 2567,
      "việt": 2568,
      "##st": 2569,
      "đưa": 2570,
      "##ễn": 2571,
      "##ỉnh": 2572,
      "xúc": 2573,
      "li": 2574,
      "tối": 2575,
      "nha": 2576,
      "thanh": 2577,
      "tiêu": 2578,
      "##ll": 2579,
      "đình": 2580,
      "chất": 2581,
      "##0k": 2582,
      "tiên": 2583,
      "chục": 2584,
      "##ão": 2585,
      "hả": 2586,
      "xấu": 2587,
      "bé": 2588,
      "khách": 2589,
      "ca": 2590,
      "##ợt": 2591,
      "chá": 2592,
      "niệm": 2593,
      "##ếp": 2594,
      "lời": 2595,
      "tổ": 2596,
      "vs": 2597,
      "vc": 2598,
      "chọn": 2599,
      "thương": 2600,
      "bệnh": 2601,
      "##ộng": 2602,
      "rẻ": 2603,
      "##ing": 2604,
      "nu": 2605,
      "tụi": 2606,
      "xài": 2607,
      "bàn": 2608,
      "trình": 2609,
      "ngủ": 2610,
      "xác": 2611,
      "##it": 2612,
      "nhiêu": 2613,
      "ri": 2614,
      "nhập": 2615,
      "hã": 2616,
      "sho": 2617,
      "hệ": 2618,
      "lan": 2619,
      "đặt": 2620,
      "đóng": 2621,
      "##êng": 2622,
      "thua": 2623,
      "lừa": 2624,
      "cl": 2625,
      "tà": 2626,
      "lưu": 2627,
      "lực": 2628,
      "##ra": 2629,
      "đòi": 2630,
      "cuộc": 2631,
      "dẫn": 2632,
      "##ứng": 2633,
      "đợt": 2634,
      "giảm": 2635,
      "giao": 2636,
      "ba": 2637,
      "thuộc": 2638,
      "cô": 2639,
      "30": 2640,
      "tao": 2641,
      "##ou": 2642,
      "sức": 2643,
      "mai": 2644,
      "thẻ": 2645,
      "chứng": 2646,
      "giới": 2647,
      "kêu": 2648,
      "đàn": 2649,
      "phụ": 2650,
      "mang": 2651,
      "vãi": 2652,
      "sớm": 2653,
      "từng": 2654,
      "tăng": 2655,
      "bây": 2656,
      "201": 2657,
      "khổ": 2658,
      "đỡ": 2659,
      "tiếc": 2660,
      "##ậm": 2661,
      "lỗi": 2662,
      "rõ": 2663,
      "cmn": 2664,
      "may": 2665,
      "ban": 2666,
      "tù": 2667,
      "chương": 2668,
      "quay": 2669,
      "bay": 2670,
      "đông": 2671,
      "vẻ": 2672,
      "giác": 2673,
      "chí": 2674,
      "vozer": 2675,
      "##ta": 2676,
      "##óm": 2677,
      "12": 2678,
      "cụ": 2679,
      "dài": 2680,
      "lượng": 2681,
      "tác": 2682,
      "sản": 2683,
      "kiến": 2684,
      "nữ": 2685,
      "cực": 2686,
      "dám": 2687,
      "thuê": 2688,
      "cha": 2689,
      "kỉ": 2690,
      "đu": 2691,
      "thần": 2692,
      "tất": 2693,
      "dưới": 2694,
      "vật": 2695,
      "nguyên": 2696,
      "tui": 2697,
      "phép": 2698,
      "##ẳn": 2699,
      "15": 2700,
      "tàu": 2701,
      "thái": 2702,
      "hn": 2703,
      "##ẩm": 2704,
      "gửi": 2705,
      "tạo": 2706,
      "bất": 2707,
      "khu": 2708,
      "hẳn": 2709,
      "trang": 2710,
      "chút": 2711,
      "tinh": 2712,
      "##èn": 2713,
      "quốc": 2714,
      "cửa": 2715,
      "quyết": 2716,
      "ae": 2717,
      "mặc": 2718,
      "riêng": 2719,
      "cháu": 2720,
      "nhẹ": 2721,
      "ngoại": 2722,
      "hai": 2723,
      "khả": 2724,
      "thuốc": 2725,
      "mùa": 2726,
      "##ent": 2727,
      "mo": 2728,
      "##ke": 2729,
      "trời": 2730,
      "##ằm": 2731,
      "đám": 2732,
      "giàu": 2733,
      "lợi": 2734,
      "nghĩa": 2735,
      "chê": 2736,
      "hà": 2737,
      "##ượt": 2738,
      "quê": 2739,
      "##id": 2740,
      "##ag": 2741,
      "chiều": 2742,
      "toán": 2743,
      "mỹ": 2744,
      "phân": 2745,
      "kì": 2746,
      "thiếu": 2747,
      "mức": 2748,
      "tử": 2749,
      "đau": 2750,
      "##ee": 2751,
      "dạy": 2752,
      "##ồm": 2753,
      "##ạp": 2754,
      "đa": 2755,
      "dư": 2756,
      "minh": 2757,
      "phương": 2758,
      "hồ": 2759,
      "chờ": 2760,
      "trí": 2761,
      "tỷ": 2762,
      "đầy": 2763,
      "buồn": 2764,
      "đăng": 2765,
      "ny": 2766,
      "tranh": 2767,
      "xuất": 2768,
      "thấp": 2769,
      "hạn": 2770,
      "giỏi": 2771,
      "trừ": 2772,
      "hóa": 2773,
      "##úi": 2774,
      "##ip": 2775,
      "200": 2776,
      "ha": 2777,
      "đổ": 2778,
      "no": 2779,
      "cổ": 2780,
      "sg": 2781,
      "duy": 2782,
      "tặng": 2783,
      "lớp": 2784,
      "kiện": 2785,
      "giúp": 2786,
      "tiết": 2787,
      "nợ": 2788,
      "gó": 2789,
      "##ảy": 2790,
      "du": 2791,
      "mãi": 2792,
      "sách": 2793,
      "nhờ": 2794,
      "triệu": 2795,
      ".....": 2796,
      "bánh": 2797,
      "mạng": 2798,
      "biệt": 2799,
      "lập": 2800,
      "chú": 2801,
      "chấp": 2802,
      "##èm": 2803,
      "quyền": 2804,
      "đoạn": 2805,
      "bận": 2806,
      "nuôi": 2807,
      "po": 2808,
      "cây": 2809,
      "đen": 2810,
      "tương": 2811,
      "##ame": 2812,
      "tích": 2813,
      "khỏi": 2814,
      "trị": 2815,
      "top": 2816,
      "##ti": 2817,
      "giữ": 2818,
      "xây": 2819,
      "tây": 2820,
      "đạo": 2821,
      "mi": 2822,
      "xã": 2823,
      "quán": 2824,
      "lin": 2825,
      "trải": 2826,
      "tội": 2827,
      "đêm": 2828,
      "chế": 2829,
      "lí": 2830,
      "đôi": 2831,
      "huy": 2832,
      "lịch": 2833,
      "lạ": 2834,
      "vay": 2835,
      "suy": 2836,
      "ly": 2837,
      "hiệu": 2838,
      "thiết": 2839,
      "##ọt": 2840,
      "cắt": 2841,
      "thầy": 2842,
      "##ón": 2843,
      "môn": 2844,
      "gà": 2845,
      "kế": 2846,
      "sắp": 2847,
      "sân": 2848,
      "chuyên": 2849,
      "luật": 2850,
      "tri": 2851,
      "de": 2852,
      "vệ": 2853,
      "giữa": 2854,
      "mệt": 2855,
      "nằm": 2856,
      "##la": 2857,
      "pháp": 2858,
      "giấy": 2859,
      "nặng": 2860,
      "##ẩu": 2861,
      "cuốn": 2862,
      "đứng": 2863,
      "khoảng": 2864,
      "lòng": 2865,
      "vàng": 2866,
      "app": 2867,
      "cư": 2868,
      "ghi": 2869,
      "..": 2870,
      "##cc": 2871,
      "bo": 2872,
      "fb": 2873,
      "ni": 2874,
      "hu": 2875,
      "mồm": 2876,
      "sửa": 2877,
      "da": 2878,
      "##....": 2879,
      "##ẩy": 2880,
      "lái": 2881,
      "##ặn": 2882,
      "sử": 2883,
      "doanh": 2884,
      "bữa": 2885,
      "sĩ": 2886,
      "đón": 2887,
      "##ựa": 2888,
      "fence": 2889,
      "lol": 2890,
      "cầm": 2891,
      "lẽ": 2892,
      "si": 2893,
      "##ùi": 2894,
      "mã": 2895,
      "##est": 2896,
      "tốn": 2897,
      "shop": 2898,
      "sếp": 2899,
      "cười": 2900,
      "giáo": 2901,
      "sale": 2902,
      "50": 2903,
      "up": 2904,
      "te": 2905,
      "đẻ": 2906,
      "đức": 2907,
      "))": 2908,
      "##ởi": 2909,
      "biến": 2910,
      "thẳng": 2911,
      "ngân": 2912,
      "đả": 2913,
      "hoa": 2914,
      "ơn": 2915,
      "ví": 2916,
      "áo": 2917,
      "la": 2918,
      "ghê": 2919,
      "che": 2920,
      "##ộn": 2921,
      "quanh": 2922,
      "ro": 2923,
      "##ine": 2924,
      ").": 2925,
      "trái": 2926,
      "##ew": 2927,
      "##ụp": 2928,
      "linh": 2929,
      "##us": 2930,
      "%.": 2931,
      "màu": 2932,
      "diễn": 2933,
      "địa": 2934,
      "hưởng": 2935,
      "hãng": 2936,
      "##th": 2937,
      "kém": 2938,
      "gra": 2939,
      "##ứt": 2940,
      "tiện": 2941,
      "##ate": 2942,
      "xưng": 2943,
      "áp": 2944,
      "tổng": 2945,
      "vcl": 2946,
      "rỗi": 2947,
      "tận": 2948,
      "hướng": 2949,
      "##ỏng": 2950,
      "cứu": 2951,
      "tượng": 2952,
      "cam": 2953,
      "liệu": 2954,
      "le": 2955,
      "mắc": 2956,
      "tham": 2957,
      "sp": 2958,
      "tục": 2959,
      "cơm": 2960,
      "##km": 2961,
      "lão": 2962,
      "thuy": 2963,
      "nhắn": 2964,
      "hóng": 2965,
      "ký": 2966,
      "link": 2967,
      "hàn": 2968,
      "tỉnh": 2969,
      "đem": 2970,
      "máu": 2971,
      "##vi": 2972,
      "vòng": 2973,
      "phục": 2974,
      "nguy": 2975,
      "tra": 2976,
      "##der": 2977,
      "dòng": 2978,
      "méo": 2979,
      "nghề": 2980,
      "com": 2981,
      "nửa": 2982,
      "##ve": 2983,
      "xinh": 2984,
      "đặc": 2985,
      "lệ": 2986,
      "dụ": 2987,
      "xử": 2988,
      "##ùa": 2989,
      "nơi": 2990,
      "ngành": 2991,
      "tín": 2992,
      "game": 2993,
      "##un": 2994,
      "##âng": 2995,
      "đỏ": 2996,
      "thất": 2997,
      "bạc": 2998,
      "kiểm": 2999,
      "niên": 3000,
      "sướng": 3001,
      "##ank": 3002,
      "on": 3003,
      "khoản": 3004,
      "##do": 3005,
      "kê": 3006,
      "##ẹn": 3007,
      "grab": 3008,
      "nghèo": 3009,
      "biển": 3010,
      "châu": 3011,
      "##lock": 3012,
      "tai": 3013,
      "nhu": 3014,
      "hoàng": 3015,
      "thiên": 3016,
      "thắng": 3017,
      "##òa": 3018,
      "dây": 3019,
      "nhạc": 3020,
      "dính": 3021,
      "lãi": 3022,
      "you": 3023,
      "thoại": 3024,
      "##one": 3025,
      "âm": 3026,
      "fan": 3027,
      "vk": 3028,
      "phong": 3029,
      "##ơm": 3030,
      "tùy": 3031,
      "kéo": 3032,
      "##ịn": 3033,
      "hạ": 3034,
      "món": 3035,
      "khí": 3036,
      "mùi": 3037,
      "fa": 3038,
      "án": 3039,
      "202": 3040,
      "chữ": 3041,
      "hiểm": 3042,
      "se": 3043,
      "##il": 3044,
      "kỹ": 3045,
      "ngang": 3046,
      "##ff": 3047,
      "##ub": 3048,
      "gió": 3049,
      "??": 3050,
      "chụp": 3051,
      "cục": 3052,
      "lạnh": 3053,
      "nt": 3054,
      "thả": 3055,
      "chở": 3056,
      "nóng": 3057,
      "giản": 3058,
      "##ĩnh": 3059,
      "tốc": 3060,
      "11": 3061,
      "tết": 3062,
      "ứng": 3063,
      "fu": 3064,
      "##me": 3065,
      "kỳ": 3066,
      "khám": 3067,
      "lao": 3068,
      "phố": 3069,
      "sim": 3070,
      "căn": 3071,
      "mái": 3072,
      "hôn": 3073,
      "sát": 3074,
      "suốt": 3075,
      "block": 3076,
      "dạng": 3077,
      "##ess": 3078,
      "bật": 3079,
      "mong": 3080,
      "##ịp": 3081,
      "sơ": 3082,
      "##bo": 3083,
      "hứng": 3084,
      "danh": 3085,
      "lạc": 3086,
      "thống": 3087,
      "rút": 3088,
      "thuật": 3089,
      "thuyết": 3090,
      "tỉ": 3091,
      "thịt": 3092,
      "##ri": 3093,
      "yên": 3094,
      "mũ": 3095,
      "xo": 3096,
      "##ẵn": 3097,
      "phản": 3098,
      "),": 3099,
      "trắng": 3100,
      "##ph": 3101,
      "##li": 3102,
      "##de": 3103,
      "trợ": 3104,
      "triển": 3105,
      "tiến": 3106,
      "tuyển": 3107,
      "##00k": 3108,
      "hậu": 3109,
      "ah": 3110,
      "nghi": 3111,
      "....": 3112,
      "luận": 3113,
      "đợi": 3114,
      "cờ": 3115,
      "vốn": 3116,
      "quân": 3117,
      "lũ": 3118,
      "siêu": 3119,
      "##ỡng": 3120,
      "viện": 3121,
      "trở": 3122,
      "hút": 3123,
      "##iếm": 3124,
      "cạnh": 3125,
      "##ter": 3126,
      "răng": 3127,
      "khoa": 3128,
      "bớt": 3129,
      "nhảy": 3130,
      "vin": 3131,
      "cay": 3132,
      "dạo": 3133,
      "nọ": 3134,
      "trò": 3135,
      "pha": 3136,
      "tờ": 3137,
      "quản": 3138,
      "truyền": 3139,
      "sạch": 3140,
      "vọng": 3141,
      "xí": 3142,
      "nghệ": 3143,
      "quần": 3144,
      "xăng": 3145,
      "##én": 3146,
      "##ẹt": 3147,
      "làng": 3148,
      "kèo": 3149,
      "trăm": 3150,
      "sẵn": 3151,
      "chai": 3152,
      "##ver": 3153,
      "##ẽo": 3154,
      "lai": 3155,
      "chiến": 3156,
      "khỏ": 3157,
      "##um": 3158,
      "##iềm": 3159,
      "đấu": 3160,
      "đh": 3161,
      "##ứa": 3162,
      "ảo": 3163,
      "mê": 3164,
      "##ss": 3165,
      "đâm": 3166,
      "fre": 3167,
      "thuế": 3168,
      "cân": 3169,
      "bò": 3170,
      "khỏe": 3171,
      "bú": 3172,
      "##áy": 3173,
      "mời": 3174,
      "phi": 3175,
      "hẹn": 3176,
      "trc": 3177,
      "phết": 3178,
      "##ard": 3179,
      "kìa": 3180,
      "ghét": 3181,
      "##0km": 3182,
      "đm": 3183,
      "##co": 3184,
      "mưa": 3185,
      "lành": 3186,
      "thoải": 3187,
      "mối": 3188,
      "sư": 3189,
      "bh": 3190,
      "não": 3191,
      "ức": 3192,
      "rượ": 3193,
      "chăm": 3194,
      "thèm": 3195,
      "ấn": 3196,
      "cc": 3197,
      "phúc": 3198,
      "it": 3199,
      "vũ": 3200,
      "pro": 3201,
      "said": 3202,
      "25": 3203,
      "##ẫu": 3204,
      "cộng": 3205,
      "tức": 3206,
      "gấp": 3207,
      "dầu": 3208,
      "cấm": 3209,
      "cỡ": 3210,
      "vận": 3211,
      "thú": 3212,
      "##ym": 3213,
      "be": 3214,
      "hoạt": 3215,
      "dần": 3216,
      "xanh": 3217,
      "40": 3218,
      "##ót": 3219,
      "##up": 3220,
      "##ùn": 3221,
      "quảng": 3222,
      "kích": 3223,
      "tán": 3224,
      "gây": 3225,
      "đắt": 3226,
      "##line": 3227,
      "dục": 3228,
      "ngược": 3229,
      "đít": 3230,
      "phê": 3231,
      "trưởng": 3232,
      "hài": 3233,
      "nhậu": 3234,
      "##da": 3235,
      "phạm": 3236,
      "phẩm": 3237,
      "nhắc": 3238,
      "nick": 3239,
      "cáo": 3240,
      "nhầm": 3241,
      "xét": 3242,
      "##se": 3243,
      "khai": 3244,
      "au": 3245,
      "check": 3246,
      "##ủng": 3247,
      "chức": 3248,
      "man": 3249,
      "góp": 3250,
      "chắn": 3251,
      "ôm": 3252,
      "##cm": 3253,
      "phen": 3254,
      "##ướt": 3255,
      "hạng": 3256,
      "we": 3257,
      "bê": 3258,
      "trực": 3259,
      "tạm": 3260,
      "sẻ": 3261,
      "18": 3262,
      "trúng": 3263,
      "bắc": 3264,
      "sơn": 3265,
      "##ủi": 3266,
      "diện": 3267,
      "sở": 3268,
      "buổi": 3269,
      "mục": 3270,
      "vid": 3271,
      "đấm": 3272,
      "st": 3273,
      "bè": 3274,
      "dựng": 3275,
      "kệ": 3276,
      "trách": 3277,
      "gốc": 3278,
      "nè": 3279,
      "đỉnh": 3280,
      "tô": 3281,
      "độc": 3282,
      "dậy": 3283,
      "sánh": 3284,
      "suất": 3285,
      "thừa": 3286,
      "##ak": 3287,
      "chém": 3288,
      "ck": 3289,
      "tỏ": 3290,
      "win": 3291,
      "ngại": 3292,
      "đoán": 3293,
      "ổng": 3294,
      "tránh": 3295,
      "êm": 3296,
      "cmnr": 3297,
      "hòa": 3298,
      "go": 3299,
      "hoá": 3300,
      "lắp": 3301,
      "nhóm": 3302,
      "rác": 3303,
      "simp": 3304,
      "đẩy": 3305,
      "mề": 3306,
      "đà": 3307,
      "cr": 3308,
      "##ụt": 3309,
      "dâm": 3310,
      "mũi": 3311,
      "xóa": 3312,
      "nhiệt": 3313,
      "ntn": 3314,
      "lỗ": 3315,
      "bank": 3316,
      "##ẹo": 3317,
      "bt": 3318,
      "tắt": 3319,
      "đèn": 3320,
      "##fe": 3321,
      "rượu": 3322,
      "video": 3323,
      "for": 3324,
      "cà": 3325,
      "he": 3326,
      "trông": 3327,
      "sm": 3328,
      "đế": 3329,
      "cãi": 3330,
      "post": 3331,
      "bó": 3332,
      "khẩu": 3333,
      "##ct": 3334,
      "ga": 3335,
      "ủng": 3336,
      "##ợn": 3337,
      "nguồn": 3338,
      "chống": 3339,
      "kĩ": 3340,
      "dở": 3341,
      "dưỡng": 3342,
      "hại": 3343,
      "dắt": 3344,
      "lướt": 3345,
      "vkl": 3346,
      "ru": 3347,
      "ưu": 3348,
      "##ượn": 3349,
      "hy": 3350,
      "nổ": 3351,
      "nâng": 3352,
      "tôn": 3353,
      "ham": 3354,
      "full": 3355,
      "miền": 3356,
      "nát": 3357,
      "chúc": 3358,
      "nạn": 3359,
      "team": 3360,
      "hải": 3361,
      "viet": 3362,
      "fi": 3363,
      "mạch": 3364,
      "đạp": 3365,
      "##ut": 3366,
      "##ích": 3367,
      "##ah": 3368,
      "tỏi": 3369,
      "loạn": 3370,
      "rộng": 3371,
      "##ki": 3372,
      "thậm": 3373,
      "???": 3374,
      "âu": 3375,
      "cày": 3376,
      "cận": 3377,
      "##ộm": 3378,
      "bốc": 3379,
      "chảy": 3380,
      "chap": 3381,
      "shopee": 3382,
      "hát": 3383,
      "tải": 3384,
      "##iếc": 3385,
      "tiệm": 3386,
      "cú": 3387,
      "vé": 3388,
      "##ầng": 3389,
      "thợ": 3390,
      "khôn": 3391,
      "đào": 3392,
      "##ass": 3393,
      "chiếu": 3394,
      "2k": 3395,
      "bổ": 3396,
      "##lv": 3397,
      "pin": 3398,
      "đập": 3399,
      "sổ": 3400,
      "im": 3401,
      "khuyên": 3402,
      "##ook": 3403,
      "sâu": 3404,
      "bước": 3405,
      "màn": 3406,
      "lộ": 3407,
      "chậm": 3408,
      "nhớt": 3409,
      "môi": 3410,
      "mẽo": 3411,
      "đảo": 3412,
      "tầng": 3413,
      "dung": 3414,
      "##ịt": 3415,
      "rằng": 3416,
      "trọ": 3417,
      "##sh": 3418,
      "can": 3419,
      "mẫu": 3420,
      "đeo": 3421,
      "phạt": 3422,
      "sút": 3423,
      "lã": 3424,
      "đô": 3425,
      "giọng": 3426,
      "vượt": 3427,
      "##))": 3428,
      "trốn": 3429,
      "tq": 3430,
      "clip": 3431,
      "vùng": 3432,
      "hư": 3433,
      "ad": 3434,
      "##ment": 3435,
      "online": 3436,
      "liền": 3437,
      "##ii": 3438,
      "gói": 3439,
      "cmt": 3440,
      "ab": 3441,
      "phút": 3442,
      "##are": 3443,
      "lông": 3444,
      "ngta": 3445,
      "mơ": 3446,
      "gắng": 3447,
      "nấu": 3448,
      "##pe": 3449,
      "dành": 3450,
      "tóc": 3451,
      "long": 3452,
      "##ỡi": 3453,
      "trâu": 3454,
      "dm": 3455,
      "rửa": 3456,
      "hạnh": 3457,
      "thao": 3458,
      "khoe": 3459,
      "tố": 3460,
      "khóc": 3461,
      "đống": 3462,
      "##ail": 3463,
      "@@": 3464,
      "kịp": 3465,
      "thank": 3466,
      "kính": 3467,
      "##ner": 3468,
      "nhi": 3469,
      "khứ": 3470,
      "khăn": 3471,
      "vịt": 3472,
      "nốt": 3473,
      "thiện": 3474,
      "##ịa": 3475,
      "hộp": 3476,
      "or": 3477,
      "óc": 3478,
      "căng": 3479,
      "##ort": 3480,
      "hồng": 3481,
      "cứng": 3482,
      "phía": 3483,
      "dị": 3484,
      "nộ": 3485,
      "##ãy": 3486,
      "##ark": 3487,
      "cắm": 3488,
      "##ãn": 3489,
      "đt": 3490,
      "ép": 3491,
      "quà": 3492,
      "ar": 3493,
      "tý": 3494,
      "##ser": 3495,
      "bù": 3496,
      "lười": 3497,
      "kỷ": 3498,
      "##õi": 3499,
      "trụ": 3500,
      "hỗ": 3501,
      "free": 3502,
      "500": 3503,
      "biên": 3504,
      "##iếng": 3505,
      "acc": 3506,
      "lôi": 3507,
      "##ur": 3508,
      "##age": 3509,
      "chữa": 3510,
      "19": 3511,
      "lưng": 3512,
      "ràng": 3513,
      "quý": 3514,
      "##**": 3515,
      "##ia": 3516,
      "bảng": 3517,
      "xịn": 3518,
      "chỉnh": 3519,
      "cánh": 3520,
      "##ói": 3521,
      "ghế": 3522,
      "lá": 3523,
      "bắn": 3524,
      "vẽ": 3525,
      "##50": 3526,
      "thoát": 3527,
      "lỡ": 3528,
      "kiệm": 3529,
      "khen": 3530,
      "trộm": 3531,
      "##ol": 3532,
      "mát": 3533,
      "thiệt": 3534,
      "nhiệm": 3535,
      "sữa": 3536,
      "web": 3537,
      "tp": 3538,
      "luy": 3539,
      "##mo": 3540,
      "16": 3541,
      "lẫn": 3542,
      "đĩ": 3543,
      "mì": 3544,
      "dương": 3545,
      "mò": 3546,
      "mừng": 3547,
      "##!!": 3548,
      "dữ": 3549,
      "bia": 3550,
      "xếp": 3551,
      "##úa": 3552,
      "300": 3553,
      "km": 3554,
      "rau": 3555,
      "tệ": 3556,
      "test": 3557,
      "##ase": 3558,
      "pe": 3559,
      "đương": 3560,
      "ngờ": 3561,
      "cs": 3562,
      "phù": 3563,
      "14": 3564,
      "nc": 3565,
      "trầm": 3566,
      "chốt": 3567,
      "niềm": 3568,
      "ex": 3569,
      "##cn": 3570,
      "mượn": 3571,
      "đạt": 3572,
      "ưng": 3573,
      "##ma": 3574,
      "ích": 3575,
      "tả": 3576,
      "phận": 3577,
      "tiêm": 3578,
      "tk": 3579,
      "xà": 3580,
      "vực": 3581,
      "13": 3582,
      "vác": 3583,
      "chặt": 3584,
      "sắc": 3585,
      "ầm": 3586,
      "cafe": 3587,
      "dựa": 3588,
      "real": 3589,
      "##tub": 3590,
      "kim": 3591,
      "nhàng": 3592,
      "gỡ": 3593,
      "chợ": 3594,
      "##bi": 3595,
      "luyện": 3596,
      "xung": 3597,
      "ngọt": 3598,
      "sài": 3599,
      "##ga": 3600,
      "thơm": 3601,
      "auto": 3602,
      "##pt": 3603,
      "thà": 3604,
      "code": 3605,
      "đoàn": 3606,
      "góc": 3607,
      "trạng": 3608,
      "cắn": 3609,
      "cont": 3610,
      "##tt": 3611,
      "##ấc": 3612,
      "chiếc": 3613,
      "gõ": 3614,
      "##alo": 3615,
      "đảm": 3616,
      "nông": 3617,
      "mềm": 3618,
      "nghiện": 3619,
      "hỏng": 3620,
      "tắm": 3621,
      "goo": 3622,
      "hãy": 3623,
      "đẳng": 3624,
      "địch": 3625,
      "##and": 3626,
      "xui": 3627,
      "đích": 3628,
      "đê": 3629,
      "##........": 3630,
      "##ùm": 3631,
      "me": 3632,
      "nền": 3633,
      "##ba": 3634,
      "đài": 3635,
      "xóm": 3636,
      "nhục": 3637,
      "##art": 3638,
      "bẩn": 3639,
      "##...": 3640,
      "##view": 3641,
      "gạch": 3642,
      "phổ": 3643,
      "dừng": 3644,
      "sóc": 3645,
      "##õm": 3646,
      "miếng": 3647,
      "dấu": 3648,
      "nắm": 3649,
      "tiểu": 3650,
      "đứt": 3651,
      "the": 3652,
      "xứ": 3653,
      "phú": 3654,
      "ngữ": 3655,
      "60": 3656,
      "##dt": 3657,
      "trôi": 3658,
      "bụng": 3659,
      "cung": 3660,
      "tha": 3661,
      "khủng": 3662,
      "xíu": 3663,
      "90": 3664,
      "lọc": 3665,
      "hồn": 3666,
      "hầu": 3667,
      "va": 3668,
      "##zz": 3669,
      "log": 3670,
      "tim": 3671,
      "ngôn": 3672,
      "bởi": 3673,
      "đột": 3674,
      "nắng": 3675,
      "thoảng": 3676,
      "##tube": 3677,
      "đuổi": 3678,
      "miễn": 3679,
      "rủ": 3680,
      "lễ": 3681,
      "cử": 3682,
      "kèm": 3683,
      "mèo": 3684,
      "thư": 3685,
      "bát": 3686,
      "tuyệt": 3687,
      "miên": 3688,
      "điệ": 3689,
      "gu": 3690,
      "trà": 3691,
      "show": 3692,
      "hấp": 3693,
      "mít": 3694,
      "ser": 3695,
      "nhả": 3696,
      "c1": 3697,
      "##fi": 3698,
      "review": 3699,
      "đàng": 3700,
      "tóm": 3701,
      "hè": 3702,
      "khuy": 3703,
      "điên": 3704,
      "lượt": 3705,
      "trì": 3706,
      "khoẻ": 3707,
      "phán": 3708,
      "sạc": 3709,
      "ốm": 3710,
      "tuỳ": 3711,
      "cháy": 3712,
      "giật": 3713,
      "ci": 3714,
      "cò": 3715,
      "thận": 3716,
      "1m": 3717,
      "##ữu": 3718,
      "##si": 3719,
      "trưa": 3720,
      "ne": 3721,
      "túc": 3722,
      "ngoái": 3723,
      "bla": 3724,
      "##all": 3725,
      "hữu": 3726,
      "mc": 3727,
      "sk": 3728,
      "vote": 3729,
      "bro": 3730,
      "cải": 3731,
      "ủa": 3732,
      "tinder": 3733,
      "túi": 3734,
      "rư": 3735,
      "nyc": 3736,
      "comment": 3737,
      "mod": 3738,
      "##gle": 3739,
      "cứt": 3740,
      "biểu": 3741,
      "thanks": 3742,
      "muộn": 3743,
      "my": 3744,
      "khéo": 3745,
      "giết": 3746,
      "ngáo": 3747,
      "vỡ": 3748,
      "chào": 3749,
      "##iệng": 3750,
      "khóa": 3751,
      "kín": 3752,
      "##iếp": 3753,
      "thù": 3754,
      "youtube": 3755,
      "gọn": 3756,
      "lựa": 3757,
      "miệng": 3758,
      "##vid": 3759,
      "ngã": 3760,
      "out": 3761,
      "ác": 3762,
      "bồ": 3763,
      "đậu": 3764,
      "chấm": 3765,
      "google": 3766,
      "hôi": 3767,
      "ngắn": 3768,
      "loser": 3769,
      "tắc": 3770,
      "##end": 3771,
      "mõm": 3772,
      "vớ": 3773,
      "##pl": 3774,
      "##os": 3775,
      "nộp": 3776,
      "##ẫm": 3777,
      "lùn": 3778,
      "tung": 3779,
      "ship": 3780,
      "80": 3781,
      "thượng": 3782,
      "17": 3783,
      "##ca": 3784,
      "->": 3785,
      "##ell": 3786,
      "đù": 3787,
      "ấm": 3788,
      "chạm": 3789,
      "##ld": 3790,
      "##--": 3791,
      "khô": 3792,
      "chừng": 3793,
      "##gh": 3794,
      "##is": 3795,
      "hlv": 3796,
      "mắn": 3797,
      "cặp": 3798,
      "chim": 3799,
      "##tv": 3800,
      "gắn": 3801,
      "khúc": 3802,
      "##ue": 3803,
      "wc": 3804,
      "##phone": 3805,
      "24": 3806,
      "70": 3807,
      "ẻm": 3808,
      "hủ": 3809,
      "bại": 3810,
      "đùa": 3811,
      "than": 3812,
      "súc": 3813,
      "thở": 3814,
      "thưởng": 3815,
      "is": 3816,
      "bô": 3817,
      "bar": 3818,
      "pl": 3819,
      "gánh": 3820,
      "uy": 3821,
      "chóng": 3822,
      "tròn": 3823,
      "chuyền": 3824,
      "cám": 3825,
      "lăn": 3826,
      "nét": 3827,
      "and": 3828,
      "gấu": 3829,
      "lẻ": 3830,
      "trồng": 3831,
      "##ủa": 3832,
      "bd": 3833,
      "xứng": 3834,
      "giày": 3835,
      "quận": 3836,
      "gớm": 3837,
      "láo": 3838,
      "chui": 3839,
      "jo": 3840,
      "tít": 3841,
      "tướng": 3842,
      "lãnh": 3843,
      "hào": 3844,
      "##ụi": 3845,
      "covid": 3846,
      "múi": 3847,
      "trùng": 3848,
      "dĩ": 3849,
      "giai": 3850,
      "1tr": 3851,
      "##ms": 3852,
      "tấn": 3853,
      "dáng": 3854,
      "##he": 3855,
      "đỗ": 3856,
      "kcn": 3857,
      "đói": 3858,
      "lô": 3859,
      "tg": 3860,
      "pr": 3861,
      "vứt": 3862,
      "like": 3863,
      "##ướp": 3864,
      "đua": 3865,
      "##tion": 3866,
      "bày": 3867,
      "lợn": 3868,
      "nỗi": 3869,
      "đần": 3870,
      "bóp": 3871,
      "##op": 3872,
      "hùng": 3873,
      "gay": 3874,
      "mật": 3875,
      "nghiên": 3876,
      "tân": 3877,
      "mess": 3878,
      "treo": 3879,
      "off": 3880,
      "khảo": 3881,
      "pi": 3882,
      "max": 3883,
      "tường": 3884,
      "trứng": 3885,
      "##ore": 3886,
      "oto": 3887,
      "khiến": 3888,
      "kênh": 3889,
      "canh": 3890,
      "gen": 3891,
      "hoạch": 3892,
      "##rop": 3893,
      "sales": 3894,
      "hiền": 3895,
      "##di": 3896,
      "bá": 3897,
      "##10": 3898,
      "dứt": 3899,
      "hiếm": 3900,
      "nv": 3901,
      "35": 3902,
      "cướp": 3903,
      "cập": 3904,
      "thúc": 3905,
      "chặn": 3906,
      "toang": 3907,
      "thăm": 3908,
      "mô": 3909,
      "tủ": 3910,
      "trần": 3911,
      "bơm": 3912,
      "face": 3913,
      "ỉa": 3914,
      "cua": 3915,
      "tịch": 3916,
      "ướ": 3917,
      "##mi": 3918,
      "##ka": 3919,
      "##30": 3920,
      "heo": 3921,
      "xảy": 3922,
      "lòi": 3923,
      "nồi": 3924,
      "vả": 3925,
      "ôi": 3926,
      "rời": 3927,
      "bền": 3928,
      "card": 3929,
      "hương": 3930,
      "ninh": 3931,
      "đam": 3932,
      "rep": 3933,
      "lều": 3934,
      "sv": 3935,
      "content": 3936,
      ",...": 3937,
      "cọc": 3938,
      "hề": 3939,
      "vai": 3940,
      "buôn": 3941,
      "xàm": 3942,
      "gđ": 3943,
      "xả": 3944,
      "tộc": 3945,
      "xi": 3946,
      "pen": 3947,
      "thiệu": 3948,
      "topic": 3949,
      "dày": 3950,
      "thắc": 3951,
      "nhan": 3952,
      "võ": 3953,
      "iphone": 3954,
      "##ly": 3955,
      "hoà": 3956,
      "hoài": 3957,
      "giám": 3958,
      "xuyên": 3959,
      "22": 3960,
      "bầu": 3961,
      "##ha": 3962,
      "dán": 3963,
      "thổi": 3964,
      "mảnh": 3965,
      "lào": 3966,
      "béo": 3967,
      "khinh": 3968,
      "non": 3969,
      "đốt": 3970,
      "hcm": 3971,
      "móc": 3972,
      "##read": 3973,
      "xịt": 3974,
      "soát": 3975,
      "##tel": 3976,
      "cỏ": 3977,
      "gỗ": 3978,
      "gạo": 3979,
      "na": 3980,
      "khắc": 3981,
      "us": 3982,
      "quái": 3983,
      "sàn": 3984,
      "viêm": 3985,
      "mụ": 3986,
      "at": 3987,
      "dõi": 3988,
      "str": 3989,
      "vua": 3990,
      "tĩnh": 3991,
      "đệ": 3992,
      "email": 3993,
      "phủ": 3994,
      "sml": 3995,
      "điệp": 3996,
      "tấm": 3997,
      "mờ": 3998,
      "##ỗng": 3999,
      "chấn": 4000,
      "buộc": 4001,
      "ráng": 4002,
      "tươi": 4003,
      "gợi": 4004,
      "##ốp": 4005,
      "chè": 4006,
      "nho": 4007,
      "hở": 4008,
      "res": 4009,
      "***": 4010,
      "hiệp": 4011,
      "lối": 4012,
      "say": 4013,
      "br": 4014,
      "eu": 4015,
      "hên": 4016,
      "kẻ": 4017,
      "bờ": 4018,
      "thuận": 4019,
      "phanh": 4020,
      "xuân": 4021,
      "cài": 4022,
      "ps": 4023,
      "tạ": 4024,
      "thread": 4025,
      "##ze": 4026,
      "##ởm": 4027,
      "##nd": 4028,
      "##ẵng": 4029,
      "sốt": 4030,
      "giang": 4031,
      "dàn": 4032,
      "gro": 4033,
      "dàng": 4034,
      "phường": 4035,
      "dạ": 4036,
      "vần": 4037,
      "dao": 4038,
      "dưng": 4039,
      "bấm": 4040,
      "##qu": 4041,
      "21": 4042,
      "cv": 4043,
      "mịa": 4044,
      "xì": 4045,
      "gym": 4046,
      "hs": 4047,
      "húp": 4048,
      "ke": 4049,
      "=>": 4050,
      "yah": 4051,
      "vân": 4052,
      "##dy": 4053,
      "date": 4054,
      "tan": 4055,
      "##gn": 4056,
      "ước": 4057,
      "al": 4058,
      "thụ": 4059,
      "yahoo": 4060,
      "bãi": 4061,
      "nụ": 4062,
      "chén": 4063,
      "khối": 4064,
      "##bb": 4065,
      "nghiêm": 4066,
      "rơi": 4067,
      "phóng": 4068,
      "tik": 4069,
      "gòn": 4070,
      "ngoan": 4071,
      "cop": 4072,
      "mập": 4073,
      "mỏi": 4074,
      "vp": 4075,
      "##book": 4076,
      "##kg": 4077,
      "bí": 4078,
      "bơi": 4079,
      "tuyến": 4080,
      "un": 4081,
      "##ush": 4082,
      "dí": 4083,
      "bus": 4084,
      "té": 4085,
      "ái": 4086,
      "ip": 4087,
      "thẩm": 4088,
      "##thu": 4089,
      "lệch": 4090,
      "chớ": 4091,
      "dơ": 4092,
      "hốt": 4093,
      "đái": 4094,
      "500k": 4095,
      "##bank": 4096,
      "##ỏa": 4097,
      "mảng": 4098,
      "##áp": 4099,
      "fake": 4100,
      "cn": 4101,
      "ja": 4102,
      "##ễm": 4103,
      "lục": 4104,
      "họp": 4105,
      "ac": 4106,
      "mông": 4107,
      "##sa": 4108,
      "huynh": 4109,
      "99": 4110,
      "wi": 4111,
      "your": 4112,
      "dẹp": 4113,
      "hon": 4114,
      "lê": 4115,
      "cmnl": 4116,
      "bôi": 4117,
      "đụng": 4118,
      "nhịn": 4119,
      "lộn": 4120,
      "##ry": 4121,
      "##hi": 4122,
      "\".": 4123,
      "nhảm": 4124,
      "pass": 4125,
      "toy": 4126,
      "nguyễn": 4127,
      "lách": 4128,
      "mỡ": 4129,
      "né": 4130,
      "cau": 4131,
      "khắp": 4132,
      "đằng": 4133,
      "chối": 4134,
      "chat": 4135,
      "đền": 4136,
      "sub": 4137,
      "clb": 4138,
      "vd": 4139,
      "ngàn": 4140,
      "trống": 4141,
      "sc": 4142,
      "zalo": 4143,
      "ném": 4144,
      "ole": 4145,
      "##fa": 4146,
      "net": 4147,
      "##ts": 4148,
      "khung": 4149,
      "băng": 4150,
      "les": 4151,
      "thủy": 4152,
      "oke": 4153,
      "bv": 4154,
      "##ãng": 4155,
      "##mm": 4156,
      "##tok": 4157,
      "lò": 4158,
      "rã": 4159,
      "ùa": 4160,
      "núi": 4161,
      "##ườn": 4162,
      "chang": 4163,
      "dẩm": 4164,
      "nhượ": 4165,
      "soi": 4166,
      "group": 4167,
      "cẩn": 4168,
      "sung": 4169,
      "thăng": 4170,
      "phiên": 4171,
      "bám": 4172,
      "cx": 4173,
      "hít": 4174,
      "tôm": 4175,
      "chiếm": 4176,
      "khiển": 4177,
      "gg": 4178,
      "##box": 4179,
      "mar": 4180,
      "thải": 4181,
      "phế": 4182,
      "mổ": 4183,
      "##xi": 4184,
      "rưỡi": 4185,
      "phở": 4186,
      "lọ": 4187,
      "phiền": 4188,
      "hò": 4189,
      "dọn": 4190,
      "sn": 4191,
      "cán": 4192,
      "##]]": 4193,
      "nhiễm": 4194,
      "xương": 4195,
      "2015": 4196,
      "bơ": 4197,
      "kg": 4198,
      "city": 4199,
      "nhét": 4200,
      "ruột": 4201,
      "tồn": 4202,
      "ku": 4203,
      "lây": 4204,
      "bs": 4205,
      "hổ": 4206,
      "hủy": 4207,
      "nghị": 4208,
      "100k": 4209,
      "bần": 4210,
      "tháo": 4211,
      "thỉnh": 4212,
      "##ble": 4213,
      "book": 4214,
      "sing": 4215,
      "page": 4216,
      "tủi": 4217,
      "san": 4218,
      "##arch": 4219,
      "bét": 4220,
      "dốt": 4221,
      "iq": 4222,
      "set": 4223,
      "chuột": 4224,
      "huống": 4225,
      "honda": 4226,
      "cùi": 4227,
      "150": 4228,
      "tiktok": 4229,
      "sdt": 4230,
      "quo": 4231,
      "##ast": 4232,
      "mãn": 4233,
      "bún": 4234,
      "kn": 4235,
      "ngắm": 4236,
      "cup": 4237,
      "ola": 4238,
      "rùi": 4239,
      "sủa": 4240,
      "##dit": 4241,
      "rừng": 4242,
      "thánh": 4243,
      "đụt": 4244,
      "##xh": 4245,
      "##_thu": 4246,
      "nhạt": 4247,
      "inter": 4248,
      "cậu": 4249,
      "thai": 4250,
      "đáp": 4251,
      "lap": 4252,
      "côn": 4253,
      "##_thu_": 4254,
      "tú": 4255,
      "##ram": 4256,
      "##ằn": 4257,
      "cau_thu_": 4258,
      "hô": 4259,
      "op": 4260,
      "leo": 4261,
      "cáp": 4262,
      "huyện": 4263,
      "pep": 4264,
      "nga": 4265,
      "quang": 4266,
      "bụi": 4267,
      "dồn": 4268,
      "xách": 4269,
      "min": 4270,
      "túng": 4271,
      "##xx": 4272,
      "##eed": 4273,
      "nạp": 4274,
      "chịch": 4275,
      "phỏng": 4276,
      "2tr": 4277,
      "zin": 4278,
      "##ớp": 4279,
      "thang": 4280,
      "banh": 4281,
      "lứa": 4282,
      "ks": 4283,
      "mòn": 4284,
      "chúa": 4285,
      "deal": 4286,
      "am": 4287,
      "tv": 4288,
      "##ash": 4289,
      "thơ": 4290,
      "haha": 4291,
      "lưới": 4292,
      "ngập": 4293,
      "phối": 4294,
      "điển": 4295,
      "skin": 4296,
      "##ion": 4297,
      "đáy": 4298,
      "share": 4299,
      "kẹt": 4300,
      "##date": 4301,
      "##ada": 4302,
      "dăm": 4303,
      "28": 4304,
      "vẩn": 4305,
      "thùng": 4306,
      "hoang": 4307,
      "200k": 4308,
      "nối": 4309,
      "thoáng": 4310,
      "lon": 4311,
      "mệnh": 4312,
      "nhựa": 4313,
      "tạp": 4314,
      "đè": 4315,
      "##ẫy": 4316,
      "khởi": 4317,
      "crush": 4318,
      "2020": 4319,
      "lửa": 4320,
      "kha": 4321,
      "tật": 4322,
      "vĩnh": 4323,
      "úc": 4324,
      "cúp": 4325,
      "sóng": 4326,
      "súng": 4327,
      "##man": 4328,
      "trư": 4329,
      "winner": 4330,
      "bin": 4331,
      "drop": 4332,
      "search": 4333,
      "nô": 4334,
      "cút": 4335,
      "nhá": 4336,
      "lun": 4337,
      "khái": 4338,
      "##gg": 4339,
      "27": 4340,
      "hạt": 4341,
      "lốp": 4342,
      "khiếp": 4343,
      "phiếu": 4344,
      "update": 4345,
      "cấu": 4346,
      "hèn": 4347,
      "quote": 4348,
      "car": 4349,
      "họa": 4350,
      "nhạy": 4351,
      "viettel": 4352,
      "tiềm": 4353,
      "inbox": 4354,
      "xoay": 4355,
      "bl": 4356,
      "vội": 4357,
      "1st": 4358,
      "thui": 4359,
      "hãm": 4360,
      "liệt": 4361,
      "loz": 4362,
      "400": 4363,
      "bể": 4364,
      "hận": 4365,
      "trạm": 4366,
      "đếch": 4367,
      "biện": 4368,
      "45": 4369,
      "##ber": 4370,
      "facebook": 4371,
      "##oi": 4372,
      "muối": 4373,
      "copy": 4374,
      "bắp": 4375,
      "gương": 4376,
      "##ted": 4377,
      "view": 4378,
      "tông": 4379,
      "thổ": 4380,
      "nhắm": 4381,
      "messi": 4382,
      "vỏ": 4383,
      "wa": 4384,
      "##m2": 4385,
      "##ump": 4386,
      "vặt": 4387,
      "rap": 4388,
      "khoá": 4389,
      "chênh": 4390,
      "cf": 4391,
      "pa": 4392,
      "##ow": 4393,
      "##ưu": 4394,
      "mụn": 4395,
      "kịch": 4396,
      "xạo": 4397,
      "##va": 4398,
      "phu": 4399,
      "haiz": 4400,
      "trào": 4401,
      "dại": 4402,
      "rách": 4403,
      "ống": 4404,
      "chiên": 4405,
      "cường": 4406,
      "lâm": 4407,
      "xiên": 4408,
      "phấn": 4409,
      "##lot": 4410,
      "vđ": 4411,
      "hot": 4412,
      "spam": 4413,
      "\",": 4414,
      "50k": 4415,
      "tẩy": 4416,
      "ánh": 4417,
      "giã": 4418,
      "5tr": 4419,
      "gáy": 4420,
      "new": 4421,
      "vờ": 4422,
      "seri": 4423,
      "tái": 4424,
      "5t": 4425,
      "sông": 4426,
      "tráng": 4427,
      "40km": 4428,
      "bếp": 4429,
      "##dol": 4430,
      "rớt": 4431,
      "##ft": 4432,
      "##ũng": 4433,
      "rành": 4434,
      "dev": 4435,
      "táo": 4436,
      "hàm": 4437,
      "ste": 4438,
      "sex": 4439,
      "vạn": 4440,
      "úp": 4441,
      "nhì": 4442,
      "lầm": 4443,
      "##bc": 4444,
      "andro": 4445,
      "dò": 4446,
      "pc": 4447,
      "conta": 4448,
      "đuối": 4449,
      "lúa": 4450,
      "gầm": 4451,
      "tro": 4452,
      "củng": 4453,
      "idol": 4454,
      "10k": 4455,
      "xuôi": 4456,
      "hehe": 4457,
      "bỉ": 4458,
      "rần": 4459,
      "10tr": 4460,
      "tụt": 4461,
      "23": 4462,
      "rô": 4463,
      "##min": 4464,
      "ẩm": 4465,
      "duyệt": 4466,
      "36": 4467,
      "cột": 4468,
      "sắm": 4469,
      "##ọa": 4470,
      "thỏa": 4471,
      "nhổ": 4472,
      "lau": 4473,
      "vất": 4474,
      "trump": 4475,
      "indo": 4476,
      "mớ": 4477,
      "thói": 4478,
      "trĩ": 4479,
      "phốt": 4480,
      "##ord": 4481,
      "quất": 4482,
      "boy": 4483,
      "##io": 4484,
      "##sk": 4485,
      "##20": 4486,
      "##xt": 4487,
      "trọn": 4488,
      "##era": 4489,
      "2021": 4490,
      "cấn": 4491,
      "nãy": 4492,
      "##wn": 4493,
      "chay": 4494,
      "##ata": 4495,
      "duyên": 4496,
      "đốc": 4497,
      "##ud": 4498,
      "kiếp": 4499,
      "alo": 4500,
      "rủi": 4501,
      "phò": 4502,
      "##chi": 4503,
      "android": 4504,
      "hứa": 4505,
      "lùi": 4506,
      "đút": 4507,
      "##ml": 4508,
      "##tra": 4509,
      "noel": 4510,
      "##rr": 4511,
      "2022": 4512,
      "xăm": 4513,
      "giường": 4514,
      "combo": 4515,
      "##ian": 4516,
      "1k": 4517,
      "sen": 4518,
      "đành": 4519,
      "2016": 4520,
      "bung": 4521,
      "##aa": 4522,
      "trấn": 4523,
      "giận": 4524,
      "conan": 4525,
      "bóc": 4526,
      "pv": 4527,
      "chel": 4528,
      "8x": 4529,
      "nẵng": 4530,
      "chăn": 4531,
      "hom": 4532,
      "đuôi": 4533,
      "săn": 4534,
      "vương": 4535,
      "xỉ": 4536,
      "hd": 4537,
      "nản": 4538,
      "vf": 4539,
      "liv": 4540,
      "lĩnh": 4541,
      "lót": 4542,
      "sàng": 4543,
      "phèn": 4544,
      "ngộ": 4545,
      "loa": 4546,
      "size": 4547,
      "bn": 4548,
      "son": 4549,
      "đk": 4550,
      "gầy": 4551,
      "sti": 4552,
      "vắng": 4553,
      "ben": 4554,
      "hao": 4555,
      "váy": 4556,
      "ran": 4557,
      "chip": 4558,
      "ồn": 4559,
      "fr": 4560,
      "nn": 4561,
      "tam": 4562,
      "xạ": 4563,
      "bm": 4564,
      "trao": 4565,
      "tua": 4566,
      "chiêu": 4567,
      "làn": 4568,
      ")))": 4569,
      "000": 4570,
      "bđ": 4571,
      "tàn": 4572,
      "quãng": 4573,
      "hnao": 4574,
      "26": 4575,
      "nướng": 4576,
      "săm": 4577,
      "vú": 4578,
      "đú": 4579,
      "##rm": 4580,
      "laz": 4581,
      "bông": 4582,
      "vâng": 4583,
      "##pa": 4584,
      "chua": 4585,
      "khuyến": 4586,
      "bạch": 4587,
      "cro": 4588,
      "vá": 4589,
      "var": 4590,
      "##vel": 4591,
      "thảo": 4592,
      "6h": 4593,
      "mắm": 4594,
      "uh": 4595,
      "##gb": 4596,
      "sgbb": 4597,
      "pháo": 4598,
      "##................": 4599,
      "tạch": 4600,
      "##12": 4601,
      "nấy": 4602,
      "đồn": 4603,
      "tech": 4604,
      "ju": 4605,
      "giấu": 4606,
      "n1": 4607,
      "ớt": 4608,
      "nhàn": 4609,
      "phái": 4610,
      "reup": 4611,
      "nhấp": 4612,
      "##top": 4613,
      "##com": 4614,
      "best": 4615,
      "hối": 4616,
      "ple": 4617,
      "tiệp": 4618,
      "song": 4619,
      "##go": 4620,
      "khâm": 4621,
      "khịa": 4622,
      "##ght": 4623,
      "all": 4624,
      "nít": 4625,
      "ung": 4626,
      "##ara": 4627,
      "dỗ": 4628,
      "fe": 4629,
      "ss": 4630,
      "##by": 4631,
      "box": 4632,
      "lặp": 4633,
      "ốc": 4634,
      "bực": 4635,
      "cb": 4636,
      "dọa": 4637,
      "chắp": 4638,
      "lận": 4639,
      "tùng": 4640,
      "lưỡi": 4641,
      "apple": 4642,
      "diệt": 4643,
      "lát": 4644,
      "tào": 4645,
      "huyền": 4646,
      "##uu": 4647,
      "ngư": 4648,
      "thiểu": 4649,
      "av": 4650,
      "vầy": 4651,
      "vướng": 4652,
      "##ot": 4653,
      "ngơ": 4654,
      "barca": 4655,
      "bột": 4656,
      "lính": 4657,
      "mười": 4658,
      "manh": 4659,
      "big": 4660,
      "##tac": 4661,
      "park": 4662,
      "rối": 4663,
      "nghìn": 4664,
      "skinner": 4665,
      "ngứa": 4666,
      "cát": 4667,
      "ghẻ": 4668,
      "##ade": 4669,
      "ev": 4670,
      "gan": 4671,
      "gồm": 4672,
      "lăng": 4673,
      "mạt": 4674,
      "kháng": 4675,
      "trêu": 4676,
      "taxi": 4677,
      "buff": 4678,
      "3x": 4679,
      "cốt": 4680,
      "ám": 4681,
      "600": 4682,
      "=]]": 4683,
      "of": 4684,
      "vánh": 4685,
      "1000": 4686,
      "anti": 4687,
      "cổng": 4688,
      "reset": 4689,
      "!!!": 4690,
      "**": 4691,
      "2x": 4692,
      "tứ": 4693,
      "vang": 4694,
      "đềm": 4695,
      "bèo": 4696,
      "nút": 4697,
      "chật": 4698,
      "##pper": 4699,
      "back": 4700,
      "thảm": 4701,
      "tb": 4702,
      "##kk": 4703,
      "ngực": 4704,
      "2014": 4705,
      "binh": 4706,
      "ctac": 4707,
      "thờ": 4708,
      "nhở": 4709,
      "##ato": 4710,
      "bào": 4711,
      "dưa": 4712,
      "múc": 4713,
      "sờ": 4714,
      "##ge": 4715,
      "##oz": 4716,
      "huyết": 4717,
      "đĩa": 4718,
      "ib": 4719,
      "tt": 4720,
      "tuyên": 4721,
      "vios": 4722,
      "proble": 4723,
      "3tr": 4724,
      "hđ": 4725,
      "##ờng": 4726,
      "phịch": 4727,
      "quỹ": 4728,
      "2018": 4729,
      "đãi": 4730,
      "coin": 4731,
      "2012": 4732,
      "đn": 4733,
      "lủng": 4734,
      "thầu": 4735,
      "loài": 4736,
      "time": 4737,
      "cạo": 4738,
      "lậu": 4739,
      "ôn": 4740,
      "bậy": 4741,
      "mốt": 4742,
      "sắt": 4743,
      "xh": 4744,
      "##ague": 4745,
      "spa": 4746,
      "please": 4747,
      "thâm": 4748,
      "chích": 4749,
      "300k": 4750,
      "há": 4751,
      "nể": 4752,
      "tw": 4753,
      "##kh": 4754,
      "giặt": 4755,
      "gãy": 4756,
      "đậm": 4757,
      "chuộng": 4758,
      "phím": 4759,
      "logic": 4760,
      "hiến": 4761,
      "chăng": 4762,
      "ngọc": 4763,
      "khựa": 4764,
      "problems": 4765,
      "ccc": 4766,
      "mn": 4767,
      "ngâm": 4768,
      "visa": 4769,
      "lỏ": 4770,
      "rét": 4771,
      "tòa": 4772,
      "chôn": 4773,
      "quẹt": 4774,
      "hảo": 4775,
      "cắp": 4776,
      "##per": 4777,
      "##eam": 4778,
      "##33": 4779,
      "chạn": 4780,
      "fpt": 4781,
      "xế": 4782,
      "thuần": 4783,
      "dai": 4784,
      "hp": 4785,
      "##ex": 4786,
      "trượt": 4787,
      "dùm": 4788,
      "hầm": 4789,
      "mộ": 4790,
      "mồ": 4791,
      "##40": 4792,
      "thg": 4793,
      "nhường": 4794,
      "ak": 4795,
      "ms": 4796,
      "lú": 4797,
      "rang": 4798,
      "lux": 4799,
      "lead": 4800,
      "tởm": 4801,
      "wor": 4802,
      "xông": 4803,
      "tot": 4804,
      "psg": 4805,
      "triệt": 4806,
      "shi": 4807,
      "form": 4808,
      "tách": 4809,
      "xắn": 4810,
      "giấc": 4811,
      "##low": 4812,
      "liêm": 4813,
      "9x": 4814,
      "cưa": 4815,
      "mực": 4816,
      "khơi": 4817,
      "cản": 4818,
      "mail": 4819,
      "gân": 4820,
      "lội": 4821,
      "men": 4822,
      "tò": 4823,
      "##uch": 4824,
      "##ậc": 4825,
      "vcb": 4826,
      "nhuận": 4827,
      "gd": 4828,
      "##ỉa": 4829,
      "thối": 4830,
      "clone": 4831,
      "bang": 4832,
      "fl": 4833,
      "mọc": 4834,
      "tit": 4835,
      "##ali": 4836,
      "ct": 4837,
      "cai": 4838,
      "gạ": 4839,
      "##so": 4840,
      "##ance": 4841,
      "dái": 4842,
      "rốt": 4843,
      "##ớn": 4844,
      "culi": 4845,
      "ghé": 4846,
      "bọt": 4847,
      "del": 4848,
      "chuyến": 4849,
      "##ild": 4850,
      "sạn": 4851,
      "mau": 4852,
      "##ềnh": 4853,
      "loanh": 4854,
      "hack": 4855,
      "gom": 4856,
      "30k": 4857,
      "bùng": 4858,
      "mại": 4859,
      "euro": 4860,
      "dập": 4861,
      "##ọe": 4862,
      "khán": 4863,
      "koo": 4864,
      "100tr": 4865,
      "dâu": 4866,
      "lụ": 4867,
      "##ho": 4868,
      "20k": 4869,
      "en": 4870,
      "hr": 4871,
      "đèo": 4872,
      "line": 4873,
      "option": 4874,
      "800": 4875,
      "bth": 4876,
      "bịa": 4877,
      "vcc": 4878,
      "vết": 4879,
      "chổ": 4880,
      "xích": 4881,
      "hưu": 4882,
      "mượt": 4883,
      "tấp": 4884,
      "##estay": 4885,
      "##))))": 4886,
      "homestay": 4887,
      "sốc": 4888,
      "khoai": 4889,
      "thoái": 4890,
      "kem": 4891,
      "phe": 4892,
      "phó": 4893,
      "##ane": 4894,
      "this": 4895,
      "dốc": 4896,
      "vườn": 4897,
      "2019": 4898,
      "##ne": 4899,
      "thọ": 4900,
      "29": 4901,
      "##tu": 4902,
      "bậc": 4903,
      "##ỡn": 4904,
      "phật": 4905,
      "hoi": 4906,
      "cốp": 4907,
      "tạt": 4908,
      "##bu": 4909,
      "##ếch": 4910,
      "phức": 4911,
      "live": 4912,
      "next": 4913,
      "hẻ": 4914,
      "ẩn": 4915,
      "##be": 4916,
      "##đt": 4917,
      "cuồng": 4918,
      "khoái": 4919,
      "hằng": 4920,
      "mềnh": 4921,
      "troll": 4922,
      "ao": 4923,
      "##ime": 4924,
      "type": 4925,
      "##----": 4926,
      "bđs": 4927,
      "dram": 4928,
      "lít": 4929,
      "mark": 4930,
      "##ist": 4931,
      "trú": 4932,
      "series": 4933,
      "riết": 4934,
      "##om": 4935,
      "giành": 4936,
      "##ườm": 4937,
      "lung": 4938,
      "chảnh": 4939,
      "bức": 4940,
      "ké": 4941,
      "os": 4942,
      "##und": 4943,
      "wave": 4944,
      "3d": 4945,
      "cốc": 4946,
      "case": 4947,
      "gú": 4948,
      "ngán": 4949,
      "kiên": 4950,
      "bid": 4951,
      "100km": 4952,
      "main": 4953,
      "lả": 4954,
      "mài": 4955,
      "not": 4956,
      "bời": 4957,
      "lật": 4958,
      "mặn": 4959,
      "x2": 4960,
      "đoan": 4961,
      "bds": 4962,
      "75": 4963,
      "hố": 4964,
      "mị": 4965,
      "đạn": 4966,
      "##ps": 4967,
      "chọc": 4968,
      "file": 4969,
      "lạm": 4970,
      "##fo": 4971,
      "mộng": 4972,
      "đểu": 4973,
      "apply": 4974,
      "xào": 4975,
      "red": 4976,
      "đếm": 4977,
      "drama": 4978,
      "fil": 4979,
      "gối": 4980,
      "họng": 4981,
      "đặn": 4982,
      "##lan": 4983,
      "nứt": 4984,
      "tổn": 4985,
      "xoá": 4986,
      "bra": 4987,
      "dịp": 4988,
      "tn": 4989,
      "##ìa": 4990,
      "thô": 4991,
      "bênh": 4992,
      "nhẫn": 4993,
      "lazada": 4994,
      "700": 4995,
      "bùa": 4996,
      "cống": 4997,
      "gắt": 4998,
      "mỏng": 4999,
      "sập": 5000,
      "thấu": 5001,
      "call": 5002,
      "mẽ": 5003,
      "rước": 5004,
      "ngón": 5005,
      "trùm": 5006,
      "quét": 5007,
      "nén": 5008,
      "xl": 5009,
      "##pi": 5010,
      "tru": 5011,
      "tiki": 5012,
      "bế": 5013,
      "bad": 5014,
      "lắng": 5015,
      "lèo": 5016,
      "mem": 5017,
      "râu": 5018,
      "rung": 5019,
      "##dd": 5020,
      "as": 5021,
      "dép": 5022,
      "tớ": 5023,
      "ngôi": 5024,
      "ngựa": 5025,
      "khỉ": 5026,
      "##ern": 5027,
      "cuốc": 5028,
      "20tr": 5029,
      "%,": 5030,
      "vẹn": 5031,
      "##asy": 5032,
      "nhược": 5033,
      "m2": 5034,
      "trend": 5035,
      "quăng": 5036,
      "cào": 5037,
      "hang": 5038,
      "vinh": 5039,
      "ngó": 5040,
      "giãn": 5041,
      "bọc": 5042,
      "##nn": 5043,
      "12h": 5044,
      "bẻ": 5045,
      "mas": 5046,
      "cháo": 5047,
      "camera": 5048,
      "lì": 5049,
      "ver": 5050,
      "đớn": 5051,
      "some": 5052,
      "bão": 5053,
      "vời": 5054,
      "xám": 5055,
      "đùi": 5056,
      "##cu": 5057,
      "nhánh": 5058,
      "nhóc": 5059,
      "build": 5060,
      "95": 5061,
      "han": 5062,
      "sỹ": 5063,
      "lam": 5064,
      "rễ": 5065,
      "rồng": 5066,
      "trễ": 5067,
      "quạt": 5068,
      "xiao": 5069,
      "usd": 5070,
      "steak": 5071,
      "liều": 5072,
      "list": 5073,
      "2v": 5074,
      "cất": 5075,
      "rén": 5076,
      "ghép": 5077,
      "32": 5078,
      "dãi": 5079,
      "gr": 5080,
      "lạt": 5081,
      "mit": 5082,
      "vững": 5083,
      "##gi": 5084,
      "##ỏn": 5085,
      "bon": 5086,
      "zai": 5087,
      "khẳng": 5088,
      "club": 5089,
      "body": 5090,
      "2023": 5091,
      "arg": 5092,
      "tgian": 5093,
      "lề": 5094,
      "xôi": 5095,
      "”.": 5096,
      "nhể": 5097,
      "##atar": 5098,
      "lag": 5099,
      "nan": 5100,
      "rà": 5101,
      "ủn": 5102,
      "chùa": 5103,
      "huế": 5104,
      "ky": 5105,
      "tph": 5106,
      "xé": 5107,
      "intern": 5108,
      "hê": 5109,
      "van": 5110,
      "cúm": 5111,
      "hiếu": 5112,
      "tê": 5113,
      "quỷ": 5114,
      "##ina": 5115,
      "cúng": 5116,
      "gang": 5117,
      "gập": 5118,
      "lắc": 5119,
      "##son": 5120,
      "trại": 5121,
      "bom": 5122,
      "khuya": 5123,
      "bỗng": 5124,
      "lồng": 5125,
      "khoát": 5126,
      "trích": 5127,
      "data": 5128,
      "mâm": 5129,
      "admin": 5130,
      "''": 5131,
      "hiếp": 5132,
      "lờ": 5133,
      "pre": 5134,
      "vtv": 5135,
      "##ựng": 5136,
      "nhai": 5137,
      "bai": 5138,
      "f1": 5139,
      "quỳ": 5140,
      "tphcm": 5141,
      "lệnh": 5142,
      "mỏ": 5143,
      "rỗng": 5144,
      "ngột": 5145,
      "ngửi": 5146,
      "trinh": 5147,
      "cức": 5148,
      "##ater": 5149,
      "vuông": 5150,
      "lươn": 5151,
      "2013": 5152,
      "tc": 5153,
      "hưng": 5154,
      "lùa": 5155,
      "pt": 5156,
      "bách": 5157,
      "lang": 5158,
      "mây": 5159,
      "yến": 5160,
      "cccd": 5161,
      "mt": 5162,
      "múa": 5163,
      "##gar": 5164,
      "##zon": 5165,
      "chợt": 5166,
      "50km": 5167,
      "pk": 5168,
      "thấm": 5169,
      "trưng": 5170,
      "confi": 5171,
      "##orn": 5172,
      "##ood": 5173,
      "dẫm": 5174,
      "kb": 5175,
      "mp": 5176,
      "rạp": 5177,
      "giùm": 5178,
      "chủng": 5179,
      "120": 5180,
      "2000": 5181,
      "mốc": 5182,
      "đb": 5183,
      "nháy": 5184,
      "trúc": 5185,
      "tour": 5186,
      "tuấn": 5187,
      "chuối": 5188,
      "train": 5189,
      "dũng": 5190,
      "lấn": 5191,
      "mou": 5192,
      "##cel": 5193,
      "vir": 5194,
      "baby": 5195,
      "##sion": 5196,
      "phuộc": 5197,
      "ama": 5198,
      "dả": 5199,
      "easy": 5200,
      "rụng": 5201,
      "wow": 5202,
      "triều": 5203,
      "giề": 5204,
      "maz": 5205,
      "head": 5206,
      "stress": 5207,
      "c2": 5208,
      "vạch": 5209,
      "199": 5210,
      "hụt": 5211,
      "lẹ": 5212,
      "rắn": 5213,
      "xưởng": 5214,
      "đai": 5215,
      "league": 5216,
      "vặn": 5217,
      "##fen": 5218,
      "khắm": 5219,
      "khói": 5220,
      "moá": 5221,
      "lãng": 5222,
      "##ko": 5223,
      "ngớ": 5224,
      "cóc": 5225,
      "nguyện": 5226,
      "bến": 5227,
      "hiển": 5228,
      "tá": 5229,
      "bhxh": 5230,
      "ars": 5231,
      "bạo": 5232,
      "lòn": 5233,
      "##od": 5234,
      "chậu": 5235,
      "chuông": 5236,
      "đệm": 5237,
      "mạn": 5238,
      "nhợn": 5239,
      "rưởi": 5240,
      "mazda": 5241,
      "bk": 5242,
      "ngõ": 5243,
      "giảng": 5244,
      "sams": 5245,
      "mobi": 5246,
      "5k": 5247,
      "cre": 5248,
      "mat": 5249,
      "run": 5250,
      "sx": 5251,
      "vở": 5252,
      "đinh": 5253,
      "##esh": 5254,
      "epl": 5255,
      "gội": 5256,
      "##??": 5257,
      "##ona": 5258,
      "quyển": 5259,
      "thuyền": 5260,
      "ân": 5261,
      "##ick": 5262,
      "##arm": 5263,
      "##iii": 5264,
      "mb": 5265,
      "đòn": 5266,
      "phụng": 5267,
      "luộc": 5268,
      "tivi": 5269,
      "bạt": 5270,
      "ot": 5271,
      "rẽ": 5272,
      "thề": 5273,
      "##ation": 5274,
      "nhượng": 5275,
      "bồi": 5276,
      "dã": 5277,
      "hông": 5278,
      "##nt": 5279,
      "jack": 5280,
      "bái": 5281,
      "dê": 5282,
      "day": 5283,
      "hú": 5284,
      "sw": 5285,
      "đục": 5286,
      "##h30": 5287,
      "nhát": 5288,
      "nuốt": 5289,
      "hẻm": 5290,
      "dọc": 5291,
      "lạy": 5292,
      "tống": 5293,
      "tràn": 5294,
      "##ink": 5295,
      "cap": 5296,
      "press": 5297,
      "cự": 5298,
      "cồn": 5299,
      "##mar": 5300,
      "nhẽ": 5301,
      "què": 5302,
      "cross": 5303,
      "slot": 5304,
      "trộn": 5305,
      "tỏa": 5306,
      "##back": 5307,
      "thụt": 5308,
      "vib": 5309,
      "cửng": 5310,
      "cp": 5311,
      "vt": 5312,
      "chà": 5313,
      "##ins": 5314,
      "toi": 5315,
      "50tr": 5316,
      "abs": 5317,
      "mét": 5318,
      "vạ": 5319,
      "đùng": 5320,
      "##ýt": 5321,
      "thách": 5322,
      "nuối": 5323,
      "chín": 5324,
      "job": 5325,
      "market": 5326,
      "dội": 5327,
      "ll": 5328,
      "mác": 5329,
      "rực": 5330,
      "laptop": 5331,
      "amazon": 5332,
      "bội": 5333,
      "mer": 5334,
      "##mit": 5335,
      "khớp": 5336,
      "same": 5337,
      "nhờn": 5338,
      "samsung": 5339,
      "cơn": 5340,
      "lặn": 5341,
      "ngũ": 5342,
      "down": 5343,
      "mac": 5344,
      "confirm": 5345,
      "lặng": 5346,
      "thôn": 5347,
      "phà": 5348,
      "phét": 5349,
      "giáp": 5350,
      "khuôn": 5351,
      "key": 5352,
      "dạn": 5353,
      "if": 5354,
      "mưu": 5355,
      "đẽo": 5356,
      "##23": 5357,
      "chen": 5358,
      "loay": 5359,
      "liver": 5360,
      "black": 5361,
      "rãnh": 5362,
      "phan": 5363,
      "hoay": 5364,
      "##aka": 5365,
      "cối": 5366,
      "keo": 5367,
      "tấu": 5368,
      "vỉa": 5369,
      "khấu": 5370,
      "via": 5371,
      "shit": 5372,
      "350": 5373,
      "55": 5374,
      "sảng": 5375,
      "thép": 5376,
      "sel": 5377,
      "nhái": 5378,
      "ngăn": 5379,
      "nghịch": 5380,
      "lum": 5381,
      "##tvoz": 5382,
      "uni": 5383,
      "aga": 5384,
      "lộc": 5385,
      "per": 5386,
      "rổ": 5387,
      "tó": 5388,
      "ốp": 5389,
      "##ým": 5390,
      "ngầm": 5391,
      "phũ": 5392,
      "ranh": 5393,
      "supp": 5394,
      "30p": 5395,
      "haizz": 5396,
      "##aha": 5397,
      "again": 5398,
      "bạ": 5399,
      "lóc": 5400,
      "rỡ": 5401,
      "sỉ": 5402,
      "##ress": 5403,
      "thước": 5404,
      "thým": 5405,
      "kiu": 5406,
      "viễn": 5407,
      "hsbc": 5408,
      "hét": 5409,
      "mơn": 5410,
      "sùng": 5411,
      "trữ": 5412,
      "buông": 5413,
      "ass": 5414,
      "ski": 5415,
      "ts": 5416,
      "try": 5417,
      "vouch": 5418,
      "film": 5419,
      "voucher": 5420,
      "bet": 5421,
      "cong": 5422,
      "hán": 5423,
      "lơ": 5424,
      "rộn": 5425,
      "##ui": 5426,
      "logo": 5427,
      "cớ": 5428,
      "hel": 5429,
      "rũ": 5430,
      "##our": 5431,
      "2017": 5432,
      "125": 5433,
      "4tr": 5434,
      "bề": 5435,
      "lởm": 5436,
      "vĩ": 5437,
      "xá": 5438,
      "đùn": 5439,
      "##ed": 5440,
      "##ci": 5441,
      "##cy": 5442,
      "rea": 5443,
      "ruộng": 5444,
      "end": 5445,
      "ngửa": 5446,
      "have": 5447,
      "skill": 5448,
      "cas": 5449,
      "còm": 5450,
      "space": 5451,
      "bì": 5452,
      "fame": 5453,
      "hí": 5454,
      "##rd": 5455,
      "##80": 5456,
      "hope": 5457,
      "##ator": 5458,
      "mởn": 5459,
      "info": 5460,
      "clo": 5461,
      "farm": 5462,
      "mỳ": 5463,
      "add": 5464,
      "74": 5465,
      "kẹo": 5466,
      "##con": 5467,
      "chiết": 5468,
      "nhịp": 5469,
      "##ath": 5470,
      "##tyle": 5471,
      "dis": 5472,
      "##sea": 5473,
      "dell": 5474,
      "ele": 5475,
      "edit": 5476,
      "lể": 5477,
      "lột": 5478,
      "ròng": 5479,
      "xẻ": 5480,
      "##iệc": 5481,
      "ngoãn": 5482,
      "2010": 5483,
      "tùm": 5484,
      "cương": 5485,
      "hệt": 5486,
      "ign": 5487,
      "đắp": 5488,
      "chanh": 5489,
      "sugar": 5490,
      "momo": 5491,
      "gào": 5492,
      "hung": 5493,
      "nập": 5494,
      "khiếu": 5495,
      "##ero": 5496,
      "play": 5497,
      "n2": 5498,
      "##60": 5499,
      "nhãn": 5500,
      "khú": 5501,
      "tuyền": 5502,
      "note": 5503,
      "thập": 5504,
      "ngẩn": 5505,
      "hoảng": 5506,
      "loạt": 5507,
      "nhìu": 5508,
      "sót": 5509,
      "đố": 5510,
      "ới": 5511,
      "thốn": 5512,
      "##uno": 5513,
      "report": 5514,
      "tbn": 5515,
      "đực": 5516,
      "##ễu": 5517,
      "then": 5518,
      "ngạo": 5519,
      "muôn": 5520,
      "bayern": 5521,
      "smart": 5522,
      "contact": 5523,
      "shipper": 5524,
      "mits": 5525,
      "31": 5526,
      "lõi": 5527,
      "pu": 5528,
      "xay": 5529,
      "ưa": 5530,
      "##oc": 5531,
      "phủi": 5532,
      "chứa": 5533,
      "air": 5534,
      "##ops": 5535,
      "des": 5536,
      "ve": 5537,
      "ven": 5538,
      "đắn": 5539,
      "ngót": 5540,
      "chelsea": 5541,
      "iu": 5542,
      "mẻ": 5543,
      "mửa": 5544,
      "##ice": 5545,
      "phông": 5546,
      "giò": 5547,
      "đáo": 5548,
      "nhẹn": 5549,
      "##play": 5550,
      "bưng": 5551,
      "dt": 5552,
      "lượn": 5553,
      "ob": 5554,
      "par": 5555,
      "##ction": 5556,
      "phập": 5557,
      "nàng": 5558,
      "rao": 5559,
      "order": 5560,
      "ong": 5561,
      "sừng": 5562,
      "##ric": 5563,
      "##nam": 5564,
      "##ino": 5565,
      "##ous": 5566,
      "world": 5567,
      "ignore": 5568,
      "liếm": 5569,
      "móng": 5570,
      "rãi": 5571,
      "nhặt": 5572,
      "tre": 5573,
      "internet": 5574,
      "cd": 5575,
      "vẩu": 5576,
      "war": 5577,
      "giam": 5578,
      "toà": 5579,
      "def": 5580,
      "xiaomi": 5581,
      "dd": 5582,
      "lọt": 5583,
      "ráp": 5584,
      "ếch": 5585,
      "high": 5586,
      "bổng": 5587,
      "tần": 5588,
      "##gt": 5589,
      "ngơi": 5590,
      "trơn": 5591,
      "##let": 5592,
      "rượi": 5593,
      "38": 5594,
      "đếu": 5595,
      "cmnd": 5596,
      "vinf": 5597,
      "mini": 5598,
      "80km": 5599,
      "es": 5600,
      "lc": 5601,
      "##íu": 5602,
      "##ía": 5603,
      "shot": 5604,
      "30tr": 5605,
      "support": 5606,
      "bự": 5607,
      "vong": 5608,
      "##ap": 5609,
      "##dan": 5610,
      "pho": 5611,
      "##tis": 5612,
      "mike": 5613,
      "kar": 5614,
      "rậm": 5615,
      "giời": 5616,
      "20t": 5617,
      "atm": 5618,
      "stick": 5619,
      "el": 5620,
      "gồng": 5621,
      "hái": 5622,
      "nở": 5623,
      "qúa": 5624,
      "rồ": 5625,
      "sl": 5626,
      "vải": 5627,
      "ram": 5628,
      "tier": 5629,
      "exp": 5630,
      "hẹp": 5631,
      "hạch": 5632,
      "lơi": 5633,
      "vẹo": 5634,
      "đựng": 5635,
      "##yt": 5636,
      "##ợm": 5637,
      "hic": 5638,
      "khoán": 5639,
      "điệu": 5640,
      "65": 5641,
      "bat": 5642,
      "cẩu": 5643,
      "tăm": 5644,
      "tát": 5645,
      "tăn": 5646,
      "tem": 5647,
      "tiệc": 5648,
      "##aw": 5649,
      "##vic": 5650,
      "pog": 5651,
      "##qua": 5652,
      "kkk": 5653,
      "khốn": 5654,
      "ag": 5655,
      "dì": 5656,
      "dad": 5657,
      "ez": 5658,
      "##rid": 5659,
      "ghim": 5660,
      "bit": 5661,
      "##ool": 5662,
      "##!!!!": 5663,
      "myan": 5664,
      "bồn": 5665,
      "care": 5666,
      "sườn": 5667,
      "##18": 5668,
      "nhức": 5669,
      "trục": 5670,
      "lẽo": 5671,
      "1h": 5672,
      "mal": 5673,
      "mic": 5674,
      "sếch": 5675,
      "đan": 5676,
      "đảng": 5677,
      "thừng": 5678,
      "beer": 5679,
      "còi": 5680,
      "f33": 5681,
      "gv": 5682,
      "sầu": 5683,
      "tảng": 5684,
      "##zil": 5685,
      "ngậm": 5686,
      "cx5": 5687,
      "ksao": 5688,
      "dè": 5689,
      "kiều": 5690,
      "ns": 5691,
      "rạc": 5692,
      "style": 5693,
      "vắt": 5694,
      "ướt": 5695,
      "ủi": 5696,
      "thiệp": 5697,
      "nóc": 5698,
      "avatar": 5699,
      "bừa": 5700,
      "mg": 5701,
      "mẩu": 5702,
      "tơ": 5703,
      "vã": 5704,
      "##ton": 5705,
      "##11": 5706,
      "##99": 5707,
      "chát": 5708,
      "##ause": 5709,
      "##eta": 5710,
      "bec": 5711,
      "##extvoz": 5712,
      "thenextvoz": 5713,
      "myanmar": 5714,
      "400k": 5715,
      "dinh": 5716,
      "kiệt": 5717,
      "pay": 5718,
      "rạn": 5719,
      "xam": 5720,
      "##ie": 5721,
      "chit": 5722,
      "##ely": 5723,
      "##out": 5724,
      "sport": 5725,
      "ml": 5726,
      "mass": 5727,
      "oan": 5728,
      "oops": 5729,
      "rườm": 5730,
      "xước": 5731,
      "zái": 5732,
      "##ul": 5733,
      "##mb": 5734,
      "##bv": 5735,
      "giây": 5736,
      "##lex": 5737,
      "##tos": 5738,
      "129": 5739,
      "ngô": 5740,
      "loan": 5741,
      "cug": 5742,
      "))))": 5743,
      "virus": 5744,
      "marketing": 5745,
      "ada": 5746,
      "lẫm": 5747,
      "nồng": 5748,
      "chìm": 5749,
      "trân": 5750,
      "king": 5751,
      "ngoặt": 5752,
      "10h": 5753,
      "gò": 5754,
      "har": 5755,
      "ối": 5756,
      "##ger": 5757,
      "trọc": 5758,
      "que": 5759,
      "ghềnh": 5760,
      "nuôn": 5761,
      "sgm": 5762,
      "one": 5763,
      "stream": 5764,
      "lesor": 5765,
      "mp3": 5766,
      "8h": 5767,
      "gác": 5768,
      "lược": 5769,
      "nôn": 5770,
      "chuỗi": 5771,
      "huỷ": 5772,
      "tks": 5773,
      "1m7": 5774,
      "by": 5775,
      "mon": 5776,
      "nghễ": 5777,
      "##ppe": 5778,
      "lũy": 5779,
      "abc": 5780,
      "vinfast": 5781,
      "//": 5782,
      "bân": 5783,
      "dh": 5784,
      "ed": 5785,
      "ir": 5786,
      "mĩ": 5787,
      "ol": 5788,
      "rể": 5789,
      "trội": 5790,
      "phẳng": 5791,
      "khoan": 5792,
      "##tro": 5793,
      "cáu": 5794,
      "map": 5795,
      "title": 5796,
      "3h": 5797,
      "33": 5798,
      "hâm": 5799,
      "nứng": 5800,
      "wh": 5801,
      "chừa": 5802,
      "nhỡ": 5803,
      "phơi": 5804,
      "##ind": 5805,
      "bruno": 5806,
      "pressing": 5807,
      "nạt": 5808,
      "qủa": 5809,
      "rym": 5810,
      "sứ": 5811,
      "ngự": 5812,
      "ngẫm": 5813,
      "##inu": 5814,
      "##ide": 5815,
      "37": 5816,
      "cđ": 5817,
      "db": 5818,
      "nai": 5819,
      "pan": 5820,
      "sôi": 5821,
      "tàng": 5822,
      "##app": 5823,
      "##xy": 5824,
      "khùng": 5825,
      "15tr": 5826,
      "##iiii": 5827,
      "5h": 5828,
      "bỡn": 5829,
      "cởi": 5830,
      "gre": 5831,
      "lỏng": 5832,
      "##ior": 5833,
      "##bat": 5834,
      "##bit": 5835,
      "kyu": 5836,
      "6tr": 5837,
      "8tr": 5838,
      "lm": 5839,
      "lẹo": 5840,
      "pp": 5841,
      "##na": 5842,
      "lui": 5843,
      "freud": 5844,
      "fir": 5845,
      "cash": 5846,
      "dằm": 5847,
      "hỷ": 5848,
      "hỏn": 5849,
      "##ếm": 5850,
      "thầm": 5851,
      "điền": 5852,
      "hihi": 5853,
      "mẹc": 5854,
      "huấn": 5855,
      "led": 5856,
      "level": 5857,
      "master": 5858,
      ".\"": 5859,
      "2h": 5860,
      "ls": 5861,
      "rào": 5862,
      "sương": 5863,
      "xề": 5864,
      "xô": 5865,
      "##po": 5866,
      "nhấn": 5867,
      "trương": 5868,
      "##cho": 5869,
      "tuôn": 5870,
      "checker": 5871,
      "fol": 5872,
      "vấp": 5873,
      "##hu": 5874,
      "##15": 5875,
      "##ươn": 5876,
      "##ẹc": 5877,
      "ơiiii": 5878,
      "because": 5879,
      "gạt": 5880,
      "mút": 5881,
      "tèo": 5882,
      "xxx": 5883,
      "yo": 5884,
      "##88": 5885,
      "##ặm": 5886,
      "quẩy": 5887,
      "##int": 5888,
      "daddy": 5889,
      "bã": 5890,
      "c3": 5891,
      "kt": 5892,
      "rùa": 5893,
      "##ja": 5894,
      "chồ": 5895,
      "09": 5896,
      "eng": 5897,
      "hói": 5898,
      "kai": 5899,
      "mịn": 5900,
      "td": 5901,
      "đắng": 5902,
      "##ún": 5903,
      "thác": 5904,
      "chưởng": 5905,
      "##ans": 5906,
      "fix": 5907,
      "##uru": 5908,
      "still": 5909,
      "biden": 5910,
      "2vk": 5911,
      "34": 5912,
      "ali": 5913,
      "bới": 5914,
      "cùn": 5915,
      "húc": 5916,
      "hãi": 5917,
      "10km": 5918,
      "into": 5919,
      "lik": 5920,
      "dược": 5921,
      "##lic": 5922,
      "##ker": 5923,
      "##ộp": 5924,
      "solo": 5925,
      "class": 5926,
      "cụt": 5927,
      "element": 5928,
      "4k": 5929,
      "base": 5930,
      "over": 5931,
      "tes": 5932,
      "##ure": 5933,
      "##yy": 5934,
      "nhồi": 5935,
      "ngừng": 5936,
      "voi": 5937,
      "sợi": 5938,
      "mắcc": 5939,
      "submit": 5940,
      "change": 5941,
      "llĩnh": 5942,
      "b2": 5943,
      "boo": 5944,
      "cưng": 5945,
      "gợn": 5946,
      "oải": 5947,
      "pm": 5948,
      "rèn": 5949,
      "tl": 5950,
      "ào": 5951,
      "##ku": 5952,
      "##che": 5953,
      "vip": 5954,
      "cạn": 5955,
      "later": 5956,
      "mad": 5957,
      "tọe": 5958,
      "##ịnh": 5959,
      "nhằng": 5960,
      "##trator": 5961,
      "remo": 5962,
      "brazil": 5963,
      "96": 5964,
      "dồi": 5965,
      "hq": 5966,
      "sy": 5967,
      "xót": 5968,
      "##lu": 5969,
      "phang": 5970,
      "cos": 5971,
      "sir": 5972,
      "cấc": 5973,
      "lấc": 5974,
      "mv": 5975,
      "##70": 5976,
      "châm": 5977,
      "200tr": 5978,
      "bút": 5979,
      "dặn": 5980,
      "reo": 5981,
      "đúc": 5982,
      "tom": 5983,
      "super": 5984,
      "##riate": 5985,
      "##shop": 5986,
      "myfen": 5987,
      "##ropriate": 5988,
      "contains": 5989,
      "##pan": 5990,
      "##ơng": 5991,
      "phổi": 5992,
      "##ano": 5993,
      "vuốt": 5994,
      "server": 5995,
      "elements": 5996,
      "fad": 5997,
      "mợ": 5998,
      "whe": 5999,
      "xd": 6000,
      "xòa": 6001,
      "ngầu": 6002,
      "##ant": 6003,
      "vit": 6004,
      "wifi": 6005,
      "adminis": 6006,
      "likely": 6007,
      "submitted": 6008,
      "bee": 6009,
      "dẻ": 6010,
      "lay": 6011,
      "teo": 6012,
      "##land": 6013,
      "inapp": 6014,
      "xéc": 6015,
      "administrator": 6016,
      "inappropriate": 6017,
      "don": 6018,
      "gam": 6019,
      "##vn": 6020,
      "ngưng": 6021,
      "khích": 6022,
      "continu": 6023,
      "continuous": 6024,
      "4x": 6025,
      "cạc": 6026,
      "##ũa": 6027,
      "anime": 6028,
      "prote": 6029,
      "tm": 6030,
      "đe": 6031,
      "##rl": 6032,
      "thạch": 6033,
      "phẫu": 6034,
      "sam": 6035,
      "2008": 6036,
      "vũng": 6037,
      "mitsuru": 6038,
      "adachi": 6039,
      "h1": 6040,
      "x3": 6041,
      "##pay": 6042,
      "##cs": 6043,
      "that": 6044,
      "khát": 6045,
      "điếu": 6046,
      "3k": 6047,
      "^^": 6048,
      "móa": 6049,
      "ul": 6050,
      "##uki": 6051,
      "##gon": 6052,
      "##wer": 6053,
      "lord": 6054,
      "roài": 6055,
      "dừa": 6056,
      "lén": 6057,
      "nâu": 6058,
      "nêu": 6059,
      "qc": 6060,
      "vơ": 6061,
      "đắc": 6062,
      "##ota": 6063,
      "thưa": 6064,
      "chìa": 6065,
      "nhôm": 6066,
      "##anay": 6067,
      "khoáng": 6068,
      "combat": 6069,
      "bmw": 6070,
      "lụm": 6071,
      "7h": 6072,
      "gs": 6073,
      "gar": 6074,
      "gato": 6075,
      "mắng": 6076,
      "qh": 6077,
      "sụp": 6078,
      "tè": 6079,
      "sakh": 6080,
      "hoạ": 6081,
      "...)": 6082,
      "1m6": 6083,
      "uhm": 6084,
      "cer": 6085,
      "m3": 6086,
      "vít": 6087,
      "đớp": 6088,
      "phất": 6089,
      "thuỷ": 6090,
      "remote": 6091,
      "sakhanay": 6092,
      "7tr": 6093,
      "lầu": 6094,
      "nắp": 6095,
      "t7": 6096,
      "##cal": 6097,
      "03": 6098,
      "98": 6099,
      "uk": 6100,
      "văng": 6101,
      "##90": 6102,
      "##ỳnh": 6103,
      "nhí": 6104,
      "khâu": 6105,
      "búa": 6106,
      "store": 6107,
      "fadil": 6108,
      "lằng": 6109,
      "qq": 6110,
      "chép": 6111,
      "quẩn": 6112,
      "cảng": 6113,
      "xoắn": 6114,
      "bhyt": 6115,
      "##bie": 6116,
      "##dio": 6117,
      "xamer": 6118,
      "40k": 6119,
      "bùi": 6120,
      "fail": 6121,
      "mid": 6122,
      "ron": 6123,
      "phun": 6124,
      "đoạt": 6125,
      "250": 6126,
      "dĩa": 6127,
      "h2": 6128,
      "nấm": 6129,
      "sấu": 6130,
      "vòi": 6131,
      "nhe": 6132,
      "2011": 6133,
      "cntt": 6134,
      "##................................": 6135,
      "##tb": 6136,
      "##je": 6137,
      "thự": 6138,
      "chải": 6139,
      "##inhan": 6140,
      "##atch": 6141,
      "sun": 6142,
      "rock": 6143,
      "nghiêng": 6144,
      "pogba": 6145,
      "ever": 6146,
      "hk": 6147,
      "hẵng": 6148,
      "mé": 6149,
      "sđt": 6150,
      "x7": 6151,
      "zế": 6152,
      "chuồng": 6153,
      "shinhan": 6154,
      "forum": 6155,
      "ipad": 6156,
      "##combank": 6157,
      "osin": 6158,
      "sấp": 6159,
      "ương": 6160,
      "khe": 6161,
      "triết": 6162,
      "nón": 6163,
      "##iềng": 6164,
      "bịp": 6165,
      "bill": 6166,
      "##lla": 6167,
      "150k": 6168,
      "bong": 6169,
      "cước": 6170,
      "dem": 6171,
      "tang": 6172,
      "thắt": 6173,
      "luân": 6174,
      "tok": 6175,
      "##ico": 6176,
      "15p": 6177,
      "aura": 6178,
      "brand": 6179,
      "ngưỡng": 6180,
      "first": 6181,
      "ddt": 6182,
      "rs": 6183,
      "siết": 6184,
      "chéo": 6185,
      "quỵ": 6186,
      "##ream": 6187,
      "click": 6188,
      "????": 6189,
      "ngươi": 6190,
      "háng": 6191,
      "mồi": 6192,
      "miết": 6193,
      "mạc": 6194,
      "chèn": 6195,
      "khánh": 6196,
      "musk": 6197,
      "vision": 6198,
      "onl": 6199,
      "photo": 6200,
      "4h": 6201,
      "bối": 6202,
      "hỏa": 6203,
      "iel": 6204,
      "lõ": 6205,
      "lấp": 6206,
      "pub": 6207,
      "tau": 6208,
      "##hh": 6209,
      "##fli": 6210,
      "thủng": 6211,
      "đàm": 6212,
      "900": 6213,
      "bấy": 6214,
      "##34": 6215,
      "trăng": 6216,
      "lock": 6217,
      "tuệ": 6218,
      "##les": 6219,
      "siêng": 6220,
      "ddag": 6221,
      "whey": 6222,
      "ge": 6223,
      "hag": 6224,
      "lè": 6225,
      "lẩu": 6226,
      "rót": 6227,
      "đầm": 6228,
      "##22": 6229,
      "quầy": 6230,
      "rai": 6231,
      "##inho": 6232,
      "thịnh": 6233,
      "manga": 6234,
      "xỉu": 6235,
      "2m": 6236,
      "chinh": 6237,
      "muỗi": 6238,
      "f17": 6239,
      "bri": 6240,
      "lim": 6241,
      "đờ": 6242,
      "##rt": 6243,
      "##19": 6244,
      "##ji": 6245,
      "thúi": 6246,
      "chym": 6247,
      "tool": 6248,
      "bảy": 6249,
      "##lop": 6250,
      "##iti": 6251,
      "15k": 6252,
      "star": 6253,
      "offer": 6254,
      "tesla": 6255,
      "9h": 6256,
      "gl": 6257,
      "kk": 6258,
      "nại": 6259,
      "see": 6260,
      "táng": 6261,
      "ui": 6262,
      "ford": 6263,
      "kd": 6264,
      "##ua": 6265,
      "nhã": 6266,
      "##ala": 6267,
      "cr7": 6268,
      "accent": 6269,
      "blah": 6270,
      "toyota": 6271,
      "dâng": 6272,
      "fin": 6273,
      "hốc": 6274,
      "lù": 6275,
      "mộc": 6276,
      "nảy": 6277,
      "tịt": 6278,
      "đơ": 6279,
      "##gan": 6280,
      "##ửng": 6281,
      "close": 6282,
      "ielts": 6283,
      "pô": 6284,
      "vỗ": 6285,
      "đao": 6286,
      "đũa": 6287,
      "nhẽo": 6288,
      "gián": 6289,
      "god": 6290,
      "1m8": 6291,
      "xẻng": 6292,
      "600k": 6293,
      "mùng": 6294,
      "vv": 6295,
      "vươn": 6296,
      "##eu": 6297,
      "##for": 6298,
      "##cb": 6299,
      "##cer": 6300,
      "##ica": 6301,
      "30t": 6302,
      "dead": 6303,
      "sedan": 6304,
      "fifa": 6305,
      "vacc": 6306,
      "5m": 6307,
      "lìn": 6308,
      "rát": 6309,
      "ten": 6310,
      "yam": 6311,
      "##ach": 6312,
      "##tream": 6313,
      "vietnam": 6314,
      "##flix": 6315,
      "93": 6316,
      "kan": 6317,
      "lz": 6318,
      "mọe": 6319,
      "nách": 6320,
      "độn": 6321,
      "****": 6322,
      "túy": 6323,
      "ớn": 6324,
      "trẩu": 6325,
      "đcm": 6326,
      "##oom": 6327,
      "huỳnh": 6328,
      "rod": 6329,
      "fap": 6330,
      "mâu": 6331,
      "##pic": 6332,
      "điểu": 6333,
      "thuẫn": 6334,
      "jav": 6335,
      "túm": 6336,
      "cựu": 6337,
      "42": 6338,
      "bre": 6339,
      "bít": 6340,
      "lân": 6341,
      "sấy": 6342,
      "ua": 6343,
      "đính": 6344,
      "phước": 6345,
      "nguội": 6346,
      "hnay": 6347,
      "##boy": 6348,
      "civic": 6349,
      "thụy": 6350,
      "dời": 6351,
      "tặc": 6352,
      "##lđ": 6353,
      "##ith": 6354,
      "bot": 6355,
      "beat": 6356,
      "follow": 6357,
      "cạch": 6358,
      "dúi": 6359,
      "dream": 6360,
      "fc": 6361,
      "kp": 6362,
      "mả": 6363,
      "por": 6364,
      "val": 6365,
      "cover": 6366,
      "ghen": 6367,
      "btc": 6368,
      "60k": 6369,
      "97": 6370,
      "?\"": 6371,
      "dk": 6372,
      "dối": 6373,
      "mr": 6374,
      "##fc": 6375,
      "##vo": 6376,
      "phượng": 6377,
      "giãy": 6378,
      "quậy": 6379,
      "##ani": 6380,
      "##amin": 6381,
      "##ork": 6382,
      "nike": 6383,
      "vina": 6384,
      "nhiu": 6385,
      "offline": 6386,
      "netflix": 6387,
      "single": 6388,
      "dn": 6389,
      "diệu": 6390,
      "ka": 6391,
      "u23": 6392,
      "xk": 6393,
      "út": 6394,
      "tựa": 6395,
      "die": 6396,
      "plus": 6397,
      "vpbank": 6398,
      "hòm": 6399,
      "##aaaa": 6400,
      "aff": 6401,
      "cù": 6402,
      "gắp": 6403,
      "mk": 6404,
      "mxh": 6405,
      "đồi": 6406,
      "##zer": 6407,
      "##ụy": 6408,
      "giáng": 6409,
      "##cha": 6410,
      "hoại": 6411,
      "tag": 6412,
      "vozfa": 6413,
      "huhu": 6414,
      "bói": 6415,
      "39": 6416,
      "aka": 6417,
      "bựa": 6418,
      "qbv": 6419,
      "rình": 6420,
      "##lk": 6421,
      "##lon": 6422,
      "kiêng": 6423,
      "tiễn": 6424,
      "##ley": 6425,
      "##shi": 6426,
      "qr": 6427,
      "ván": 6428,
      "vớt": 6429,
      "wo": 6430,
      "xâm": 6431,
      "đl": 6432,
      "##no": 6433,
      "##ếng": 6434,
      "nhằm": 6435,
      "điêu": 6436,
      "tip": 6437,
      "##trol": 6438,
      "boss": 6439,
      "spo": 6440,
      "nguyệt": 6441,
      "vozfapp": 6442,
      "!!": 6443,
      "800k": 6444,
      "bưu": 6445,
      "dv": 6446,
      "gai": 6447,
      "đì": 6448,
      "nhện": 6449,
      "doạ": 6450,
      "##rom": 6451,
      "diêm": 6452,
      "ruồi": 6453,
      "hc": 6454,
      "kẹp": 6455,
      "măng": 6456,
      "mạo": 6457,
      "tẹt": 6458,
      "ói": 6459,
      "##lit": 6460,
      "chọt": 6461,
      "home": 6462,
      "med": 6463,
      "seltos": 6464,
      "3m": 6465,
      "fai": 6466,
      "kép": 6467,
      "len": 6468,
      "nỉ": 6469,
      "##qg": 6470,
      "bịch": 6471,
      "tuc": 6472,
      "thoả": 6473,
      "##sta": 6474,
      "liễu": 6475,
      "mot": 6476,
      "niêm": 6477,
      "desi": 6478,
      "cộ": 6479,
      "câm": 6480,
      "kane": 6481,
      "##ama": 6482,
      "đổng": 6483,
      "camry": 6484,
      "?!": 6485,
      "lố": 6486,
      "thóc": 6487,
      "chan": 6488,
      "trym": 6489,
      "##bot": 6490,
      "csgt": 6491,
      "credit": 6492,
      "fo": 6493,
      "ht": 6494,
      "mor": 6495,
      "ql": 6496,
      "ren": 6497,
      "đạc": 6498,
      "##ni": 6499,
      "thây": 6500,
      "khống": 6501,
      "quát": 6502,
      "tur": 6503,
      "##coin": 6504,
      "300tr": 6505,
      "tgdd": 6506,
      "tóp": 6507,
      "massage": 6508,
      "olym": 6509,
      "blv": 6510,
      "bẫy": 6511,
      "cậy": 6512,
      "dri": 6513,
      "ios": 6514,
      "oh": 6515,
      "pas": 6516,
      "ngắt": 6517,
      "hoành": 6518,
      "tuý": 6519,
      "tím": 6520,
      "##riend": 6521,
      "fred": 6522,
      "crv": 6523,
      "malay": 6524,
      "seeder": 6525,
      "85": 6526,
      "bim": 6527,
      "gas": 6528,
      "kpi": 6529,
      "láng": 6530,
      "niềng": 6531,
      "sò": 6532,
      "sét": 6533,
      "xó": 6534,
      "##mart": 6535,
      "##ana": 6536,
      "##ini": 6537,
      "nhàm": 6538,
      "40tr": 6539,
      "##ctor": 6540,
      "khuyết": 6541,
      "##--------": 6542,
      "49": 6543,
      "dkm": 6544,
      "gara": 6545,
      "hũ": 6546,
      "xỏ": 6547,
      "ẩu": 6548,
      "##16": 6549,
      "khẩn": 6550,
      "giếng": 6551,
      "load": 6552,
      "11h": 6553,
      "cry": 6554,
      "##uuuu": 6555,
      "otp": 6556,
      "88": 6557,
      "bư": 6558,
      "balo": 6559,
      "##ler": 6560,
      "##za": 6561,
      "##bao": 6562,
      "ghệ": 6563,
      "##oooo": 6564,
      "trợn": 6565,
      "start": 6566,
      "sms": 6567,
      "##gggg": 6568,
      "blue": 6569,
      "senior": 6570,
      "xl7": 6571,
      "ceo": 6572,
      "nhè": 6573,
      "trật": 6574,
      "suýt": 6575,
      "teen": 6576,
      "sưu": 6577,
      "##zza": 6578,
      "--": 6579,
      "80k": 6580,
      "hen": 6581,
      "lêu": 6582,
      "mall": 6583,
      "rê": 6584,
      "ráo": 6585,
      "##su": 6586,
      "nhây": 6587,
      "##ướn": 6588,
      "hold": 6589,
      "nhẹt": 6590,
      "vía": 6591,
      "nvx": 6592,
      "rank": 6593,
      "kẽ": 6594,
      "ròi": 6595,
      "rẫy": 6596,
      "vê": 6597,
      "ủy": 6598,
      "##ei": 6599,
      "##get": 6600,
      "thê": 6601,
      "nhúng": 6602,
      "ngây": 6603,
      "trầy": 6604,
      "chill": 6605,
      "juve": 6606,
      "4g": 6607,
      "70k": 6608,
      "dìm": 6609,
      "hước": 6610,
      "hqua": 6611,
      "xn": 6612,
      "xị": 6613,
      "##press": 6614,
      "##car": 6615,
      "trèo": 6616,
      "##eep": 6617,
      "sign": 6618,
      "stk": 6619,
      "hỗn": 6620,
      "360": 6621,
      "02": 6622,
      "92": 6623,
      "cọ": 6624,
      "eo": 6625,
      "hong": 6626,
      "lanh": 6627,
      "part": 6628,
      "q1": 6629,
      "vây": 6630,
      "##lin": 6631,
      "thọt": 6632,
      "chánh": 6633,
      "phil": 6634,
      "##enal": 6635,
      "loãng": 6636,
      "ads": 6637,
      "premi": 6638,
      "hagl": 6639,
      "43": 6640,
      "cầy": 6641,
      "squ": 6642,
      "##>>": 6643,
      "tròng": 6644,
      "##000": 6645,
      "##idas": 6646,
      "))))))": 6647,
      "160": 6648,
      "pizza": 6649,
      "pkl": 6650,
      "ap": 6651,
      "cặn": 6652,
      "from": 6653,
      "hl": 6654,
      "ue": 6655,
      "xổ": 6656,
      "xôm": 6657,
      "chày": 6658,
      "bịt": 6659,
      "tuyết": 6660,
      "moi": 6661,
      "mode": 6662,
      "nole": 6663,
      "tele": 6664,
      "adidas": 6665,
      "bàng": 6666,
      "dẹo": 6667,
      "klo": 6668,
      "mè": 6669,
      "mba": 6670,
      "sặc": 6671,
      "##gr": 6672,
      "##ham": 6673,
      "thỏ": 6674,
      "khè": 6675,
      "giở": 6676,
      "core": 6677,
      "khổng": 6678,
      "##ager": 6679,
      "25k": 6680,
      "gold": 6681,
      "nề": 6682,
      "nịt": 6683,
      "oai": 6684,
      "ya": 6685,
      "##du": 6686,
      "phượt": 6687,
      "##ames": 6688,
      "sor": 6689,
      "thoi": 6690,
      "##ster": 6691,
      "cụm": 6692,
      "cashback": 6693,
      "citi": 6694,
      "dr": 6695,
      "hard": 6696,
      "je": 6697,
      "ton": 6698,
      "tẹo": 6699,
      "đới": 6700,
      "ất": 6701,
      "##ux": 6702,
      "##zo": 6703,
      "thèn": 6704,
      "nhông": 6705,
      "màng": 6706,
      "love": 6707,
      "khoang": 6708,
      "##ida": 6709,
      "2009": 6710,
      "pos": 6711,
      "bdbc": 6712,
      "lives": 6713,
      "iran": 6714,
      "dẻo": 6715,
      "ultra": 6716,
      "yamaha": 6717,
      "her": 6718,
      "pau": 6719,
      "##room": 6720,
      "##ccc": 6721,
      "camp": 6722,
      "1tr5": 6723,
      "wibu": 6724,
      ",..": 6725,
      "01": 6726,
      "cg": 6727,
      "gậy": 6728,
      "hời": 6729,
      "lồ": 6730,
      "lạng": 6731,
      "rỉ": 6732,
      "rập": 6733,
      "sẹo": 6734,
      "##tk": 6735,
      "##ok": 6736,
      "khoác": 6737,
      "roi": 6738,
      "goat": 6739,
      "bầy": 6740,
      "cali": 6741,
      "gởi": 6742,
      "hăng": 6743,
      "##25": 6744,
      "ngục": 6745,
      "kiêm": 6746,
      "timo": 6747,
      "vcđ": 6748,
      "hah": 6749,
      "robot": 6750,
      "##dom": 6751,
      "tpbank": 6752,
      "##ject": 6753,
      ",....": 6754,
      "aw": 6755,
      "bùn": 6756,
      "gm": 6757,
      "mart": 6758,
      "tanh": 6759,
      "vốt": 6760,
      "vách": 6761,
      "##port": 6762,
      "##pool": 6763,
      "##yo": 6764,
      "trổ": 6765,
      "thun": 6766,
      "......": 6767,
      "pot": 6768,
      "genz": 6769,
      "nhoé": 6770,
      "bonus": 6771,
      "vaccine": 6772,
      "dỗi": 6773,
      "hột": 6774,
      "vế": 6775,
      "chư": 6776,
      "reg": 6777,
      "model": 6778,
      "cvt": 6779,
      "pcx": 6780,
      "700k": 6781,
      "bọ": 6782,
      "bón": 6783,
      "kẹc": 6784,
      "rán": 6785,
      "xx": 6786,
      "xò": 6787,
      "đkm": 6788,
      "##ami": 6789,
      "##ati": 6790,
      "##aland": 6791,
      "##ory": 6792,
      "##iter": 6793,
      "cưỡng": 6794,
      "500tr": 6795,
      "showroom": 6796,
      "##soft": 6797,
      "arsenal": 6798,
      "dãy": 6799,
      "hóc": 6800,
      "lg": 6801,
      "rắc": 6802,
      "tạng": 6803,
      "ub": 6804,
      "khứa": 6805,
      "tia": 6806,
      "##load": 6807,
      "##ics": 6808,
      "khuẩn": 6809,
      "mie": 6810,
      "##oney": 6811,
      "##tttt": 6812,
      "94": 6813,
      "gp": 6814,
      "k3": 6815,
      "kind": 6816,
      "mép": 6817,
      "rải": 6818,
      "##ez": 6819,
      "##ling": 6820,
      "##qs": 6821,
      "quật": 6822,
      "tuân": 6823,
      "bik": 6824,
      "##pppp": 6825,
      "bén": 6826,
      "marvel": 6827,
      "flop": 6828,
      "friend": 6829,
      "gọng": 6830,
      "kèn": 6831,
      "nệ": 6832,
      "om": 6833,
      "opp": 6834,
      "chì": 6835,
      "tuột": 6836,
      "art": 6837,
      "##map": 6838,
      "fresh": 6839,
      "##ture": 6840,
      "member": 6841,
      "bitcoin": 6842,
      "1t": 6843,
      "cra": 6844,
      "dal": 6845,
      "gật": 6846,
      "kè": 6847,
      "ken": 6848,
      "mầm": 6849,
      "sá": 6850,
      "##lf": 6851,
      "giọt": 6852,
      "quấn": 6853,
      "fency": 6854,
      "##aru": 6855,
      "make": 6856,
      "rip": 6857,
      "2007": 6858,
      "canada": 6859,
      "##eller": 6860,
      "evn": 6861,
      "twit": 6862,
      "reaction": 6863,
      "uae": 6864,
      "olympic": 6865,
      "cẩm": 6866,
      "kl": 6867,
      "máng": 6868,
      "ní": 6869,
      "pccc": 6870,
      "sịp": 6871,
      "vồ": 6872,
      "whi": 6873,
      "##ban": 6874,
      "##150": 6875,
      "thiền": 6876,
      "khét": 6877,
      "quèn": 6878,
      "##ont": 6879,
      "##cept": 6880,
      "track": 6881,
      "250k": 6882,
      "acb": 6883,
      "haizzz": 6884,
      "karao": 6885,
      "ronal": 6886,
      "%/": 6887,
      "48": 6888,
      "bòi": 6889,
      "nịnh": 6890,
      "sên": 6891,
      "##tc": 6892,
      "##65": 6893,
      "##ers": 6894,
      "dcm": 6895,
      "xảo": 6896,
      "usb": 6897,
      "sony": 6898,
      "bg": 6899,
      "bợ": 6900,
      "cành": 6901,
      "dz": 6902,
      "hòn": 6903,
      "lợm": 6904,
      "qà": 6905,
      "seo": 6906,
      "sói": 6907,
      "vle": 6908,
      "xao": 6909,
      "##ax": 6910,
      "##ds": 6911,
      "##cted": 6912,
      "##45": 6913,
      "giơ": 6914,
      "girl": 6915,
      "hoạn": 6916,
      "name": 6917,
      "##key": 6918,
      "power": 6919,
      "cưỡi": 6920,
      "manager": 6921,
      "180": 6922,
      "##file": 6923,
      "##site": 6924,
      "kẻo": 6925,
      "react": 6926,
      "-->": 6927,
      "kén": 6928,
      "pri": 6929,
      "râm": 6930,
      "rầm": 6931,
      "sòng": 6932,
      "vung": 6933,
      "yết": 6934,
      "##ix": 6935,
      "##off": 6936,
      "##vin": 6937,
      "chước": 6938,
      "nhị": 6939,
      "nhốt": 6940,
      "profile": 6941,
      "stu": 6942,
      "ssd": 6943,
      "karaoke": 6944,
      "72": 6945,
      "i10": 6946,
      "xy": 6947,
      "xê": 6948,
      "ye": 6949,
      "##tn": 6950,
      "##24": 6951,
      "##don": 6952,
      "char": 6953,
      "nháo": 6954,
      "hoãn": 6955,
      "vitamin": 6956,
      "nốc": 6957,
      "vếu": 6958,
      "vượng": 6959,
      "đíu": 6960,
      "##21": 6961,
      "##xic": 6962,
      "##èng": 6963,
      "chặng": 6964,
      "nhơn": 6965,
      "tràng": 6966,
      "trans": 6967,
      "nàn": 6968,
      "vợt": 6969,
      "10p": 6970,
      "work": 6971,
      "paste": 6972,
      "kindle": 6973,
      "ang": 6974,
      "bụ": 6975,
      "biếu": 6976,
      "cỗ": 6977,
      "f0": 6978,
      "hù": 6979,
      "tđ": 6980,
      "xù": 6981,
      "đạm": 6982,
      "chập": 6983,
      "toả": 6984,
      "toxic": 6985,
      "short": 6986,
      "liga": 6987,
      "22t": 6988,
      "sexy": 6989,
      "gdp": 6990,
      "micro": 6991,
      "twitter": 6992,
      "bal": 6993,
      "ic": 6994,
      "nin": 6995,
      "nôm": 6996,
      "sọ": 6997,
      "##tf": 6998,
      "##val": 6999,
      "##que": 7000,
      "phì": 7001,
      "cow": 7002,
      "lưỡng": 7003,
      "đun": 7004,
      "adv": 7005,
      "##ply": 7006,
      "fed": 7007,
      "kante": 7008,
      "id": 7009,
      "lv": 7010,
      "lửng": 7011,
      "mứt": 7012,
      "mía": 7013,
      "rỗ": 7014,
      "qui": 7015,
      "quế": 7016,
      "thính": 7017,
      "tưng": 7018,
      ".........": 7019,
      "indog": 7020,
      "vf8": 7021,
      "liverpool": 7022,
      "47": 7023,
      "còng": 7024,
      "dang": 7025,
      "lốc": 7026,
      "ná": 7027,
      "pn": 7028,
      "đg": 7029,
      "##work": 7030,
      "##cle": 7031,
      "chưng": 7032,
      "giun": 7033,
      "vnd": 7034,
      "suối": 7035,
      "debit": 7036,
      "leak": 7037,
      "future": 7038,
      "xoa": 7039,
      "plat": 7040,
      "resort": 7041,
      "sancho": 7042,
      "##oi18": 7043,
      "classic": 7044,
      "asi": 7045,
      "b1": 7046,
      "dark": 7047,
      "lùng": 7048,
      "m10": 7049,
      "nao": 7050,
      "neo": 7051,
      "sin": 7052,
      "sỏi": 7053,
      "tép": 7054,
      "ấp": 7055,
      "##ir": 7056,
      "##des": 7057,
      "##300": 7058,
      "##ỏm": 7059,
      "khép": 7060,
      "sala": 7061,
      "20km": 7062,
      "vnpt": 7063,
      "silv": 7064,
      "110": 7065,
      "##ship": 7066,
      "good": 7067,
      "copa": 7068,
      "leader": 7069,
      "premium": 7070,
      "silva": 7071,
      "gộp": 7072,
      "tị": 7073,
      "xs": 7074,
      "##ox": 7075,
      "##sl": 7076,
      "##jo": 7077,
      "##ởn": 7078,
      "thò": 7079,
      "ngất": 7080,
      "vành": 7081,
      "hok": 7082,
      "tiếu": 7083,
      "##tage": 7084,
      "speed": 7085,
      "uniq": 7086,
      "livestream": 7087,
      "nệm": 7088,
      "5x": 7089,
      "bướ": 7090,
      "lụi": 7091,
      "mân": 7092,
      "núp": 7093,
      "nếp": 7094,
      "vọt": 7095,
      "wal": 7096,
      "##eet": 7097,
      "##((": 7098,
      "cor": 7099,
      "##ider": 7100,
      "nhuộm": 7101,
      "obz": 7102,
      "design": 7103,
      "dạt": 7104,
      "hớt": 7105,
      "hat": 7106,
      "kts": 7107,
      "lx": 7108,
      "met": 7109,
      "rả": 7110,
      "tank": 7111,
      "vẫy": 7112,
      "đọ": 7113,
      "cham": 7114,
      "low": 7115,
      "soạn": 7116,
      "##ason": 7117,
      "xỉn": 7118,
      "bidv": 7119,
      "đbrr": 7120,
      "bb": 7121,
      "bẩm": 7122,
      "bứt": 7123,
      "lụt": 7124,
      "mmo": 7125,
      "năn": 7126,
      "oxy": 7127,
      "vãn": 7128,
      "ếu": 7129,
      "##ron": 7130,
      "##35": 7131,
      "##úm": 7132,
      "chùi": 7133,
      "choét": 7134,
      "rac": 7135,
      "nghiệt": 7136,
      "cod": 7137,
      "##espa": 7138,
      "##ori": 7139,
      "##tom": 7140,
      "chói": 7141,
      "aeon": 7142,
      "milan": 7143,
      "dek": 7144,
      "##ymar": 7145,
      "bỉm": 7146,
      "ronaldo": 7147,
      "bớ": 7148,
      "cle": 7149,
      "fw": 7150,
      "gài": 7151,
      "lee": 7152,
      "morn": 7153,
      "ori": 7154,
      "pỏn": 7155,
      "rp": 7156,
      "rv": 7157,
      "rên": 7158,
      "um": 7159,
      "thạnh": 7160,
      "chàng": 7161,
      "chọi": 7162,
      "moẹ": 7163,
      "grap": 7164,
      "xoang": 7165,
      "##aku": 7166,
      "neymar": 7167,
      "bench": 7168,
      "help": 7169,
      "cal": 7170,
      "két": 7171,
      "lặt": 7172,
      "mí": 7173,
      "mún": 7174,
      "mướn": 7175,
      "rì": 7176,
      "user": 7177,
      "##sour": 7178,
      "##ựt": 7179,
      "##chu": 7180,
      "##chel": 7181,
      "kit": 7182,
      "hit": 7183,
      "hiv": 7184,
      "10m": 7185,
      "life": 7186,
      "##dow": 7187,
      "thúy": 7188,
      "excel": 7189,
      "cửu": 7190,
      "merc": 7191,
      "30km": 7192,
      "calo": 7193,
      "kaka": 7194,
      "uốn": 7195,
      "vèo": 7196,
      "##hn": 7197,
      "##ning": 7198,
      "##vit": 7199,
      "##brid": 7200,
      "##cl": 7201,
      "##__": 7202,
      "china": 7203,
      "nhọ": 7204,
      "ngọng": 7205,
      "dog": 7206,
      "10w": 7207,
      "##llll": 7208,
      "shoppe": 7209,
      "freel": 7210,
      "turbo": 7211,
      "morning": 7212,
      ":\"": 7213,
      "cy": 7214,
      "fdi": 7215,
      "flow": 7216,
      "james": 7217,
      "sưng": 7218,
      "sọt": 7219,
      "sida": 7220,
      "vch": 7221,
      "xpan": 7222,
      "##sad": 7223,
      "##óe": 7224,
      "ngọn": 7225,
      "##itch": 7226,
      "lex": 7227,
      "trap": 7228,
      "2024": 7229,
      "neu": 7230,
      "35k": 7231,
      "dbrr": 7232,
      "klopp": 7233,
      "41": 7234,
      "46": 7235,
      "5km": 7236,
      "af": 7237,
      "lỏi": 7238,
      "nỗ": 7239,
      "tã": 7240,
      "wan": 7241,
      "##ug": 7242,
      "##vc": 7243,
      "##ềm": 7244,
      "##ât": 7245,
      "nhăn": 7246,
      "ngẫu": 7247,
      "trá": 7248,
      "conte": 7249,
      "chảo": 7250,
      "chuoi18": 7251,
      "reco": 7252,
      "cav": 7253,
      "lyric": 7254,
      "hun": 7255,
      "cosplay": 7256,
      "bưởi": 7257,
      "bệ": 7258,
      "blo": 7259,
      "gàng": 7260,
      "hv": 7261,
      "hẹo": 7262,
      "lết": 7263,
      "mm": 7264,
      "md": 7265,
      "mói": 7266,
      "nắc": 7267,
      "sáp": 7268,
      "tar": 7269,
      "tml": 7270,
      "vat": 7271,
      "đong": 7272,
      "trade": 7273,
      "nghẻ": 7274,
      "##ari": 7275,
      "shark": 7276,
      "reply": 7277,
      "##tech": 7278,
      "taobao": 7279,
      "15km": 7280,
      "mom": 7281,
      "2006": 7282,
      "##vie": 7283,
      "##****": 7284,
      "evo": 7285,
      "mobile": 7286,
      "cerato": 7287,
      "white": 7288,
      "uniqlo": 7289,
      "69": 7290,
      "cọng": 7291,
      "hé": 7292,
      "hem": 7293,
      "icon": 7294,
      "ome": 7295,
      "pg": 7296,
      "rong": 7297,
      "with": 7298,
      "trg": 7299,
      "phao": 7300,
      "quấy": 7301,
      "##less": 7302,
      "spe": 7303,
      "##vice": 7304,
      "vac": 7305,
      "delay": 7306,
      "public": 7307,
      ":/": 7308,
      "hó": 7309,
      "nần": 7310,
      "nện": 7311,
      "sồn": 7312,
      "vâu": 7313,
      "xen": 7314,
      "##word": 7315,
      "##ste": 7316,
      "thản": 7317,
      "thám": 7318,
      "phin": 7319,
      "cũg": 7320,
      "hoả": 7321,
      "tab": 7322,
      "vozlit": 7323,
      "##ston": 7324,
      "##lly": 7325,
      "vozers": 7326,
      "2k4": 7327,
      "under": 7328,
      "buscu": 7329,
      "event": 7330,
      "tóe": 7331,
      "donate": 7332,
      "lzd": 7333,
      "woke": 7334,
      "omega": 7335,
      "2t": 7336,
      "cúi": 7337,
      "er": 7338,
      "e34": 7339,
      "ji": 7340,
      "lép": 7341,
      "mq": 7342,
      "nch": 7343,
      "odo": 7344,
      "xúi": 7345,
      "##pro": 7346,
      "##_shop": 7347,
      "ngỡ": 7348,
      "coca": 7349,
      "mag": 7350,
      "lụy": 7351,
      "##ney": 7352,
      "phàm": 7353,
      "chuoi18_shop": 7354,
      "==": 7355,
      "bas": 7356,
      "bsi": 7357,
      "dl": 7358,
      "dầm": 7359,
      "gt": 7360,
      "hh": 7361,
      "hùm": 7362,
      "kon": 7363,
      "miêu": 7364,
      "sr": 7365,
      "seller": 7366,
      "ur": 7367,
      "x10": 7368,
      "##mg": 7369,
      "##ting": 7370,
      "thạc": 7371,
      "save": 7372,
      "rapper": 7373,
      "hoy": 7374,
      "...\"": 7375,
      "ref": 7376,
      "mix": 7377,
      "##light": 7378,
      "nvqs": 7379,
      "pace": 7380,
      "nano": 7381,
      "green": 7382,
      "beek": 7383,
      "protected": 7384,
      "uefa": 7385,
      "xpander": 7386,
      "5p": 7387,
      "91": 7388,
      "az": 7389,
      "cừ": 7390,
      "jun": 7391,
      "nem": 7392,
      "oánh": 7393,
      "tồi": 7394,
      "đét": 7395,
      "##ten": 7396,
      "##ổng": 7397,
      "trắc": 7398,
      "hoan": 7399,
      "##0000": 7400,
      "12tr": 7401,
      "##aki": 7402,
      "squat": 7403,
      "##source": 7404,
      "5g": 7405,
      "70km": 7406,
      "eco": 7407,
      "rh": 7408,
      "rộ": 7409,
      "sục": 7410,
      "tám": 7411,
      "xơ": 7412,
      "zô": 7413,
      "##bl": 7414,
      "##òm": 7415,
      "chầu": 7416,
      "ngố": 7417,
      "ngài": 7418,
      "ngợi": 7419,
      "điếm": 7420,
      "nghành": 7421,
      "##ande": 7422,
      "dota": 7423,
      "##aro": 7424,
      "##ppy": 7425,
      "khuất": 7426,
      "project": 7427,
      "hype": 7428,
      "vietlo": 7429,
      "website": 7430,
      "##mos": 7431,
      "alb": 7432,
      "croat": 7433,
      "flash": 7434,
      "##!!!!!!!!": 7435,
      "madrid": 7436,
      "salah": 7437,
      "00": 7438,
      "60km": 7439,
      "dan": 7440,
      "get": 7441,
      "gun": 7442,
      "tành": 7443,
      "xóc": 7444,
      "##mon": 7445,
      "##14": 7446,
      "nhĩ": 7447,
      "ngụy": 7448,
      "toe": 7449,
      "##ere": 7450,
      "tựu": 7451,
      "suv": 7452,
      "diss": 7453,
      "##emon": 7454,
      "clg": 7455,
      "##lish": 7456,
      "window": 7457,
      "hyund": 7458,
      "arc": 7459,
      "altis": 7460,
      "spoil": 7461,
      "fresher": 7462,
      "hyundai": 7463,
      "bq": 7464,
      "bích": 7465,
      "biếng": 7466,
      "dra": 7467,
      "hm": 7468,
      "kỵ": 7469,
      "nạ": 7470,
      "oẳng": 7471,
      "zing": 7472,
      "tor": 7473,
      "cocc": 7474,
      "sure": 7475,
      "haki": 7476,
      "##ester": 7477,
      "plan": 7478,
      "open": 7479,
      "mbappe": 7480,
      "jp": 7481,
      "jd": 7482,
      "money": 7483,
      "nad": 7484,
      "nta": 7485,
      "qá": 7486,
      "rạch": 7487,
      "seed": 7488,
      "vespa": 7489,
      "wtf": 7490,
      "xêm": 7491,
      "”,": 7492,
      "##iz": 7493,
      "##fh": 7494,
      "##boo": 7495,
      "tháp": 7496,
      "ngạc": 7497,
      "tráo": 7498,
      "điềm": 7499,
      "đóm": 7500,
      "##entina": 7501,
      "##pha": 7502,
      "hybrid": 7503,
      "modric": 7504,
      "potter": 7505,
      "vleague": 7506,
      "studio": 7507,
      "album": 7508,
      "1kg": 7509,
      "feed": 7510,
      "gk": 7511,
      "ret": 7512,
      "ter": 7513,
      "x5": 7514,
      "##ny": 7515,
      "##bon": 7516,
      "##jc": 7517,
      "##75": 7518,
      "##//": 7519,
      "cóp": 7520,
      "lot": 7521,
      "ngoằng": 7522,
      "sosad": 7523,
      "land": 7524,
      "bhnt": 7525,
      "never": 7526,
      "sky": 7527,
      "350k": 7528,
      "hcv": 7529,
      "5kg": 7530,
      "62": 7531,
      "78": 7532,
      "cat": 7533,
      "gù": 7534,
      "kiềm": 7535,
      "mọt": 7536,
      "nết": 7537,
      "níu": 7538,
      "pd": 7539,
      "qt": 7540,
      "rờ": 7541,
      "xốp": 7542,
      "##100": 7543,
      "##66": 7544,
      "nhấc": 7545,
      "cuộn": 7546,
      "##ary": 7547,
      "shell": 7548,
      "sei": 7549,
      "manu": 7550,
      "##ury": 7551,
      "vario": 7552,
      "đna": 7553,
      "hello": 7554,
      "dalit": 7555,
      "ax": 7556,
      "cớt": 7557,
      "cic": 7558,
      "hờ": 7559,
      "kị": 7560,
      "lh": 7561,
      "tì": 7562,
      "u40": 7563,
      "vẹt": 7564,
      "ww": 7565,
      "xộn": 7566,
      "##gen": 7567,
      "##sd": 7568,
      "##xin": 7569,
      "nhang": 7570,
      "ngừ": 7571,
      "ngú": 7572,
      "khan": 7573,
      "phô": 7574,
      "phèo": 7575,
      "kixx": 7576,
      "toan": 7577,
      "vụn": 7578,
      "intel": 7579,
      "##ount": 7580,
      "##ked": 7581,
      "##tif": 7582,
      "5000": 7583,
      "300km": 7584,
      "60tr": 7585,
      "outsource": 7586,
      "piano": 7587,
      "kaido": 7588,
      "sorry": 7589,
      "sáu": 7590,
      "ninja": 7591,
      "mqh": 7592,
      "vietlott": 7593,
      "nadal": 7594,
      "04": 7595,
      "1x": 7596,
      "53": 7597,
      "6x": 7598,
      "ace": 7599,
      "bj": 7600,
      "mủ": 7601,
      "ray": 7602,
      "rơm": 7603,
      "sáo": 7604,
      "t2": 7605,
      "vét": 7606,
      "đôn": 7607,
      "ấu": 7608,
      "##zuki": 7609,
      "##bct": 7610,
      "##care": 7611,
      "##óp": 7612,
      "chửa": 7613,
      "nhủ": 7614,
      "trù": 7615,
      "phiêu": 7616,
      "giầy": 7617,
      "sacom": 7618,
      "chót": 7619,
      "2003": 7620,
      "now": 7621,
      "dịu": 7622,
      "freego": 7623,
      "130": 7624,
      "jean": 7625,
      "44": 7626,
      "ara": 7627,
      "bõ": 7628,
      "cad": 7629,
      "dằn": 7630,
      "húng": 7631,
      "kề": 7632,
      "kona": 7633,
      "mỗ": 7634,
      "word": 7635,
      "##ium": 7636,
      "##ford": 7637,
      "##zi": 7638,
      "##ỉu": 7639,
      "##ẫng": 7640,
      "trăn": 7641,
      "giỗ": 7642,
      "giỡn": 7643,
      "khoảnh": 7644,
      "ghiền": 7645,
      "villa": 7646,
      "soft": 7647,
      "##ated": 7648,
      "produ": 7649,
      "stat": 7650,
      "##arez": 7651,
      "##mom": 7652,
      "##max": 7653,
      "join": 7654,
      "will": 7655,
      "scb": 7656,
      "hổng": 7657,
      "backup": 7658,
      "bướm": 7659,
      ",,": 7660,
      "are": 7661,
      "eli": 7662,
      "fer": 7663,
      "hắc": 7664,
      "lew": 7665,
      "lgb": 7666,
      "rêu": 7667,
      "tước": 7668,
      "tản": 7669,
      "vôi": 7670,
      "át": 7671,
      "đò": 7672,
      "##ep": 7673,
      "##ware": 7674,
      "chèo": 7675,
      "nhích": 7676,
      "khang": 7677,
      "phè": 7678,
      "quách": 7679,
      "toẹt": 7680,
      "##amil": 7681,
      "roy": 7682,
      "bha": 7683,
      "audi": 7684,
      "reddit": 7685,
      "tokyo": 7686,
      "tucson": 7687,
      "67": 7688,
      "9tr": 7689,
      "a1": 7690,
      "băm": 7691,
      "bốn": 7692,
      "càn": 7693,
      "deep": 7694,
      "nắn": 7695,
      "pet": 7696,
      "west": 7697,
      "##wa": 7698,
      "##ếc": 7699,
      "thục": 7700,
      "nhũng": 7701,
      "phiến": 7702,
      "luỹ": 7703,
      "hix": 7704,
      "sou": 7705,
      "##eld": 7706,
      "trịnh": 7707,
      "nig": 7708,
      "niss": 7709,
      "xoáy": 7710,
      "198": 7711,
      "##tuber": 7712,
      "thaco": 7713,
      "rủa": 7714,
      "ướp": 7715,
      "ppw": 7716,
      "recomm": 7717,
      "08": 7718,
      "a2": 7719,
      "kara": 7720,
      "nơ": 7721,
      "oán": 7722,
      "sán": 7723,
      "##td": 7724,
      "##lt": 7725,
      "##đi": 7726,
      "giòn": 7727,
      "sanh": 7728,
      "luk": 7729,
      "vịn": 7730,
      "pop": 7731,
      "##ther": 7732,
      "cancel": 7733,
      "cno": 7734,
      "lgbt": 7735,
      "cạ": 7736,
      "der": 7737,
      "ei": 7738,
      "gặm": 7739,
      "lạp": 7740,
      "rệt": 7741,
      "wen": 7742,
      "watch": 7743,
      "àh": 7744,
      "##gro": 7745,
      "##hc": 7746,
      "##500": 7747,
      "chững": 7748,
      "chồn": 7749,
      "khít": 7750,
      "task": 7751,
      "bitis": 7752,
      "inox": 7753,
      "haaland": 7754,
      "gót": 7755,
      "24h": 7756,
      "office": 7757,
      "attr": 7758,
      "xyz": 7759,
      "ce": 7760,
      "căm": 7761,
      "cõi": 7762,
      "dat": 7763,
      "fun": 7764,
      "ger": 7765,
      "hùa": 7766,
      "lốt": 7767,
      "lủi": 7768,
      "meta": 7769,
      "nat": 7770,
      "pác": 7771,
      "porn": 7772,
      "rú": 7773,
      "tẩu": 7774,
      "uỷ": 7775,
      "zo": 7776,
      "##gram": 7777,
      "thiêu": 7778,
      "thòi": 7779,
      "kong": 7780,
      "kill": 7781,
      "torr": 7782,
      "##tru": 7783,
      "bug": 7784,
      "100m": 7785,
      "dec": 7786,
      "site": 7787,
      "serie": 7788,
      "titan": 7789,
      "2vc": 7790,
      "media": 7791,
      "7x": 7792,
      "90k": 7793,
      "alv": 7794,
      "bập": 7795,
      "găng": 7796,
      "hmm": 7797,
      "kq": 7798,
      "mư": 7799,
      "mần": 7800,
      "nới": 7801,
      "ster": 7802,
      "xiền": 7803,
      "xém": 7804,
      "##jt": 7805,
      "##74": 7806,
      "ngốc": 7807,
      "trán": 7808,
      "phây": 7809,
      "nghẹt": 7810,
      "chỉa": 7811,
      "##ươm": 7812,
      "ngoáy": 7813,
      "hợt": 7814,
      "suzuki": 7815,
      "xavi": 7816,
      "1500": 7817,
      "2005": 7818,
      "huề": 7819,
      "sưởi": 7820,
      "vietmap": 7821,
      "quỳnh": 7822,
      "protein": 7823,
      "nigga": 7824,
      "52": 7825,
      "68": 7826,
      "66": 7827,
      "::": 7828,
      "cấy": 7829,
      "cast": 7830,
      "elan": 7831,
      "fit": 7832,
      "gờ": 7833,
      "gán": 7834,
      "hằn": 7835,
      "lườm": 7836,
      "miến": 7837,
      "mướt": 7838,
      "oda": 7839,
      "ysl": 7840,
      "zid": 7841,
      "##az": 7842,
      "##bel": 7843,
      "trad": 7844,
      "buồng": 7845,
      "ling": 7846,
      "huệ": 7847,
      "leg": 7848,
      "come": 7849,
      "fact": 7850,
      "seag": 7851,
      "vietlot": 7852,
      "3000": 7853,
      "##biz": 7854,
      "setup": 7855,
      "just": 7856,
      "argen": 7857,
      "break": 7858,
      "drive": 7859,
      "bcs": 7860,
      "dé": 7861,
      "fod": 7862,
      "hụi": 7863,
      "kìm": 7864,
      "leed": 7865,
      "pour": 7866,
      "rr": 7867,
      "rầu": 7868,
      "sch": 7869,
      "##nis": 7870,
      "##lle": 7871,
      "##wood": 7872,
      "##13": 7873,
      "thạo": 7874,
      "ngáy": 7875,
      "giẻ": 7876,
      "nghía": 7877,
      "mẹo": 7878,
      "sour": 7879,
      "shaw": 7880,
      "##oro": 7881,
      "##ical": 7882,
      "road": 7883,
      "khía": 7884,
      "bhx": 7885,
      "18t": 7886,
      "chớp": 7887,
      "singap": 7888,
      "bye": 7889,
      "syn": 7890,
      "demo": 7891,
      "attrage": 7892,
      "zidane": 7893,
      "?.": 7894,
      "bở": 7895,
      "dy": 7896,
      "dô": 7897,
      "dải": 7898,
      "dong": 7899,
      "gao": 7900,
      "hand": 7901,
      "rúc": 7902,
      "rắm": 7903,
      "réo": 7904,
      "sta": 7905,
      "tẩm": 7906,
      "uổng": 7907,
      "vù": 7908,
      "wfh": 7909,
      "##kong": 7910,
      "##ốm": 7911,
      "nhác": 7912,
      "ngấm": 7913,
      "phồng": 7914,
      "giặc": 7915,
      "##ines": 7916,
      "loằng": 7917,
      "coder": 7918,
      "##tex": 7919,
      "inch": 7920,
      "##ital": 7921,
      "clm": 7922,
      "band": 7923,
      "moon": 7924,
      "comp": 7925,
      "golf": 7926,
      "logist": 7927,
      "service": 7928,
      "dòm": 7929,
      "fren": 7930,
      "##tul": 7931,
      "training": 7932,
      "match": 7933,
      "campuch": 7934,
      "hahaha": 7935,
      "lexus": 7936,
      "foden": 7937,
      "450": 7938,
      "56": 7939,
      "bủ": 7940,
      "ball": 7941,
      "dỡ": 7942,
      "hử": 7943,
      "oc": 7944,
      "pat": 7945,
      "qa": 7946,
      "q7": 7947,
      "vè": 7948,
      "zs": 7949,
      "ắt": 7950,
      "##page": 7951,
      "##og": 7952,
      "nhat": 7953,
      "ngạt": 7954,
      "trám": 7955,
      "choai": 7956,
      "kick": 7957,
      "##air": 7958,
      "local": 7959,
      "##imi": 7960,
      "vụt": 7961,
      "light": 7962,
      "cave": 7963,
      "120k": 7964,
      "motul": 7965,
      "crui": 7966,
      "90p": 7967,
      ",...)": 7968,
      "vpn": 7969,
      "argentina": 7970,
      "bait": 7971,
      "gmail": 7972,
      "oppa": 7973,
      "windows": 7974,
      "5s": 7975,
      "89": 7976,
      "ló": 7977,
      "nb": 7978,
      "ping": 7979,
      "rông": 7980,
      "rou": 7981,
      "who": 7982,
      "đọng": 7983,
      "##mer": 7984,
      "##fone": 7985,
      "##lor": 7986,
      "##ven": 7987,
      "##69": 7988,
      "##.=": 7989,
      "phọt": 7990,
      "luỵ": 7991,
      "toát": 7992,
      "kíp": 7993,
      "##emi": 7994,
      "đhs": 7995,
      "auth": 7996,
      "exc": 7997,
      "bím": 7998,
      "santa": 7999,
      "600tr": 8000,
      "range": 8001,
      "keyword": 8002,
      "cloud": 8003,
      "motor": 8004,
      "singapore": 8005,
      "campuchia": 8006,
      "buy": 8007,
      "bết": 8008,
      "das": 8009,
      "ep": 8010,
      "léo": 8011,
      "liếc": 8012,
      "móm": 8013,
      "pit": 8014,
      "sụt": 8015,
      "tầu": 8016,
      "##ial": 8017,
      "##sen": 8018,
      "##vu": 8019,
      "##vy": 8020,
      "thong": 8021,
      "thiếm": 8022,
      "chốn": 8023,
      "chôm": 8024,
      "nham": 8025,
      "ngách": 8026,
      "trơ": 8027,
      "tróc": 8028,
      "phàn": 8029,
      "giỏ": 8030,
      "rate": 8031,
      "how": 8032,
      "khoét": 8033,
      "bỏng": 8034,
      "##itar": 8035,
      "lane": 8036,
      "khui": 8037,
      "deb": 8038,
      "only": 8039,
      "##down": 8040,
      "##ffe": 8041,
      "pix": 8042,
      "accept": 8043,
      "scan": 8044,
      "bthg": 8045,
      "grande": 8046,
      "##iiiiiiii": 8047,
      "engine": 8048,
      "tuýp": 8049,
      "asian": 8050,
      "lukaku": 8051,
      "elantra": 8052,
      "2km": 8053,
      "2nd": 8054,
      "3t": 8055,
      "4m": 8056,
      "7k": 8057,
      "cđt": 8058,
      "etc": 8059,
      "gãi": 8060,
      "lâng": 8061,
      "made": 8062,
      "oi": 8063,
      "rựa": 8064,
      "u50": 8065,
      "ặc": 8066,
      "ộp": 8067,
      "##gin": 8068,
      "##zen": 8069,
      "##bal": 8070,
      "##ấng": 8071,
      "chắt": 8072,
      "chẩn": 8073,
      "chink": 8074,
      "nhóe": 8075,
      "trãi": 8076,
      "thìa": 8077,
      "quai": 8078,
      "sapa": 8079,
      "ramos": 8080,
      "cute": 8081,
      "nhỉnh": 8082,
      "bud": 8083,
      "##ela": 8084,
      "sup": 8085,
      "##asa": 8086,
      "okie": 8087,
      "khum": 8088,
      "##tive": 8089,
      "miss": 8090,
      "rolex": 8091,
      "##uble": 8092,
      "xoài": 8093,
      "bổn": 8094,
      "guitar": 8095,
      "kevin": 8096,
      "varane": 8097,
      "cdm": 8098,
      "##................................................................": 8099,
      "croatia": 8100,
      "seiko": 8101,
      "51": 8102,
      "86": 8103,
      "bìa": 8104,
      "côm": 8105,
      "cbi": 8106,
      "ds": 8107,
      "gốm": 8108,
      "hal": 8109,
      "lường": 8110,
      "lịt": 8111,
      "lõm": 8112,
      "miệt": 8113,
      "qatar": 8114,
      "sọc": 8115,
      "wr": 8116,
      "##eng": 8117,
      "##mt": 8118,
      "##ợp": 8119,
      "nhung": 8120,
      "ngừa": 8121,
      "khử": 8122,
      "phone": 8123,
      "điếc": 8124,
      "##ươc": 8125,
      "cool": 8126,
      "##ature": 8127,
      "12k": 8128,
      "2004": 8129,
      "nguyền": 8130,
      "25t": 8131,
      "25tr": 8132,
      "recommend": 8133,
      "\"?": 8134,
      "58": 8135,
      "=.=": 8136,
      "ber": 8137,
      "bục": 8138,
      "fel": 8139,
      "hắt": 8140,
      "lỳ": 8141,
      "mệ": 8142,
      "nêm": 8143,
      "q2": 8144,
      "sì": 8145,
      "sco": 8146,
      "tòi": 8147,
      "vắc": 8148,
      "yt": 8149,
      "zậy": 8150,
      "đệt": 8151,
      "##pto": 8152,
      "##sche": 8153,
      "ngóng": 8154,
      "gìn": 8155,
      "đóa": 8156,
      "loét": 8157,
      "sol": 8158,
      "bale": 8159,
      "##eek": 8160,
      "text": 8161,
      "##use": 8162,
      "##vert": 8163,
      "##die": 8164,
      "wiki": 8165,
      "random": 8166,
      "##sole": 8167,
      "lụa": 8168,
      "elon": 8169,
      "deadline": 8170,
      "basic": 8171,
      "##ground": 8172,
      "!?": 8173,
      "5w": 8174,
      "ava": 8175,
      "cồng": 8176,
      "lùm": 8177,
      "mao": 8178,
      "sto": 8179,
      "stop": 8180,
      "u19": 8181,
      "xịch": 8182,
      "##yth": 8183,
      "trừng": 8184,
      "giàn": 8185,
      "sacombank": 8186,
      "##inum": 8187,
      "dood": 8188,
      "##tain": 8189,
      "##ago": 8190,
      "rom": 8191,
      "seal": 8192,
      "account": 8193,
      "showbiz": 8194,
      "150tr": 8195,
      "hẻo": 8196,
      "##????": 8197,
      "champ": 8198,
      "650": 8199,
      "aub": 8200,
      "dam": 8201,
      "dặt": 8202,
      "hì": 8203,
      "hót": 8204,
      "jong": 8205,
      "lôm": 8206,
      "lat": 8207,
      "nong": 8208,
      "tụng": 8209,
      "vại": 8210,
      "##tle": 8211,
      "##wh": 8212,
      "##ũi": 8213,
      "nhún": 8214,
      "ngáp": 8215,
      "ngưu": 8216,
      "khôi": 8217,
      "giục": 8218,
      "củi": 8219,
      "luồng": 8220,
      "cuv": 8221,
      "vol": 8222,
      "bugi": 8223,
      "saigon": 8224,
      "cmg": 8225,
      "##ouse": 8226,
      "hàu": 8227,
      "##ipt": 8228,
      "story": 8229,
      "blu": 8230,
      "##lander": 8231,
      "macbook": 8232,
      "disc": 8233,
      "raize": 8234,
      "racing": 8235,
      "%)": 8236,
      "1p": 8237,
      "cược": 8238,
      "cell": 8239,
      "ft": 8240,
      "foo": 8241,
      "lầy": 8242,
      "mạ": 8243,
      "m7": 8244,
      "miếu": 8245,
      "múp": 8246,
      "nôi": 8247,
      "nạc": 8248,
      "rò": 8249,
      "uể": 8250,
      "xình": 8251,
      "xiếc": 8252,
      "xèng": 8253,
      "đốn": 8254,
      "##pal": 8255,
      "##ya": 8256,
      "##way": 8257,
      "thắp": 8258,
      "##ones": 8259,
      "luồn": 8260,
      "nhào": 8261,
      "double": 8262,
      "coun": 8263,
      "##lem": 8264,
      "ghẹ": 8265,
      "##ado": 8266,
      "moto": 8267,
      "fuk": 8268,
      "tester": 8269,
      "scam": 8270,
      "buffet": 8271,
      "##anced": 8272,
      "agri": 8273,
      "cđv": 8274,
      "ktx": 8275,
      "platinum": 8276,
      "spoiler": 8277,
      "elite": 8278,
      "54": 8279,
      "64": 8280,
      "cạp": 8281,
      "ff": 8282,
      "fast": 8283,
      "food": 8284,
      "lánh": 8285,
      "las": 8286,
      "liêu": 8287,
      "lẹt": 8288,
      "sủi": 8289,
      "tơi": 8290,
      "tịnh": 8291,
      "xệ": 8292,
      "##ift": 8293,
      "##tin": 8294,
      "##sch": 8295,
      "##zy": 8296,
      "##95": 8297,
      "thon": 8298,
      "thâu": 8299,
      "chằng": 8300,
      "nhám": 8301,
      "trỏ": 8302,
      "quàng": 8303,
      "quẹo": 8304,
      "##ượm": 8305,
      "khiêm": 8306,
      "loằn": 8307,
      "cut": 8308,
      "##elo": 8309,
      "##lol": 8310,
      "##ooth": 8311,
      "##pping": 8312,
      "noi": 8313,
      "spr": 8314,
      "fanpage": 8315,
      "##shit": 8316,
      "16km": 8317,
      "140": 8318,
      "cỏn": 8319,
      "alpha": 8320,
      "##cial": 8321,
      "xkld": 8322,
      "startup": 8323,
      "cừu": 8324,
      "junior": 8325,
      "pdf": 8326,
      "):": 8327,
      "---": 8328,
      ".​": 8329,
      "ctr": 8330,
      "dào": 8331,
      "foc": 8332,
      "hám": 8333,
      "lồi": 8334,
      "nã": 8335,
      "nor": 8336,
      "nặn": 8337,
      "room": 8338,
      "sent": 8339,
      "tẻ": 8340,
      "xừ": 8341,
      "ẹc": 8342,
      "##gpt": 8343,
      "##gue": 8344,
      "##hd": 8345,
      "##nk": 8346,
      "##kt": 8347,
      "##63": 8348,
      "##68": 8349,
      "nhen": 8350,
      "nhọn": 8351,
      "ngóc": 8352,
      "choi": 8353,
      "nghê": 8354,
      "control": 8355,
      "kid": 8356,
      "bur": 8357,
      "bike": 8358,
      "##ita": 8359,
      "haz": 8360,
      "líp": 8361,
      "lab": 8362,
      "tỉa": 8363,
      "cún": 8364,
      "1m5": 8365,
      "hsg": 8366,
      "feng": 8367,
      "luxury": 8368,
      "##nnnn": 8369,
      "hanoi": 8370,
      "batman": 8371,
      ")))))": 8372,
      "beef": 8373,
      "##form": 8374,
      "rodri": 8375,
      "xklđ": 8376,
      "crypto": 8377,
      "clear": 8378,
      "hunter": 8379,
      "nissan": 8380,
      "07": 8381,
      "alex": 8382,
      "bển": 8383,
      "gps": 8384,
      "hơ": 8385,
      "kềnh": 8386,
      "lác": 8387,
      "nah": 8388,
      "old": 8389,
      "vy": 8390,
      "##pm": 8391,
      "##fer": 8392,
      "##bin": 8393,
      "##õng": 8394,
      "nhô": 8395,
      "nhọc": 8396,
      "ngạch": 8397,
      "console": 8398,
      "tiger": 8399,
      "chịt": 8400,
      "but": 8401,
      "cmm": 8402,
      "cac": 8403,
      "hud": 8404,
      "fuck": 8405,
      "##list": 8406,
      "##aker": 8407,
      "btw": 8408,
      "##pect": 8409,
      "pepe": 8410,
      "võng": 8411,
      "chatgpt": 8412,
      "##125": 8413,
      "hacker": 8414,
      "chổng": 8415,
      "what": 8416,
      "6k": 8417,
      ":'": 8418,
      "cúc": 8419,
      "lb": 8420,
      "lali": 8421,
      "sd": 8422,
      "##gas": 8423,
      "##ves": 8424,
      "##17": 8425,
      "##core": 8426,
      "##ọm": 8427,
      "chạp": 8428,
      "phả": 8429,
      "phai": 8430,
      "luc": 8431,
      "tưới": 8432,
      "khoanh": 8433,
      "200m": 8434,
      "2002": 8435,
      "point": 8436,
      "víu": 8437,
      "##share": 8438,
      "theard": 8439,
      "delux": 8440,
      "disney": 8441,
      "glc": 8442,
      "mươi": 8443,
      "?,": 8444,
      "bộc": 8445,
      "bẩy": 8446,
      "diều": 8447,
      "fim": 8448,
      "gôn": 8449,
      "ig": 8450,
      "kô": 8451,
      "nỡ": 8452,
      "nương": 8453,
      "ow": 8454,
      "sâm": 8455,
      "ttt": 8456,
      "zị": 8457,
      "đặng": 8458,
      "ịt": 8459,
      "nhăng": 8460,
      "nhản": 8461,
      "lày": 8462,
      "khọm": 8463,
      "trâm": 8464,
      "trash": 8465,
      "phôi": 8466,
      "##ence": 8467,
      "hayuki": 8468,
      "coop": 8469,
      "20p": 8470,
      "anim": 8471,
      "##etua": 8472,
      "vịnh": 8473,
      "in4": 8474,
      "inst": 8475,
      "##eme": 8476,
      "login": 8477,
      "pick": 8478,
      "network": 8479,
      "4000": 8480,
      "news": 8481,
      "big4": 8482,
      "hrv": 8483,
      "dhs": 8484,
      "tennis": 8485,
      "kpop": 8486,
      "porsche": 8487,
      "vênh": 8488,
      "nín": 8489,
      "exciter": 8490,
      "budget": 8491,
      "focus": 8492,
      "++": 8493,
      "59": 8494,
      "aqua": 8495,
      "bừng": 8496,
      "bell": 8497,
      "f3": 8498,
      "gel": 8499,
      "gũi": 8500,
      "lắt": 8501,
      "lượm": 8502,
      "pq": 8503,
      "pé": 8504,
      "ry": 8505,
      "rôi": 8506,
      "rít": 8507,
      "srm": 8508,
      "tọi": 8509,
      "viền": 8510,
      "##ece": 8511,
      "##sic": 8512,
      "##dro": 8513,
      "##card": 8514,
      "##64": 8515,
      "chổi": 8516,
      "ngấy": 8517,
      "khao": 8518,
      "khanh": 8519,
      "muội": 8520,
      "toét": 8521,
      "hoắc": 8522,
      "hotel": 8523,
      "ting": 8524,
      "dizz": 8525,
      "rich": 8526,
      "30s": 8527,
      "pod": 8528,
      "boi": 8529,
      "##ffy": 8530,
      "banking": 8531,
      "láp": 8532,
      "john": 8533,
      "pir": 8534,
      "lòe": 8535,
      "400tr": 8536,
      "xỉa": 8537,
      "enter": 8538,
      "mịe": 8539,
      "##city": 8540,
      "quỵt": 8541,
      "photoshop": 8542,
      "pixel": 8543,
      "laliga": 8544,
      "77": 8545,
      "bem": 8546,
      "dỏm": 8547,
      "ganh": 8548,
      "hớ": 8549,
      "hẫng": 8550,
      "lút": 8551,
      "nến": 8552,
      "nấc": 8553,
      "riêu": 8554,
      "vơi": 8555,
      "vát": 8556,
      "đắm": 8557,
      "đạch": 8558,
      "đúp": 8559,
      "##cast": 8560,
      "chro": 8561,
      "nhằn": 8562,
      "##ens": 8563,
      "tuốt": 8564,
      "##eti": 8565,
      "##oun": 8566,
      "mãnh": 8567,
      "sea": 8568,
      "##ris": 8569,
      "ahi": 8570,
      "vietcombank": 8571,
      "đtqg": 8572,
      "outlander": 8573,
      "##bby": 8574,
      "java": 8575,
      "filter": 8576,
      "perez": 8577,
      "paris": 8578,
      "lmao": 8579,
      "layoff": 8580,
      "##gggggggg": 8581,
      "signature": 8582,
      "cavani": 8583,
      "nhatk": 8584,
      "hazard": 8585,
      "-.": 8586,
      "73": 8587,
      "750": 8588,
      "cẳng": 8589,
      "dột": 8590,
      "eb": 8591,
      "f12": 8592,
      "font": 8593,
      "hục": 8594,
      "mách": 8595,
      "mend": 8596,
      "nk": 8597,
      "pla": 8598,
      "port": 8599,
      "vel": 8600,
      "vest": 8601,
      "wall": 8602,
      "xơi": 8603,
      "zập": 8604,
      "úng": 8605,
      "##made": 8606,
      "##ik": 8607,
      "##long": 8608,
      "##kip": 8609,
      "##éc": 8610,
      "ngả": 8611,
      "ngải": 8612,
      "trau": 8613,
      "quây": 8614,
      "##iner": 8615,
      "##iness": 8616,
      "...,": 8617,
      "coach": 8618,
      "she": 8619,
      "shin": 8620,
      "##elli": 8621,
      "dig": 8622,
      "120km": 8623,
      "happy": 8624,
      "fuho": 8625,
      "stt": 8626,
      "##ndai": 8627,
      "carbon": 8628,
      "hdd": 8629,
      "highland": 8630,
      "harry": 8631,
      "singlemom": 8632,
      "vacxin": 8633,
      "auba": 8634,
      "05": 8635,
      "1v": 8636,
      "4r": 8637,
      "5l": 8638,
      "7km": 8639,
      "bợm": 8640,
      "cắc": 8641,
      "dế": 8642,
      "done": 8643,
      "dặm": 8644,
      "hẵn": 8645,
      "lẫy": 8646,
      "m8": 8647,
      "ncc": 8648,
      "nếm": 8649,
      "pts": 8650,
      "plot": 8651,
      "qn": 8652,
      "t6": 8653,
      "vff": 8654,
      "za": 8655,
      "đag": 8656,
      "##tun": 8657,
      "##nm": 8658,
      "##vate": 8659,
      "##day": 8660,
      "##king": 8661,
      "##củ": 8662,
      "nhò": 8663,
      "nhâm": 8664,
      "nhói": 8665,
      "nhma": 8666,
      "gif": 8667,
      "giựt": 8668,
      "quạ": 8669,
      "##uyen": 8670,
      "##cher": 8671,
      "muỗng": 8672,
      "take": 8673,
      "thoai": 8674,
      "vlog": 8675,
      "1200": 8676,
      "huyndai": 8677,
      "##viet": 8678,
      "xoăn": 8679,
      "stand": 8680,
      "goal": 8681,
      "vietin": 8682,
      "##kia": 8683,
      "orc": 8684,
      "metro": 8685,
      "matic": 8686,
      "obg": 8687,
      "everton": 8688,
      "microsoft": 8689,
      "dragon": 8690,
      "sterling": 8691,
      "source": 8692,
      "ahihi": 8693,
      "1km": 8694,
      "63": 8695,
      "8k": 8696,
      "87": 8697,
      "900k": 8698,
      "bụp": 8699,
      "bka": 8700,
      "gỏi": 8701,
      "gục": 8702,
      "gừng": 8703,
      "gượng": 8704,
      "kro": 8705,
      "lé": 8706,
      "mh": 8707,
      "mận": 8708,
      "mếu": 8709,
      "oxi": 8710,
      "rợ": 8711,
      "rọ": 8712,
      "tiệt": 8713,
      "vali": 8714,
      "zom": 8715,
      "ỉn": 8716,
      "ừm": 8717,
      "##ight": 8718,
      "##ye": 8719,
      "##bia": 8720,
      "##200": 8721,
      "##5k": 8722,
      "##cam": 8723,
      "##ắk": 8724,
      "##ẽn": 8725,
      "thpt": 8726,
      "chột": 8727,
      "chốc": 8728,
      "chướng": 8729,
      "quơ": 8730,
      "##ond": 8731,
      "raider": 8732,
      "emo": 8733,
      "luffy": 8734,
      "tick": 8735,
      "##aly": 8736,
      "##tial": 8737,
      "siri": 8738,
      "season": 8739,
      "vini": 8740,
      "tủy": 8741,
      "amer": 8742,
      "total": 8743,
      "ctay": 8744,
      "700tr": 8745,
      "switch": 8746,
      "download": 8747,
      "gaming": 8748,
      "mkt": 8749,
      "klq": 8750,
      "target": 8751,
      "product": 8752,
      "##truong": 8753,
      ":'(": 8754,
      "dj": 8755,
      "dú": 8756,
      "dấm": 8757,
      "f2": 8758,
      "hị": 8759,
      "hiên": 8760,
      "jan": 8761,
      "jord": 8762,
      "lóng": 8763,
      "m1": 8764,
      "mễ": 8765,
      "mống": 8766,
      "mầy": 8767,
      "nma": 8768,
      "qg": 8769,
      "sb": 8770,
      "sụ": 8771,
      "sjc": 8772,
      "vó": 8773,
      "xp": 8774,
      "zel": 8775,
      "##bg": 8776,
      "##98": 8777,
      "thét": 8778,
      "nhăm": 8779,
      "khong": 8780,
      "phỉnh": 8781,
      "saka": 8782,
      "kol": 8783,
      "choáng": 8784,
      "saudi": 8785,
      "cus": 8786,
      "dort": 8787,
      "soco": 8788,
      "vna": 8789,
      "vnvc": 8790,
      "##eline": 8791,
      "shock": 8792,
      "sgk": 8793,
      "pok": 8794,
      "youtuber": 8795,
      "##code": 8796,
      "bd3": 8797,
      "##qui": 8798,
      "acid": 8799,
      "scoo": 8800,
      "!!!!": 8801,
      "lảm": 8802,
      "xsr": 8803,
      "10w40": 8804,
      "freelance": 8805,
      "champion": 8806,
      "bluet": 8807,
      "chrome": 8808,
      "-.-": 8809,
      "bkav": 8810,
      "ase": 8811,
      "api": 8812,
      "bp": 8813,
      "bồng": 8814,
      "búp": 8815,
      "cq": 8816,
      "den": 8817,
      "kền": 8818,
      "lđ": 8819,
      "lở": 8820,
      "lự": 8821,
      "lộng": 8822,
      "mẫn": 8823,
      "mến": 8824,
      "mỉa": 8825,
      "núm": 8826,
      "zoom": 8827,
      "ùi": 8828,
      "ổi": 8829,
      "##ier": 8830,
      "##êt": 8831,
      "##jing": 8832,
      "##xd": 8833,
      "thắn": 8834,
      "thặc": 8835,
      "thỉu": 8836,
      "chóa": 8837,
      "chụy": 8838,
      "cóng": 8839,
      "quẻ": 8840,
      "kor": 8841,
      "choke": 8842,
      "thuỵ": 8843,
      "ghtk": 8844,
      "chuộc": 8845,
      "quyên": 8846,
      "maf": 8847,
      "cụp": 8848,
      "nova": 8849,
      "noho": 8850,
      "nokia": 8851,
      "polo": 8852,
      "lích": 8853,
      "fab": 8854,
      "##life": 8855,
      "2k5": 8856,
      "##old": 8857,
      "medi": 8858,
      "70tr": 8859,
      "unlock": 8860,
      "iporn": 8861,
      "2tr5": 8862,
      "version": 8863,
      "battle": 8864,
      "english": 8865,
      "gea": 8866,
      "alvarez": 8867,
      "bluetooth": 8868,
      "nohope": 8869,
      "$,": 8870,
      "3g": 8871,
      "82": 8872,
      "84": 8873,
      "bc": 8874,
      "deed": 8875,
      "fsoft": 8876,
      "fshare": 8877,
      "gal": 8878,
      "ktra": 8879,
      "nx": 8880,
      "nẻ": 8881,
      "nầy": 8882,
      "roo": 8883,
      "sô": 8884,
      "sùi": 8885,
      "tét": 8886,
      "vh": 8887,
      "vọc": 8888,
      "xát": 8889,
      "xít": 8890,
      "zen": 8891,
      "##mund": 8892,
      "##fit": 8893,
      "##lhc": 8894,
      "##sp": 8895,
      "##zu": 8896,
      "##92": 8897,
      "chội": 8898,
      "nhẩy": 8899,
      "ngợm": 8900,
      "khờ": 8901,
      "##ena": 8902,
      "town": 8903,
      "hoán": 8904,
      "ngoi": 8905,
      "##tri": 8906,
      "##cky": 8907,
      "##ima": 8908,
      "vnđ": 8909,
      "##reen": 8910,
      "rice": 8911,
      "hãn": 8912,
      "30m": 8913,
      "##tachi": 8914,
      "roma": 8915,
      "vinmart": 8916,
      "##verse": 8917,
      "##uma": 8918,
      "forex": 8919,
      "impl": 8920,
      "canxi": 8921,
      "dmx": 8922,
      "andre": 8923,
      "lẻo": 8924,
      "đệch": 8925,
      "gross": 8926,
      "martial": 8927,
      "newbie": 8928,
      "365": 8929,
      "ngộp": 8930,
      "hđlđ": 8931,
      "lún": 8932,
      "flag": 8933,
      "meme": 8934,
      "astra": 8935,
      "##eship": 8936,
      "casio": 8937,
      "##yyyy": 8938,
      "kdb": 8939,
      "81": 8940,
      "a7": 8941,
      "ams": 8942,
      "cỏi": 8943,
      "fm": 8944,
      "hỉ": 8945,
      "hộc": 8946,
      "hero": 8947,
      "ira": 8948,
      "lt": 8949,
      "lq": 8950,
      "need": 8951,
      "pate": 8952,
      "rub": 8953,
      "sến": 8954,
      "tút": 8955,
      "uất": 8956,
      "vằn": 8957,
      "đấng": 8958,
      "##gu": 8959,
      "##ock": 8960,
      "##ving": 8961,
      "chít": 8962,
      "ngụ": 8963,
      "host": 8964,
      "##loud": 8965,
      "##ady": 8966,
      "clgt": 8967,
      "##ages": 8968,
      "cheat": 8969,
      "mane": 8970,
      "180k": 8971,
      "2k2": 8972,
      "mòe": 8973,
      "mec": 8974,
      "serum": 8975,
      "cir": 8976,
      "1tr2": 8977,
      "napo": 8978,
      "business": 8979,
      "subaru": 8980,
      "skincare": 8981,
      "binz": 8982,
      "##express": 8983,
      "redmi": 8984,
      "mount": 8985,
      "nsx": 8986,
      "##hhhh": 8987,
      "namek": 8988,
      "lotte": 8989,
      "ngừoi": 8990,
      "lewan": 8991,
      "jordan": 8992,
      "asean": 8993,
      "1l": 8994,
      "aja": 8995,
      "cộc": 8996,
      "cằn": 8997,
      "eth": 8998,
      "lải": 8999,
      "luyên": 9000,
      "m4": 9001,
      "meo": 9002,
      "pọt": 9003,
      "rèm": 9004,
      "sả": 9005,
      "táp": 9006,
      "uet": 9007,
      "vde": 9008,
      "water": 9009,
      "ytb": 9010,
      "zơ": 9011,
      "ập": 9012,
      "ừa": 9013,
      "##ura": 9014,
      "##ple": 9015,
      "##ited": 9016,
      "##ww": 9017,
      "##sub": 9018,
      "##xa": 9019,
      "chêm": 9020,
      "nhê": 9021,
      "khư": 9022,
      "gio": 9023,
      "quài": 9024,
      "##ene": 9025,
      "##esta": 9026,
      "sound": 9027,
      "##ashi": 9028,
      "any": 9029,
      "##log": 9030,
      "chóp": 9031,
      "##ller": 9032,
      "lego": 9033,
      "xoạc": 9034,
      "##come": 9035,
      "creta": 9036,
      "pele": 9037,
      "mex": 9038,
      "nex": 9039,
      "uyên": 9040,
      "35t": 9041,
      "reps": 9042,
      "ranger": 9043,
      "cpu": 9044,
      "350tr": 9045,
      "cđm": 9046,
      "brick": 9047,
      "hongkong": 9048,
      "charge": 9049,
      "............": 9050,
      "##desk": 9051,
      "south": 9052,
      "torrent": 9053,
      "implant": 9054,
      "ajax": 9055,
      ")...": 9056,
      "06": 9057,
      "3km": 9058,
      "afc": 9059,
      "bnh": 9060,
      "bel": 9061,
      "cựa": 9062,
      "dầy": 9063,
      "dậm": 9064,
      "dsk": 9065,
      "ecu": 9066,
      "mỉ": 9067,
      "mịt": 9068,
      "mlem": 9069,
      "nang": 9070,
      "uầy": 9071,
      "vùi": 9072,
      "ẵm": 9073,
      "##iu": 9074,
      "##ness": 9075,
      "##link": 9076,
      "##bs": 9077,
      "##bre": 9078,
      "##cr": 9079,
      "##78": 9080,
      "##ăc": 9081,
      "thuyên": 9082,
      "thiến": 9083,
      "chao": 9084,
      "chài": 9085,
      "nhải": 9086,
      "ngặt": 9087,
      "kotex": 9088,
      "##antruong": 9089,
      "toa": 9090,
      "house": 9091,
      "bảnh": 9092,
      "cook": 9093,
      "##trong": 9094,
      "xuantruong": 9095,
      "tap": 9096,
      "buýt": 9097,
      "bac": 9098,
      "200km": 9099,
      "##lak": 9100,
      "hust": 9101,
      "xog": 9102,
      "vincom": 9103,
      "freeship": 9104,
      "manc": 9105,
      "ark": 9106,
      "ncap": 9107,
      "##zzzz": 9108,
      "80tr": 9109,
      "jota": 9110,
      "amd": 9111,
      "##gger": 9112,
      "carplay": 9113,
      "homme": 9114,
      "boxing": 9115,
      "background": 9116,
      "800tr": 9117,
      "smartphone": 9118,
      "paypal": 9119,
      "yoga": 9120,
      "đờm": 9121,
      "wanbi": 9122,
      "toeic": 9123,
      "##tify": 9124,
      "sync": 9125,
      "deluxe": 9126,
      "digital": 9127,
      "zelda": 9128,
      "custom": 9129,
      "pokemon": 9130,
      "79": 9131,
      "bặm": 9132,
      "eq": 9133,
      "gâu": 9134,
      "gpt": 9135,
      "gala": 9136,
      "lk": 9137,
      "lị": 9138,
      "lốn": 9139,
      "nớt": 9140,
      "nặc": 9141,
      "nar": 9142,
      "pyth": 9143,
      "q3": 9144,
      "rơ": 9145,
      "v2": 9146,
      "w30": 9147,
      "zồi": 9148,
      "zero": 9149,
      "đởn": 9150,
      "ẹp": 9151,
      "##pas": 9152,
      "##men": 9153,
      "##han": 9154,
      "##fl": 9155,
      "##oy": 9156,
      "##õa": 9157,
      "chẻ": 9158,
      "chằm": 9159,
      "chùm": 9160,
      "nheo": 9161,
      "tran": 9162,
      "trẹo": 9163,
      "phẩy": 9164,
      "gieo": 9165,
      "quệt": 9166,
      "sah": 9167,
      "kiêu": 9168,
      "dop": 9169,
      "tips": 9170,
      "xua": 9171,
      "20m": 9172,
      "diam": 9173,
      "dias": 9174,
      "##star": 9175,
      "##entus": 9176,
      "huaw": 9177,
      "nguyen": 9178,
      "##unk": 9179,
      "##ahah": 9180,
      "500km": 9181,
      "joke": 9182,
      "pence": 9183,
      "japan": 9184,
      "twist": 9185,
      "msb": 9186,
      "##nez": 9187,
      "trust": 9188,
      "smartkey": 9189,
      "limited": 9190,
      "cọp": 9191,
      "golden": 9192,
      "fwb": 9193,
      "wenbie": 9194,
      "seagame": 9195,
      "stock": 9196,
      "sirius": 9197,
      "dortmund": 9198,
      "socola": 9199,
      "huawei": 9200,
      "2p": 9201,
      "3s": 9202,
      "57": 9203,
      ":-": 9204,
      "bửa": 9205,
      "cằm": 9206,
      "găm": 9207,
      "lừng": 9208,
      "mải": 9209,
      "nực": 9210,
      "naru": 9211,
      "opt": 9212,
      "rè": 9213,
      "side": 9214,
      "tong": 9215,
      "xéo": 9216,
      "đươc": 9217,
      "ắc": 9218,
      "##mai": 9219,
      "##mate": 9220,
      "##lad": 9221,
      "##wi": 9222,
      "##36": 9223,
      "##ễng": 9224,
      "##ểng": 9225,
      "nhột": 9226,
      "ngan": 9227,
      "true": 9228,
      "nài": 9229,
      "kova": 9230,
      "tuộc": 9231,
      "cuống": 9232,
      "ngoặc": 9233,
      "hiu": 9234,
      "chuồn": 9235,
      "quyến": 9236,
      "buốt": 9237,
      "trailer": 9238,
      "ins": 9239,
      "insta": 9240,
      "maifen": 9241,
      "mos": 9242,
      "night": 9243,
      "@@.": 9244,
      "1m2": 9245,
      "240": 9246,
      "pres": 9247,
      "know": 9248,
      "tncn": 9249,
      "toilet": 9250,
      "##ieu": 9251,
      "##xyz": 9252,
      "great": 9253,
      "##155": 9254,
      "##chain": 9255,
      "##tttttttt": 9256,
      "leeds": 9257,
      "janus": 9258,
      "python": 9259,
      "!\"": 9260,
      ",.": 9261,
      "76": 9262,
      "bor": 9263,
      "bkh": 9264,
      "gươm": 9265,
      "hơm": 9266,
      "kun": 9267,
      "lậm": 9268,
      "mường": 9269,
      "mích": 9270,
      "nòng": 9271,
      "nũng": 9272,
      "rel": 9273,
      "sq": 9274,
      "tâng": 9275,
      "vụng": 9276,
      "x4": 9277,
      "đẹt": 9278,
      "##pad": 9279,
      "##mn": 9280,
      "##mas": 9281,
      "##ite": 9282,
      "##van": 9283,
      "##được": 9284,
      "##kai": 9285,
      "##̃̃": 9286,
      "thày": 9287,
      "chã": 9288,
      "ngần": 9289,
      "ngãi": 9290,
      "trát": 9291,
      "sar": 9292,
      "##ancer": 9293,
      "muống": 9294,
      "##aim": 9295,
      "khiêu": 9296,
      "co2": 9297,
      "cold": 9298,
      "##try": 9299,
      "##troi": 9300,
      "##ese": 9301,
      "suit": 9302,
      "vun": 9303,
      "trẻo": 9304,
      "mob": 9305,
      ".......": 9306,
      "linux": 9307,
      "dep": 9308,
      "roman": 9309,
      "bhtn": 9310,
      "audio": 9311,
      "quýt": 9312,
      "##andal": 9313,
      "##plus": 9314,
      "xìu": 9315,
      "techcombank": 9316,
      "truồng": 9317,
      "streamer": 9318,
      "young": 9319,
      "1m65": 9320,
      "limit": 9321,
      "##----------------": 9322,
      "crack": 9323,
      "private": 9324,
      "axit": 9325,
      "mendy": 9326,
      "zombie": 9327,
      "iraq": 9328,
      "circle": 9329,
      "mexico": 9330,
      "$/": 9331,
      "((": 9332,
      ".,": 9333,
      "cent": 9334,
      "cẹc": 9335,
      "det": 9336,
      "gô": 9337,
      "hân": 9338,
      "kang": 9339,
      "kat": 9340,
      "ktv": 9341,
      "lone": 9342,
      "nẹt": 9343,
      "nail": 9344,
      "od": 9345,
      "oil": 9346,
      "tone": 9347,
      "ux": 9348,
      "vò": 9349,
      "vót": 9350,
      "x1": 9351,
      "##if": 9352,
      "##ient": 9353,
      "##sm": 9354,
      "##vas": 9355,
      "##01": 9356,
      "thốt": 9357,
      "chực": 9358,
      "nhõi": 9359,
      "khay": 9360,
      "khốc": 9361,
      "khtn": 9362,
      "trồi": 9363,
      "cót": 9364,
      "phd": 9365,
      "phác": 9366,
      "mul": 9367,
      "##ươu": 9368,
      "tuchel": 9369,
      "volv": 9370,
      "##imar": 9371,
      "bund": 9372,
      "thiago": 9373,
      "claim": 9374,
      "tàm": 9375,
      "##agram": 9376,
      "bome": 9377,
      "spor": 9378,
      "vintage": 9379,
      "luyến": 9380,
      "cskh": 9381,
      "phổng": 9382,
      "respect": 9383,
      "cnc": 9384,
      "setting": 9385,
      "juv": 9386,
      "oscar": 9387,
      "self": 9388,
      "express": 9389,
      "overr": 9390,
      "everest": 9391,
      "rsx": 9392,
      "final": 9393,
      "fair": 9394,
      "kẽm": 9395,
      "freelancer": 9396,
      "##stem": 9397,
      "bql": 9398,
      "cancelo": 9399,
      "fuckboy": 9400,
      "instagram": 9401,
      "=)": 9402,
      "bử": 9403,
      "bass": 9404,
      "dường": 9405,
      "flex": 9406,
      "hb": 9407,
      "hễ": 9408,
      "jet": 9409,
      "kin": 9410,
      "kaw": 9411,
      "mền": 9412,
      "mama": 9413,
      "pfi": 9414,
      "rb": 9415,
      "rush": 9416,
      "slo": 9417,
      "tx": 9418,
      "tể": 9419,
      "uz": 9420,
      "use": 9421,
      "xèo": 9422,
      "ze": 9423,
      "ẳng": 9424,
      "##mau": 9425,
      "##mark": 9426,
      "##ac": 9427,
      "##sia": 9428,
      "chừ": 9429,
      "khắt": 9430,
      "khập": 9431,
      "trip": 9432,
      "##ons": 9433,
      "đóe": 9434,
      "tuồn": 9435,
      "##00km": 9436,
      "doo": 9437,
      "bộn": 9438,
      "##tey": 9439,
      "inb": 9440,
      "##ident": 9441,
      "hub": 9442,
      ")).": 9443,
      "##ili": 9444,
      "11k": 9445,
      "##rist": 9446,
      "40t": 9447,
      "fish": 9448,
      "13tr": 9449,
      "prime": 9450,
      "navit": 9451,
      "kepa": 9452,
      "wigo": 9453,
      "vdv": 9454,
      "28t": 9455,
      "binance": 9456,
      "blđ": 9457,
      "container": 9458,
      "laut": 9459,
      "=]]]": 9460,
      "120tr": 9461,
      "player": 9462,
      "##post": 9463,
      "system": 9464,
      "bright": 9465,
      "spotify": 9466,
      "##uuuuuuuu": 9467,
      "philip": 9468,
      "##********": 9469,
      "diamond": 9470,
      "volvo": 9471,
      "navitel": 9472,
      "bỡ": 9473,
      "bam": 9474,
      "bme": 9475,
      "dậu": 9476,
      "gat": 9477,
      "glo": 9478,
      "hạp": 9479,
      "lổ": 9480,
      "máo": 9481,
      "ner": 9482,
      "nịch": 9483,
      "oách": 9484,
      "oman": 9485,
      "q12": 9486,
      "rìa": 9487,
      "tch": 9488,
      "tậu": 9489,
      "v1": 9490,
      "vga": 9491,
      "well": 9492,
      "ún": 9493,
      "đx": 9494,
      "đay": 9495,
      "ỉm": 9496,
      "ỏi": 9497,
      "##ren": 9498,
      "##tg": 9499,
      "##late": 9500,
      "##sc": 9501,
      "##9k": 9502,
      "##quy": 9503,
      "thọi": 9504,
      "sand": 9505,
      "cour": 9506,
      "##adona": 9507,
      "dùi": 9508,
      "mak": 9509,
      "vcd": 9510,
      "upload": 9511,
      "roll": 9512,
      "lenh": 9513,
      "blockchain": 9514,
      "##boi": 9515,
      "cru": 9516,
      "fire": 9517,
      "2k3": 9518,
      "petrol": 9519,
      "##tvt": 9520,
      "pika": 9521,
      "220": 9522,
      "maradona": 9523,
      "chaymau": 9524,
      "sonet": 9525,
      "fran": 9526,
      "avt": 9527,
      "menu": 9528,
      "##bull": 9529,
      "grand": 9530,
      "esl": 9531,
      "mg5": 9532,
      "1m75": 9533,
      "edp": 9534,
      "tmđt": 9535,
      "##tball": 9536,
      "gear": 9537,
      "paul": 9538,
      "helpdesk": 9539,
      "##chelin": 9540,
      "lyrics": 9541,
      "blog": 9542,
      "naruto": 9543,
      "pfizer": 9544,
      "0đ": 9545,
      "4t": 9546,
      "bòn": 9547,
      "d3": 9548,
      "dệt": 9549,
      "dna": 9550,
      "ear": 9551,
      "gb": 9552,
      "g7": 9553,
      "hất": 9554,
      "jin": 9555,
      "lưa": 9556,
      "let": 9557,
      "lứng": 9558,
      "mọ": 9559,
      "mớm": 9560,
      "mém": 9561,
      "nl": 9562,
      "pẹ": 9563,
      "pages": 9564,
      "q5": 9565,
      "rợn": 9566,
      "són": 9567,
      "tf": 9568,
      "tng": 9569,
      "tởn": 9570,
      "xán": 9571,
      "ẻo": 9572,
      "ọp": 9573,
      "##good": 9574,
      "##ipp": 9575,
      "##nel": 9576,
      "##fu": 9577,
      "##fun": 9578,
      "##ky": 9579,
      "##650": 9580,
      "chỏ": 9581,
      "chẵn": 9582,
      "khê": 9583,
      "khẩy": 9584,
      "phách": 9585,
      "race": 9586,
      "concept": 9587,
      "bịu": 9588,
      "cum": 9589,
      "##tron": 9590,
      "10s": 9591,
      "##alth": 9592,
      "vler": 9593,
      "suông": 9594,
      "##ppa": 9595,
      "kít": 9596,
      "mach": 9597,
      "nuột": 9598,
      "nude": 9599,
      "pomade": 9600,
      "michelin": 9601,
      "trick": 9602,
      "bosch": 9603,
      "silic": 9604,
      "##lick": 9605,
      "?????": 9606,
      "adn": 9607,
      "500m": 9608,
      "##ttle": 9609,
      "tgd": 9610,
      "piece": 9611,
      "##quest": 9612,
      "alt": 9613,
      "active": 9614,
      "sne": 9615,
      "##))))))))": 9616,
      "tcb": 9617,
      "##eshow": 9618,
      "đek": 9619,
      "arteta": 9620,
      "##____": 9621,
      "derby": 9622,
      "debut": 9623,
      "football": 9624,
      "sprint": 9625,
      "bundes": 9626,
      "lautaro": 9627,
      "5cm": 9628,
      "6m": 9629,
      "bôn": 9630,
      "bêu": 9631,
      "eri": 9632,
      "famil": 9633,
      "has": 9634,
      "itachi": 9635,
      "lét": 9636,
      "lói": 9637,
      "lằn": 9638,
      "mồng": 9639,
      "oang": 9640,
      "pê": 9641,
      "pak": 9642,
      "qđ": 9643,
      "s2": 9644,
      "séc": 9645,
      "t3": 9646,
      "tếu": 9647,
      "yếm": 9648,
      "đận": 9649,
      "đanh": 9650,
      "##ec": 9651,
      "##stream": 9652,
      "##bar": 9653,
      "##base": 9654,
      "##đó": 9655,
      "##db": 9656,
      "##ken": 9657,
      "##ĩa": 9658,
      "thơi": 9659,
      "thim": 9660,
      "nhứt": 9661,
      "ngắc": 9662,
      "giòi": 9663,
      "qué": 9664,
      "quịt": 9665,
      "##uyễn": 9666,
      "choice": 9667,
      "nghen": 9668,
      "music": 9669,
      "##aming": 9670,
      "lom": 9671,
      "loc": 9672,
      "voice": 9673,
      "thoa": 9674,
      "##ella": 9675,
      "##road": 9676,
      "thich": 9677,
      "rec": 9678,
      "inf": 9679,
      "mah": 9680,
      "ligue": 9681,
      "155": 9682,
      "50m": 9683,
      "##derson": 9684,
      "##ded": 9685,
      "audit": 9686,
      "18k": 9687,
      "rule": 9688,
      "vietsub": 9689,
      "petro": 9690,
      "csgo": 9691,
      "iso": 9692,
      "atta": 9693,
      "unf": 9694,
      "passport": 9695,
      "pvf": 9696,
      "vf5": 9697,
      "abcxyz": 9698,
      "iron": 9699,
      "every": 9700,
      "finance": 9701,
      "telegram": 9702,
      "xòe": 9703,
      "year": 9704,
      "corona": 9705,
      "arab": 9706,
      "santafe": 9707,
      "engineer": 9708,
      "scot": 9709,
      "mafia": 9710,
      "nextvoz": 9711,
      "brighton": 9712,
      "(((": 9713,
      ">>": 9714,
      "băn": 9715,
      "cữ": 9716,
      "dg": 9717,
      "dũ": 9718,
      "ebook": 9719,
      "fx": 9720,
      "fal": 9721,
      "gọt": 9722,
      "gout": 9723,
      "nđ": 9724,
      "nung": 9725,
      "og": 9726,
      "ocb": 9727,
      "p2": 9728,
      "put": 9729,
      "pbct": 9730,
      "rề": 9731,
      "răn": 9732,
      "rẹt": 9733,
      "sôn": 9734,
      "uc": 9735,
      "won": 9736,
      "was": 9737,
      "xõa": 9738,
      "òm": 9739,
      "##uan": 9740,
      "##ual": 9741,
      "##ward": 9742,
      "##vt": 9743,
      "##dar": 9744,
      "##âp": 9745,
      "chác": 9746,
      "cheek": 9747,
      "nhẩm": 9748,
      "nhếch": 9749,
      "phắn": 9750,
      "sad": 9751,
      "conne": 9752,
      "dom": 9753,
      "khoăn": 9754,
      "##alan": 9755,
      "thoy": 9756,
      "thiển": 9757,
      "thiêng": 9758,
      "dial": 9759,
      "##ema": 9760,
      "moder": 9761,
      "2001": 9762,
      "sever": 9763,
      "##ffee": 9764,
      "##lift": 9765,
      "beck": 9766,
      "lãm": 9767,
      "tpcn": 9768,
      "expl": 9769,
      "timeline": 9770,
      "ciu": 9771,
      "cardio": 9772,
      "cx8": 9773,
      "150cc": 9774,
      "steam": 9775,
      "feel": 9776,
      "##ather": 9777,
      "partey": 9778,
      "xnk": 9779,
      "toner": 9780,
      "awd": 9781,
      "##pppppppp": 9782,
      "craw": 9783,
      "pgd": 9784,
      "##bctlhc": 9785,
      "veloz": 9786,
      "$.": 9787,
      "bthu": 9788,
      "dame": 9789,
      "gỉ": 9790,
      "hường": 9791,
      "hốp": 9792,
      "jes": 9793,
      "jor": 9794,
      "lăm": 9795,
      "mó": 9796,
      "mòng": 9797,
      "more": 9798,
      "nòi": 9799,
      "rứa": 9800,
      "ráy": 9801,
      "sấm": 9802,
      "sào": 9803,
      "v3": 9804,
      "vóc": 9805,
      "vén": 9806,
      "wol": 9807,
      "zú": 9808,
      "zời": 9809,
      "ây": 9810,
      "đé": 9811,
      "##gner": 9812,
      "##ish": 9813,
      "##bur": 9814,
      "##160": 9815,
      "##cic": 9816,
      "##9x": 9817,
      "##ểnh": 9818,
      "think": 9819,
      "thèng": 9820,
      "nhao": 9821,
      "nhựt": 9822,
      "khố": 9823,
      "trệt": 9824,
      "trói": 9825,
      "giông": 9826,
      "toé": 9827,
      "tomi": 9828,
      "khiễng": 9829,
      "đãng": 9830,
      "coo": 9831,
      "chiêm": 9832,
      "volu": 9833,
      "vill": 9834,
      "sur": 9835,
      "sugg": 9836,
      "##asu": 9837,
      "inno": 9838,
      "lia": 9839,
      "clay": 9840,
      "nobel": 9841,
      "duck": 9842,
      "huyễn": 9843,
      "gàu": 9844,
      "law": 9845,
      "115": 9846,
      "vinno": 9847,
      "đmm": 9848,
      "##cos": 9849,
      "bei": 9850,
      "fortun": 9851,
      "##bike": 9852,
      "170": 9853,
      "175": 9854,
      "báu": 9855,
      "naked": 9856,
      "scandal": 9857,
      "minds": 9858,
      "27t": 9859,
      "wax": 9860,
      "1k5": 9861,
      "xhaka": 9862,
      "mpv": 9863,
      "mobifone": 9864,
      "assist": 9865,
      "##lux": 9866,
      "games": 9867,
      "250tr": 9868,
      "##aaaaaaaa": 9869,
      "ubnd": 9870,
      "==>": 9871,
      "cruise": 9872,
      "scooter": 9873,
      "pikachu": 9874,
      "volume": 9875,
      "mindset": 9876,
      "!.": 9877,
      "5đ": 9878,
      "8m": 9879,
      "ala": 9880,
      "dà": 9881,
      "dẫu": 9882,
      "gủng": 9883,
      "htv": 9884,
      "iv": 9885,
      "jup": 9886,
      "kak": 9887,
      "ox": 9888,
      "pic": 9889,
      "q9": 9890,
      "rốn": 9891,
      "sạt": 9892,
      "s23": 9893,
      "tằng": 9894,
      "tòng": 9895,
      "êi": 9896,
      "úi": 9897,
      "ịch": 9898,
      "##pod": 9899,
      "##ey": 9900,
      "##my": 9901,
      "##game": 9902,
      "##new": 9903,
      "##kin": 9904,
      "thòng": 9905,
      "chẽ": 9906,
      "chình": 9907,
      "nhg": 9908,
      "nhuyễn": 9909,
      "ngốn": 9910,
      "ngào": 9911,
      "kham": 9912,
      "trét": 9913,
      "phiệt": 9914,
      "vàn": 9915,
      "hoo": 9916,
      "colo": 9917,
      "coffee": 9918,
      "20cm": 9919,
      "kiếng": 9920,
      "##led": 9921,
      "viu": 9922,
      "bing": 9923,
      "##ros": 9924,
      "##asis": 9925,
      "okay": 9926,
      "ria": 9927,
      "chabi": 9928,
      "movie": 9929,
      "siu": 9930,
      "lak": 9931,
      "##vien": 9932,
      "dụm": 9933,
      "2025": 9934,
      "##ria": 9935,
      "bhsk": 9936,
      "18tr": 9937,
      "bts": 9938,
      "viettin": 9939,
      "##shot": 9940,
      "bùm": 9941,
      "ncl": 9942,
      "modem": 9943,
      "joker": 9944,
      "using": 9945,
      "street": 9946,
      "bray": 9947,
      "action": 9948,
      "scr": 9949,
      "##mino": 9950,
      "benz": 9951,
      "chipu": 9952,
      "front": 9953,
      "##123": 9954,
      "touring": 9955,
      "alien": 9956,
      "rodai": 9957,
      "designer": 9958,
      "cgv": 9959,
      "tđn": 9960,
      "royal": 9961,
      "4rum": 9962,
      "americ": 9963,
      "nẻo": 9964,
      "napoli": 9965,
      "1s": 9966,
      "6t": 9967,
      ":>": 9968,
      "bầm": 9969,
      "bẹp": 9970,
      "bướng": 9971,
      "ekip": 9972,
      "gả": 9973,
      "had": 9974,
      "k5": 9975,
      "m5": 9976,
      "pes": 9977,
      "qtrong": 9978,
      "rúng": 9979,
      "rặn": 9980,
      "tts": 9981,
      "wing": 9982,
      "xổi": 9983,
      "xiêu": 9984,
      "zui": 9985,
      "ải": 9986,
      "##name": 9987,
      "##fica": 9988,
      "##we": 9989,
      "##sport": 9990,
      "##vat": 9991,
      "##zone": 9992,
      "##jk": 9993,
      "##97": 9994,
      "##õn": 9995,
      "ngời": 9996,
      "ngao": 9997,
      "ngạn": 9998,
      "ngão": 9999,
      "khẩm": 10000,
      "quắc": 10001,
      "##aya": 10002,
      "saf": 10003,
      "luka": 10004,
      "chỉn": 10005,
      "thuở": 10006,
      "doãn": 10007,
      "tala": 10008,
      "chuốt": 10009,
      "108": 10010,
      "##alia": 10011,
      "1000km": 10012,
      "rev": 10013,
      "##tem": 10014,
      "ini": 10015,
      "##eeee": 10016,
      ".............": 10017,
      "death": 10018,
      "nilon": 10019,
      "lolz": 10020,
      "sil": 10021,
      "rose": 10022,
      "roger": 10023,
      "##lice": 10024,
      "đmx": 10025,
      "bede": 10026,
      "##aily": 10027,
      "thùy": 10028,
      "shiper": 10029,
      "22h": 10030,
      "napas": 10031,
      "maria": 10032,
      "450k": 10033,
      "vđv": 10034,
      "6h30": 10035,
      "mainstream": 10036,
      "truân": 10037,
      "masan": 10038,
      "##uire": 10039,
      "highlight": 10040,
      "slim": 10041,
      "monster": 10042,
      "porto": 10043,
      "tony": 10044,
      "rhm": 10045,
      "laser": 10046,
      "pirlo": 10047,
      "tgdđ": 10048,
      "family": 10049,
      "bthuong": 10050,
      "jesus": 10051,
      "jupiter": 10052,
      ".?": 10053,
      "550": 10054,
      "71": 10055,
      "a4": 10056,
      "bxh": 10057,
      "côi": 10058,
      "cel": 10059,
      "dơi": 10060,
      "dau": 10061,
      "fat": 10062,
      "hịn": 10063,
      "ld": 10064,
      "mf": 10065,
      "mấu": 10066,
      "nd": 10067,
      "nou": 10068,
      "nato": 10069,
      "pal": 10070,
      "pun": 10071,
      "sầm": 10072,
      "sệt": 10073,
      "sảy": 10074,
      "tót": 10075,
      "uv": 10076,
      "vái": 10077,
      "vạy": 10078,
      "xời": 10079,
      "xấp": 10080,
      "xẹp": 10081,
      "xồn": 10082,
      "xùm": 10083,
      "yen": 10084,
      "đell": 10085,
      "##pard": 10086,
      "##food": 10087,
      "##ome": 10088,
      "##28": 10089,
      "##).": 10090,
      "##),": 10091,
      "##77": 10092,
      "##ĩu": 10093,
      "thốc": 10094,
      "chệ": 10095,
      "chành": 10096,
      "chấu": 10097,
      "khăng": 10098,
      "##oni": 10099,
      "##chester": 10100,
      "loi": 10101,
      "lobby": 10102,
      "cui": 10103,
      "costa": 10104,
      "sogood": 10105,
      "vnam": 10106,
      "nguỵ": 10107,
      "shank": 10108,
      "##orer": 10109,
      "ance": 10110,
      "thủi": 10111,
      "diaz": 10112,
      "##ingham": 10113,
      "##ound": 10114,
      "move": 10115,
      "##idan": 10116,
      "lei": 10117,
      "##rick": 10118,
      "##fect": 10119,
      "nhiễu": 10120,
      "offic": 10121,
      "otofun": 10122,
      "35tr": 10123,
      "usdt": 10124,
      "london": 10125,
      "bỉu": 10126,
      "##rrrr": 10127,
      "3tr5": 10128,
      "xhcn": 10129,
      "mtb": 10130,
      "captain": 10131,
      "vtp": 10132,
      "united": 10133,
      "boost": 10134,
      "qhtd": 10135,
      "martin": 10136,
      "walker": 10137,
      "trading": 10138,
      "lingard": 10139,
      "logistic": 10140,
      "logistics": 10141,
      "bủn": 10142,
      "discord": 10143,
      "tttm": 10144,
      "flagship": 10145,
      "erik": 10146,
      "()": 10147,
      ":*": 10148,
      "aa": 10149,
      "bấp": 10150,
      "cia": 10151,
      "dớt": 10152,
      "dãn": 10153,
      "gồ": 10154,
      "gã": 10155,
      "hèm": 10156,
      "hall": 10157,
      "iss": 10158,
      "mậy": 10159,
      "mồn": 10160,
      "nm": 10161,
      "oái": 10162,
      "oud": 10163,
      "rằm": 10164,
      "s1": 10165,
      "sym": 10166,
      "túp": 10167,
      "tetua": 10168,
      "váng": 10169,
      "xiết": 10170,
      "áy": 10171,
      "đỉ": 10172,
      "##eid": 10173,
      "##hz": 10174,
      "##ab": 10175,
      "##wc": 10176,
      "##sun": 10177,
      "##bra": 10178,
      "##kka": 10179,
      "##350": 10180,
      "##44": 10181,
      "##ằg": 10182,
      "chây": 10183,
      "chộp": 10184,
      "nhại": 10185,
      "nhing": 10186,
      "trặc": 10187,
      "trạch": 10188,
      "phệ": 10189,
      "sat": 10190,
[...]
